{
  "version": "1.0",
  "truncation": null,
  "padding": null,
  "added_tokens": [
    {
      "id": 0,
      "content": "[PAD]",
      "single_word": false,
      "lstrip": false,
      "rstrip": false,
      "normalized": false,
      "special": true
    },
    {
      "id": 1,
      "content": "[UNK]",
      "single_word": false,
      "lstrip": false,
      "rstrip": false,
      "normalized": false,
      "special": true
    },
    {
      "id": 2,
      "content": "[BOS]",
      "single_word": false,
      "lstrip": false,
      "rstrip": false,
      "normalized": false,
      "special": true
    },
    {
      "id": 3,
      "content": "[EOS]",
      "single_word": false,
      "lstrip": false,
      "rstrip": false,
      "normalized": false,
      "special": true
    }
  ],
  "normalizer": null,
  "pre_tokenizer": {
    "type": "Whitespace"
  },
  "post_processor": null,
  "decoder": null,
  "model": {
    "type": "WordPiece",
    "unk_token": "[UNK]",
    "continuing_subword_prefix": "##",
    "max_input_chars_per_word": 100,
    "vocab": {
      "[PAD]": 0,
      "[UNK]": 1,
      "[BOS]": 2,
      "[EOS]": 3,
      "!": 4,
      "\"": 5,
      "#": 6,
      "%": 7,
      "&": 8,
      "'": 9,
      "(": 10,
      ")": 11,
      ",": 12,
      "-": 13,
      ".": 14,
      "/": 15,
      "0": 16,
      "1": 17,
      "2": 18,
      "3": 19,
      "4": 20,
      "5": 21,
      "6": 22,
      "7": 23,
      "8": 24,
      "9": 25,
      ":": 26,
      ";": 27,
      "?": 28,
      "@": 29,
      "A": 30,
      "B": 31,
      "C": 32,
      "D": 33,
      "E": 34,
      "F": 35,
      "G": 36,
      "H": 37,
      "I": 38,
      "J": 39,
      "K": 40,
      "L": 41,
      "M": 42,
      "N": 43,
      "O": 44,
      "P": 45,
      "Q": 46,
      "R": 47,
      "S": 48,
      "T": 49,
      "U": 50,
      "V": 51,
      "W": 52,
      "X": 53,
      "Y": 54,
      "Z": 55,
      "_": 56,
      "a": 57,
      "b": 58,
      "c": 59,
      "d": 60,
      "e": 61,
      "f": 62,
      "g": 63,
      "h": 64,
      "i": 65,
      "j": 66,
      "k": 67,
      "l": 68,
      "m": 69,
      "n": 70,
      "o": 71,
      "p": 72,
      "q": 73,
      "r": 74,
      "s": 75,
      "t": 76,
      "u": 77,
      "v": 78,
      "w": 79,
      "x": 80,
      "y": 81,
      "z": 82,
      "Ä": 83,
      "Ö": 84,
      "Ü": 85,
      "ß": 86,
      "à": 87,
      "ä": 88,
      "è": 89,
      "é": 90,
      "ñ": 91,
      "ö": 92,
      "ü": 93,
      "–": 94,
      "‘": 95,
      "’": 96,
      "“": 97,
      "”": 98,
      "„": 99,
      "##l": 100,
      "##e": 101,
      "##i": 102,
      "##n": 103,
      "##b": 104,
      "##a": 105,
      "##u": 106,
      "##r": 107,
      "##p": 108,
      "##z": 109,
      "##t": 110,
      "##s": 111,
      "##m": 112,
      "##g": 113,
      "##o": 114,
      "##k": 115,
      "##d": 116,
      "##h": 117,
      "##c": 118,
      "##v": 119,
      "##f": 120,
      "##ü": 121,
      "##ä": 122,
      "##y": 123,
      "##ß": 124,
      "##w": 125,
      "##H": 126,
      "##E": 127,
      "##F": 128,
      "##A": 129,
      "##C": 130,
      "##S": 131,
      "##O": 132,
      "##P": 133,
      "##6": 134,
      "##-": 135,
      "##I": 136,
      "##G": 137,
      "##ö": 138,
      "##N": 139,
      "##D": 140,
      "##j": 141,
      "##.": 142,
      "##x": 143,
      "##q": 144,
      "##W": 145,
      "##T": 146,
      "##M": 147,
      "##U": 148,
      "##9": 149,
      "##2": 150,
      "##V": 151,
      "##5": 152,
      "##0": 153,
      "##“": 154,
      "##R": 155,
      "##1": 156,
      "##3": 157,
      "##7": 158,
      "##,": 159,
      "##B": 160,
      "##L": 161,
      "##8": 162,
      "##4": 163,
      "##X": 164,
      "##ñ": 165,
      "##K": 166,
      "##é": 167,
      "##J": 168,
      "##@": 169,
      "##Y": 170,
      "##è": 171,
      "##'": 172,
      "##\"": 173,
      "##Q": 174,
      "##_": 175,
      "##in": 176,
      "##en": 177,
      "##er": 178,
      "ein": 179,
      "##ch": 180,
      "##em": 181,
      "Ein": 182,
      "##ei": 183,
      "##nd": 184,
      "##au": 185,
      "##it": 186,
      "##an": 187,
      "einem": 188,
      "##el": 189,
      "in": 190,
      "##uf": 191,
      "mit": 192,
      "auf": 193,
      "und": 194,
      "##ar": 195,
      "##es": 196,
      "##ann": 197,
      "##te": 198,
      "Mann": 199,
      "##ie": 200,
      "##un": 201,
      "##hr": 202,
      "##rau": 203,
      "##on": 204,
      "##sch": 205,
      "einer": 206,
      "##ter": 207,
      "##ten": 208,
      "Eine": 209,
      "##ung": 210,
      "##as": 211,
      "Frau": 212,
      "##ein": 213,
      "##ck": 214,
      "##ra": 215,
      "##or": 216,
      "##ll": 217,
      "##st": 218,
      "der": 219,
      "sch": 220,
      "##ich": 221,
      "##iel": 222,
      "St": 223,
      "##wei": 224,
      "Mä": 225,
      "eine": 226,
      "##gen": 227,
      "##piel": 228,
      "die": 229,
      "einen": 230,
      "an": 231,
      "##ht": 232,
      "##gt": 233,
      "##ben": 234,
      "Sch": 235,
      "##chen": 236,
      "Zwei": 237,
      "##and": 238,
      "##et": 239,
      "##ind": 240,
      "##und": 241,
      "im": 242,
      "##ge": 243,
      "zu": 244,
      "ge": 245,
      "##itz": 246,
      "ste": 247,
      "##ers": 248,
      "##ber": 249,
      "##hen": 250,
      "##ier": 251,
      "##rei": 252,
      "sitz": 253,
      "bl": 254,
      "vor": 255,
      "##am": 256,
      "kl": 257,
      "##ner": 258,
      "##ßen": 259,
      "##ot": 260,
      "##us": 261,
      "##de": 262,
      "##all": 263,
      "##ach": 264,
      "##nen": 265,
      "von": 266,
      "##at": 267,
      "##ur": 268,
      "sich": 269,
      "##ähr": 270,
      "Stra": 271,
      "wei": 272,
      "spiel": 273,
      "##al": 274,
      "klein": 275,
      "##isch": 276,
      "##ro": 277,
      "##dchen": 278,
      "Mädchen": 279,
      "schw": 280,
      "dem": 281,
      "##pp": 282,
      "##lei": 283,
      "##unge": 284,
      "Hund": 285,
      "##eu": 286,
      "##men": 287,
      "Kind": 288,
      "##ut": 289,
      "##ße": 290,
      "##arz": 291,
      "##erson": 292,
      "Person": 293,
      "##ru": 294,
      "##end": 295,
      "##nner": 296,
      "schwarz": 297,
      "Männer": 298,
      "##lt": 299,
      "##os": 300,
      "##ahr": 301,
      "steht": 302,
      "##bei": 303,
      "##ass": 304,
      "##ppe": 305,
      "blau": 306,
      "##ir": 307,
      "##ri": 308,
      "den": 309,
      "sein": 310,
      "##pr": 311,
      "sitzt": 312,
      "##ft": 313,
      "##den": 314,
      "Junge": 315,
      "##nt": 316,
      "##schen": 317,
      "Men": 318,
      "##ne": 319,
      "##ger": 320,
      "hä": 321,
      "bei": 322,
      "##ruppe": 323,
      "##fen": 324,
      "Ge": 325,
      "über": 326,
      "Straße": 327,
      "##ährend": 328,
      "während": 329,
      "##rü": 330,
      "##rä": 331,
      "##nder": 332,
      "##leid": 333,
      "Menschen": 334,
      "Gruppe": 335,
      "##ball": 336,
      "Hem": 337,
      "hält": 338,
      "ihr": 339,
      "spielt": 340,
      "##sen": 341,
      "##est": 342,
      "##tet": 343,
      "##il": 344,
      "##re": 345,
      "ro": 346,
      "aus": 347,
      "##ol": 348,
      "Hemd": 349,
      "##eben": 350,
      "spr": 351,
      "##cke": 352,
      "Personen": 353,
      "##ang": 354,
      "##mm": 355,
      "##ell": 356,
      "##ik": 357,
      "das": 358,
      "##ür": 359,
      "##ehr": 360,
      "##uft": 361,
      "##inter": 362,
      "##acht": 363,
      "be": 364,
      "um": 365,
      "lä": 366,
      "ander": 367,
      "##aar": 368,
      "##ern": 369,
      "Wass": 370,
      "##eil": 371,
      "##pf": 372,
      "eines": 373,
      "weißen": 374,
      "neben": 375,
      "##ingt": 376,
      "##ad": 377,
      "blauen": 378,
      "##rad": 379,
      "##urch": 380,
      "##be": 381,
      "Frauen": 382,
      "un": 383,
      "Wasser": 384,
      "am": 385,
      "stehen": 386,
      "##is": 387,
      "durch": 388,
      "gro": 389,
      "roten": 390,
      "##eg": 391,
      "ist": 392,
      "##lter": 393,
      "sitzen": 394,
      "##äu": 395,
      "Drei": 396,
      "ent": 397,
      "spielen": 398,
      "##lich": 399,
      "##arben": 400,
      "##iert": 401,
      "##he": 402,
      "weiß": 403,
      "##kt": 404,
      "##ährt": 405,
      "ver": 406,
      "Hand": 407,
      "##ran": 408,
      "Kinder": 409,
      "Fahr": 410,
      "Kleid": 411,
      "grü": 412,
      "geht": 413,
      "trä": 414,
      "##icht": 415,
      "gel": 416,
      "trägt": 417,
      "##elt": 418,
      "##ckt": 419,
      "fährt": 420,
      "brau": 421,
      "##bo": 422,
      "Leu": 423,
      "##der": 424,
      "##farben": 425,
      "Spiel": 426,
      "##cken": 427,
      "Ober": 428,
      "##la": 429,
      "##lle": 430,
      "Bo": 431,
      "unter": 432,
      "schau": 433,
      "##cht": 434,
      "kleines": 435,
      "##imm": 436,
      "macht": 437,
      "##rbei": 438,
      "##hn": 439,
      "entl": 440,
      "Ko": 441,
      "springt": 442,
      "entlang": 443,
      "##ug": 444,
      "zwei": 445,
      "schwarzen": 446,
      "jung": 447,
      "##anz": 448,
      "Ba": 449,
      "Sh": 450,
      "##teil": 451,
      "##igen": 452,
      "##uß": 453,
      "kleiner": 454,
      "##ig": 455,
      "##ehrer": 456,
      "##tw": 457,
      "##esch": 458,
      "Leute": 459,
      "##spiel": 460,
      "##och": 461,
      "##auf": 462,
      "##fer": 463,
      "Bl": 464,
      "Fel": 465,
      "gehen": 466,
      "##bäu": 467,
      "##ungen": 468,
      "##gel": 469,
      "her": 470,
      "##ischen": 471,
      "st": 472,
      "Fahrrad": 473,
      "Oberteil": 474,
      "Sk": 475,
      "sie": 476,
      "##hl": 477,
      "Fuß": 478,
      "etw": 479,
      "##lä": 480,
      "##irt": 481,
      "etwas": 482,
      "älter": 483,
      "Ball": 484,
      "wir": 485,
      "##ehrere": 486,
      "##fahr": 487,
      "seinem": 488,
      "##eln": 489,
      "hin": 490,
      "großen": 491,
      "##gr": 492,
      "gek": 493,
      "##acke": 494,
      "##eit": 495,
      "##ild": 496,
      "Gebäu": 497,
      "##grund": 498,
      "##rille": 499,
      "##um": 500,
      "Hinter": 501,
      "##ieren": 502,
      "##se": 503,
      "##unter": 504,
      "##zeu": 505,
      "##alten": 506,
      "grünen": 507,
      "##ark": 508,
      "##bt": 509,
      "##nee": 510,
      "er": 511,
      "##ort": 512,
      "Frei": 513,
      "Kam": 514,
      "vers": 515,
      "Bau": 516,
      "##än": 517,
      "##oll": 518,
      "Luft": 519,
      "##boar": 520,
      "##ander": 521,
      "##sam": 522,
      "Der": 523,
      "Mehrere": 524,
      "Shirt": 525,
      "ren": 526,
      "##ige": 527,
      "##era": 528,
      "Strand": 529,
      "junge": 530,
      "##farbenen": 531,
      "Bas": 532,
      "##ff": 533,
      "läuft": 534,
      "##ies": 535,
      "##weg": 536,
      "sind": 537,
      "##aufen": 538,
      "##ett": 539,
      "läch": 540,
      "oran": 541,
      "##si": 542,
      "Hintergrund": 543,
      "für": 544,
      "Jungen": 545,
      "da": 546,
      "rot": 547,
      "Jacke": 548,
      "hinter": 549,
      "nach": 550,
      "##zen": 551,
      "Kleidung": 552,
      "hat": 553,
      "##bl": 554,
      "##ze": 555,
      "arbei": 556,
      "Freien": 557,
      "##om": 558,
      "##ssen": 559,
      "##oto": 560,
      "anderen": 561,
      "schaut": 562,
      "Schw": 563,
      "##ör": 564,
      "##ras": 565,
      "Kopf": 566,
      "Sp": 567,
      "##leide": 568,
      "##spieler": 569,
      "##zeug": 570,
      "##änd": 571,
      "vorbei": 572,
      "##ate": 573,
      "junger": 574,
      "gelben": 575,
      "hoch": 576,
      "##itar": 577,
      "Tisch": 578,
      "##aus": 579,
      "##üt": 580,
      "Hos": 581,
      "Haar": 582,
      "##lat": 583,
      "Fl": 584,
      "##ag": 585,
      "Bü": 586,
      "Kl": 587,
      "##ow": 588,
      "An": 589,
      "##schau": 590,
      "Son": 591,
      "andere": 592,
      "##agen": 593,
      "Nä": 594,
      "al": 595,
      "Schnee": 596,
      "##menge": 597,
      "##fon": 598,
      "##ühr": 599,
      "Hut": 600,
      "Gebäude": 601,
      "ih": 602,
      "Fußball": 603,
      "##board": 604,
      "gekleide": 605,
      "orange": 606,
      "##hne": 607,
      "schwarzer": 608,
      "##tel": 609,
      "##sche": 610,
      "##unk": 611,
      "##achen": 612,
      "blo": 613,
      "##alt": 614,
      "wird": 615,
      "##fahrer": 616,
      "Gras": 617,
      "##ert": 618,
      "Nähe": 619,
      "##ing": 620,
      "##stü": 621,
      "beim": 622,
      "##ap": 623,
      "kleine": 624,
      "##ler": 625,
      "kleinen": 626,
      "Kamera": 627,
      "Gitar": 628,
      "Stad": 629,
      "##enn": 630,
      "Menschenmenge": 631,
      "Ar": 632,
      "Park": 633,
      "##ank": 634,
      "##siat": 635,
      "##erk": 636,
      "##art": 637,
      "##iger": 638,
      "##amm": 639,
      "##uch": 640,
      "Hunde": 641,
      "##utz": 642,
      "Geh": 643,
      "##ans": 644,
      "ros": 645,
      "##ische": 646,
      "weißer": 647,
      "ber": 648,
      "bli": 649,
      "Boden": 650,
      "lie": 651,
      "##sst": 652,
      "##etter": 653,
      "##otor": 654,
      "##ün": 655,
      "##ele": 656,
      "##ock": 657,
      "##op": 658,
      "Ber": 659,
      "##eig": 660,
      "Feld": 661,
      "##ink": 662,
      "rosa": 663,
      "bef": 664,
      "Skate": 665,
      "##che": 666,
      "Die": 667,
      "grau": 668,
      "Pu": 669,
      "rennt": 670,
      "Sonnen": 671,
      "Stadt": 672,
      "Straßen": 673,
      "ihre": 674,
      "##latz": 675,
      "Vier": 676,
      "##kleid": 677,
      "Foto": 678,
      "##ucht": 679,
      "zusam": 680,
      "##eschä": 681,
      "##by": 682,
      "Gitarre": 683,
      "##le": 684,
      "##angen": 685,
      "ihren": 686,
      "##ion": 687,
      "##rik": 688,
      "le": 689,
      "pos": 690,
      "Aut": 691,
      "##ehen": 692,
      "##einander": 693,
      "blond": 694,
      "zusammen": 695,
      "##ack": 696,
      "##eans": 697,
      "##steig": 698,
      "Pfer": 699,
      "war": 700,
      "herum": 701,
      "des": 702,
      "##tein": 703,
      "Ges": 704,
      "Sand": 705,
      "dunk": 706,
      "##ingen": 707,
      "asiat": 708,
      "##eschäft": 709,
      "Motor": 710,
      "##ss": 711,
      "Dam": 712,
      "ab": 713,
      "##sp": 714,
      "##ster": 715,
      "Er": 716,
      "##eitet": 717,
      "fahr": 718,
      "älterer": 719,
      "Jeans": 720,
      "##ob": 721,
      "##raußen": 722,
      "befind": 723,
      "gest": 724,
      "unterh": 725,
      "tra": 726,
      "##eigt": 727,
      "Schu": 728,
      "Bühne": 729,
      "draußen": 730,
      "##är": 731,
      "##elle": 732,
      "In": 733,
      "##elm": 734,
      "Base": 735,
      "Brille": 736,
      "##ver": 737,
      "fahren": 738,
      "##olz": 739,
      "Skateboard": 740,
      "re": 741,
      "Gehweg": 742,
      "Te": 743,
      "seine": 744,
      "Arbei": 745,
      "hell": 746,
      "##wach": 747,
      "sehen": 748,
      "##eiten": 749,
      "Gel": 750,
      "##ikro": 751,
      "hinunter": 752,
      "##kleidung": 753,
      "##wachsen": 754,
      "Mikro": 755,
      "##ischer": 756,
      "Essen": 757,
      "##las": 758,
      "dabei": 759,
      "braunen": 760,
      "Baby": 761,
      "seinen": 762,
      "blickt": 763,
      "##itt": 764,
      "##ieht": 765,
      "##scha": 766,
      "Schwimm": 767,
      "##deck": 768,
      "##brille": 769,
      "tr": 770,
      "##iz": 771,
      "##arkt": 772,
      "Holz": 773,
      "wie": 774,
      "##haar": 775,
      "brauner": 776,
      "liegt": 777,
      "versucht": 778,
      "Re": 779,
      "tanz": 780,
      "Paar": 781,
      "##cks": 782,
      "##ab": 783,
      "arbeitet": 784,
      "##ührt": 785,
      "##of": 786,
      "##uss": 787,
      "Bank": 788,
      "##ffen": 789,
      "Baum": 790,
      "Wand": 791,
      "tragen": 792,
      "##zug": 793,
      "laufen": 794,
      "##per": 795,
      "##lichen": 796,
      "Un": 797,
      "##mp": 798,
      "##ften": 799,
      "Baseball": 800,
      "##lag": 801,
      "als": 802,
      "bet": 803,
      "dar": 804,
      "Mus": 805,
      "Dame": 806,
      "Händ": 807,
      "Rei": 808,
      "Bür": 809,
      "gestrei": 810,
      "machen": 811,
      "##ennen": 812,
      "schauen": 813,
      "lächelt": 814,
      "Hü": 815,
      "voll": 816,
      "Me": 817,
      "Mau": 818,
      "##uhl": 819,
      "##irm": 820,
      "Pf": 821,
      "kur": 822,
      "##lie": 823,
      "##ket": 824,
      "##ald": 825,
      "große": 826,
      "##for": 827,
      "orangefarbenen": 828,
      "Bürger": 829,
      "ihrem": 830,
      "##ütze": 831,
      "##rikot": 832,
      "Bild": 833,
      "##arbei": 834,
      "Boot": 835,
      "Klein": 836,
      "##im": 837,
      "##ick": 838,
      "##geb": 839,
      "ihm": 840,
      "Auf": 841,
      "Rad": 842,
      "##iest": 843,
      "versch": 844,
      "Gesicht": 845,
      "Se": 846,
      "##unst": 847,
      "Bürgersteig": 848,
      "schlä": 849,
      "gegen": 850,
      "braun": 851,
      "Motorrad": 852,
      "Zu": 853,
      "##aum": 854,
      "##iese": 855,
      "arbeiten": 856,
      "kletter": 857,
      "##immt": 858,
      "junges": 859,
      "Pferd": 860,
      "##ien": 861,
      "ältere": 862,
      "Hose": 863,
      "grün": 864,
      "zeigt": 865,
      "##hä": 866,
      "##ßt": 867,
      "Trikot": 868,
      "halten": 869,
      "##antel": 870,
      "Schl": 871,
      "sieht": 872,
      "##platz": 873,
      "##rach": 874,
      "spricht": 875,
      "unterhalten": 876,
      "liest": 877,
      "##schaft": 878,
      "Wald": 879,
      "drei": 880,
      "##ennis": 881,
      "Tennis": 882,
      "##wagen": 883,
      "schn": 884,
      "##bedeck": 885,
      "Berg": 886,
      "Hosen": 887,
      "##elefon": 888,
      "##ine": 889,
      "Haaren": 890,
      "Band": 891,
      "##asch": 892,
      "weißem": 893,
      "Musik": 894,
      "wer": 895,
      "##ät": 896,
      "Gew": 897,
      "Spieler": 898,
      "Bahn": 899,
      "##assen": 900,
      "viel": 901,
      "##gend": 902,
      "Meer": 903,
      "Fo": 904,
      "Kü": 905,
      "##eich": 906,
      "##estau": 907,
      "##rant": 908,
      "betrach": 909,
      "Helm": 910,
      "Kunst": 911,
      "Tag": 912,
      "##üll": 913,
      "Auto": 914,
      "Stein": 915,
      "zum": 916,
      "Sonnenbrille": 917,
      "##estaurant": 918,
      "Ta": 919,
      "gelb": 920,
      "Blu": 921,
      "ho": 922,
      "##liche": 923,
      "Basket": 924,
      "##stru": 925,
      "##orts": 926,
      "gekleidete": 927,
      "grauen": 928,
      "##obach": 929,
      "Restaurant": 930,
      "##qu": 931,
      "seiner": 932,
      "sp": 933,
      "##ak": 934,
      "Basketball": 935,
      "beobach": 936,
      "Felsen": 937,
      "##sehen": 938,
      "Arm": 939,
      "Zuschau": 940,
      "Ka": 941,
      "blauem": 942,
      "##euer": 943,
      "schie": 944,
      "##otball": 945,
      "verk": 946,
      "Football": 947,
      "singt": 948,
      "##este": 949,
      "Spr": 950,
      "ihnen": 951,
      "Erwachsen": 952,
      "Ru": 953,
      "##etz": 954,
      "Eis": 955,
      "Mantel": 956,
      "##schu": 957,
      "##enster": 958,
      "##ange": 959,
      "weiße": 960,
      "groß": 961,
      "Fenster": 962,
      "##ken": 963,
      "Mikrofon": 964,
      "Schild": 965,
      "##ünf": 966,
      "##llo": 967,
      "##enden": 968,
      "Shorts": 969,
      "posiert": 970,
      "darauf": 971,
      "Pol": 972,
      "##emand": 973,
      "Blumen": 974,
      "Be": 975,
      "Feuer": 976,
      "klettert": 977,
      "führt": 978,
      "##eite": 979,
      "##asen": 980,
      "Spielzeug": 981,
      "##ück": 982,
      "##anzug": 983,
      "befindet": 984,
      "##uchen": 985,
      "##asse": 986,
      "##inkt": 987,
      "dunkel": 988,
      "Roll": 989,
      "##fel": 990,
      "##eren": 991,
      "##ppen": 992,
      "##ahn": 993,
      "##gra": 994,
      "##örper": 995,
      "##ocke": 996,
      "##des": 997,
      "##ufer": 998,
      "##iet": 999,
      "##scht": 1000,
      "##llover": 1001,
      "Geschäft": 1002,
      "##ifor": 1003,
      "##hnt": 1004,
      "blauer": 1005,
      "Arbeiter": 1006,
      "schwarzem": 1007,
      "##rill": 1008,
      "Bade": 1009,
      "wirft": 1010,
      "##ah": 1011,
      "##zer": 1012,
      "Das": 1013,
      "##br": 1014,
      "##aun": 1015,
      "gekleideter": 1016,
      "sehr": 1017,
      "##pu": 1018,
      "##ko": 1019,
      "##änder": 1020,
      "versamm": 1021,
      "rennen": 1022,
      "Regen": 1023,
      "##arbeiter": 1024,
      "##len": 1025,
      "##ste": 1026,
      "Weg": 1027,
      "Bäu": 1028,
      "Raum": 1029,
      "So": 1030,
      "Tre": 1031,
      "Ver": 1032,
      "Vor": 1033,
      "##kind": 1034,
      "##cher": 1035,
      "##licher": 1036,
      "##strumen": 1037,
      "oder": 1038,
      "##use": 1039,
      "Her": 1040,
      "Zeit": 1041,
      "##ahl": 1042,
      "##änger": 1043,
      "Wei": 1044,
      "##ette": 1045,
      "zuschau": 1046,
      "rotem": 1047,
      "isst": 1048,
      "##ke": 1049,
      "roter": 1050,
      "##gest": 1051,
      "##über": 1052,
      "Männern": 1053,
      "Anzug": 1054,
      "Wiese": 1055,
      "##auft": 1056,
      "##unden": 1057,
      "Kindern": 1058,
      "schwarze": 1059,
      "anderer": 1060,
      "Sport": 1061,
      "Pullover": 1062,
      "gestreiften": 1063,
      "gen": 1064,
      "##ikan": 1065,
      "##becken": 1066,
      "lächel": 1067,
      "langen": 1068,
      "##iv": 1069,
      "##bst": 1070,
      "##hon": 1071,
      "##aut": 1072,
      "##itten": 1073,
      "wartet": 1074,
      "bun": 1075,
      "essen": 1076,
      "ins": 1077,
      "##stand": 1078,
      "Kar": 1079,
      "##ater": 1080,
      "##det": 1081,
      "Schutz": 1082,
      "Maul": 1083,
      "##az": 1084,
      "##immer": 1085,
      "Poliz": 1086,
      "##aben": 1087,
      "##gang": 1088,
      "##schirm": 1089,
      "##etall": 1090,
      "##rän": 1091,
      "springen": 1092,
      "zw": 1093,
      "##od": 1094,
      "##körper": 1095,
      "posieren": 1096,
      "Rucks": 1097,
      "##pe": 1098,
      "Stuhl": 1099,
      "Bluse": 1100,
      "Fluss": 1101,
      "Buch": 1102,
      "Viel": 1103,
      "ko": 1104,
      "na": 1105,
      "##her": 1106,
      "##iegel": 1107,
      "Br": 1108,
      "Sn": 1109,
      "bele": 1110,
      "werden": 1111,
      "##sm": 1112,
      "beleb": 1113,
      "Rü": 1114,
      "##aten": 1115,
      "Handy": 1116,
      "Oberkörper": 1117,
      "voller": 1118,
      "##ockey": 1119,
      "Au": 1120,
      "Fünf": 1121,
      "Metall": 1122,
      "gesch": 1123,
      "##zeit": 1124,
      "bereitet": 1125,
      "Hügel": 1126,
      "De": 1127,
      "Sur": 1128,
      "Um": 1129,
      "Vo": 1130,
      "##ellen": 1131,
      "Viele": 1132,
      "Rennen": 1133,
      "##ren": 1134,
      "##ierten": 1135,
      "überqu": 1136,
      "##leidet": 1137,
      "##ist": 1138,
      "##euch": 1139,
      "gekleidet": 1140,
      "Kleinkind": 1141,
      "##we": 1142,
      "##tern": 1143,
      "hän": 1144,
      "Kostü": 1145,
      "warten": 1146,
      "betrachtet": 1147,
      "Haus": 1148,
      "##umm": 1149,
      "##ess": 1150,
      "##ager": 1151,
      "##fro": 1152,
      "Eink": 1153,
      "genie": 1154,
      "zwischen": 1155,
      "Bet": 1156,
      "Bus": 1157,
      "Seil": 1158,
      "umge": 1159,
      "Mit": 1160,
      "##fe": 1161,
      "##erikan": 1162,
      "##att": 1163,
      "Bauarbeiter": 1164,
      "##utzt": 1165,
      "blonde": 1166,
      "tanzen": 1167,
      "kn": 1168,
      "##wand": 1169,
      "##ieden": 1170,
      "##ast": 1171,
      "##ris": 1172,
      "Leuten": 1173,
      "schläft": 1174,
      "flie": 1175,
      "zieht": 1176,
      "##brau": 1177,
      "##dern": 1178,
      "##stra": 1179,
      "Stock": 1180,
      "##ila": 1181,
      "##old": 1182,
      "##isten": 1183,
      "Mütze": 1184,
      "oben": 1185,
      "##äss": 1186,
      "##alb": 1187,
      "##altung": 1188,
      "schnei": 1189,
      "Pap": 1190,
      "##sieht": 1191,
      "##äufer": 1192,
      "##eine": 1193,
      "Schn": 1194,
      "##reibt": 1195,
      "Gra": 1196,
      "alter": 1197,
      "reitet": 1198,
      "##kel": 1199,
      "gef": 1200,
      "lehnt": 1201,
      "##häut": 1202,
      "Snow": 1203,
      "Aus": 1204,
      "Markt": 1205,
      "lila": 1206,
      "##zu": 1207,
      "##sk": 1208,
      "Händen": 1209,
      "##ta": 1210,
      "##ellt": 1211,
      "miteinander": 1212,
      "##aren": 1213,
      "##ichtung": 1214,
      "herunter": 1215,
      "Unifor": 1216,
      "beobachtet": 1217,
      "Kon": 1218,
      "##sh": 1219,
      "Bäumen": 1220,
      "Rucksack": 1221,
      "es": 1222,
      "ges": 1223,
      "paar": 1224,
      "##igt": 1225,
      "##ool": 1226,
      "##ose": 1227,
      "dav": 1228,
      "tanzt": 1229,
      "Out": 1230,
      "Renn": 1231,
      "Tur": 1232,
      "Zug": 1233,
      "##rt": 1234,
      "##hem": 1235,
      "##ied": 1236,
      "ihrer": 1237,
      "Ski": 1238,
      "Radfahrer": 1239,
      "lächelnd": 1240,
      "Fre": 1241,
      "Land": 1242,
      "Zaun": 1243,
      "##bahn": 1244,
      "##graf": 1245,
      "Ro": 1246,
      "##ekt": 1247,
      "##amil": 1248,
      "Tra": 1249,
      "glei": 1250,
      "kar": 1251,
      "män": 1252,
      "##aden": 1253,
      "schnee": 1254,
      "Schwimmbecken": 1255,
      "##aschine": 1256,
      "männ": 1257,
      "vom": 1258,
      "##ebt": 1259,
      "##og": 1260,
      "schiebt": 1261,
      "Famil": 1262,
      "frei": 1263,
      "haben": 1264,
      "lang": 1265,
      "pink": 1266,
      "ru": 1267,
      "Gegen": 1268,
      "befinden": 1269,
      "##haarige": 1270,
      "See": 1271,
      "Gewäss": 1272,
      "##rücke": 1273,
      "##achts": 1274,
      "##farbener": 1275,
      "Einkauf": 1276,
      "Beton": 1277,
      "fr": 1278,
      "##me": 1279,
      "Küche": 1280,
      "##feld": 1281,
      "Rücken": 1282,
      "Get": 1283,
      "Seite": 1284,
      "Schlag": 1285,
      "Zuschauer": 1286,
      "Sprung": 1287,
      "Fris": 1288,
      "gem": 1289,
      "##läche": 1290,
      "##stück": 1291,
      "##ärt": 1292,
      "Arbeit": 1293,
      "Hal": 1294,
      "Pro": 1295,
      "Welle": 1296,
      "fest": 1297,
      "Schau": 1298,
      "Instrumen": 1299,
      "kurzen": 1300,
      "verschieden": 1301,
      "umgeben": 1302,
      "##ul": 1303,
      "##fl": 1304,
      "##ent": 1305,
      "##erh": 1306,
      "##esen": 1307,
      "##ation": 1308,
      "##rick": 1309,
      "##inken": 1310,
      "ben": 1311,
      "gera": 1312,
      "##esten": 1313,
      "Treppe": 1314,
      "Graff": 1315,
      "Gem": 1316,
      "son": 1317,
      "teil": 1318,
      "telefon": 1319,
      "##ade": 1320,
      "Schü": 1321,
      "##hlen": 1322,
      "##boarder": 1323,
      "spaz": 1324,
      "Graffit": 1325,
      "Flag": 1326,
      "##anst": 1327,
      "zur": 1328,
      "##utter": 1329,
      "lächeln": 1330,
      "##bedeckten": 1331,
      "verkauft": 1332,
      "Familie": 1333,
      "Com": 1334,
      "Wagen": 1335,
      "##band": 1336,
      "##kor": 1337,
      "##auen": 1338,
      "##arb": 1339,
      "schein": 1340,
      "ange": 1341,
      "Cow": 1342,
      "Tor": 1343,
      "Verk": 1344,
      "##fit": 1345,
      "##innen": 1346,
      "##ief": 1347,
      "trinkt": 1348,
      "versammelt": 1349,
      "Geträn": 1350,
      "gerade": 1351,
      "kü": 1352,
      "##net": 1353,
      "##par": 1354,
      "##öpf": 1355,
      "##chs": 1356,
      "##ungs": 1357,
      "aussehen": 1358,
      "Papier": 1359,
      "To": 1360,
      "##mt": 1361,
      "##isches": 1362,
      "Schwarz": 1363,
      "rosafarbenen": 1364,
      "ihn": 1365,
      "offen": 1366,
      "##spr": 1367,
      "##dt": 1368,
      "##hör": 1369,
      "##ämp": 1370,
      "mitten": 1371,
      "Autos": 1372,
      "Feuerw": 1373,
      "hängt": 1374,
      "schneidet": 1375,
      "##anstaltung": 1376,
      "Bik": 1377,
      "##hmen": 1378,
      "##iges": 1379,
      "wo": 1380,
      "##iol": 1381,
      "##zimmer": 1382,
      "##yp": 1383,
      "##arten": 1384,
      "##unnen": 1385,
      "schla": 1386,
      "##boy": 1387,
      "telefoniert": 1388,
      "kämp": 1389,
      "##zt": 1390,
      "##gruppe": 1391,
      "##kl": 1392,
      "einige": 1393,
      "##aucht": 1394,
      "##stung": 1395,
      "##mmt": 1396,
      "Teen": 1397,
      "Geländ": 1398,
      "belebten": 1399,
      "fangen": 1400,
      "malt": 1401,
      "##ling": 1402,
      "##ittel": 1403,
      "##osen": 1404,
      "rote": 1405,
      "##ühren": 1406,
      "asiatische": 1407,
      "##schuhen": 1408,
      "bunten": 1409,
      "Outfit": 1410,
      "Frisbe": 1411,
      "spazieren": 1412,
      "Compu": 1413,
      "Cowboy": 1414,
      "Teenager": 1415,
      "Wander": 1416,
      "jemand": 1417,
      "nimmt": 1418,
      "Fußballspieler": 1419,
      "##ünst": 1420,
      "Reihe": 1421,
      "Ger": 1422,
      "##rich": 1423,
      "##ogen": 1424,
      "##alen": 1425,
      "schwimmt": 1426,
      "weißes": 1427,
      "##farbenem": 1428,
      "##immel": 1429,
      "großer": 1430,
      "Gewässer": 1431,
      "sonn": 1432,
      "Rock": 1433,
      "Rasen": 1434,
      "gu": 1435,
      "##ufen": 1436,
      "##teten": 1437,
      "denen": 1438,
      "##lley": 1439,
      "Kopfbedeck": 1440,
      "##sport": 1441,
      "Geländer": 1442,
      "schneebedeckten": 1443,
      "freiem": 1444,
      "Le": 1445,
      "Mutter": 1446,
      "##ee": 1447,
      "##ält": 1448,
      "##rüstung": 1449,
      "##eller": 1450,
      "blicken": 1451,
      "schlägt": 1452,
      "vielen": 1453,
      "Tasche": 1454,
      "##lleyball": 1455,
      "Bart": 1456,
      "Brücke": 1457,
      "##eigen": 1458,
      "##ikum": 1459,
      "Gebäudes": 1460,
      "##blikum": 1461,
      "Hände": 1462,
      "Feuerwehr": 1463,
      "sonnigen": 1464,
      "Himmel": 1465,
      "Typ": 1466,
      "foto": 1467,
      "##ub": 1468,
      "##zogen": 1469,
      "##markt": 1470,
      "##kam": 1471,
      "##ügen": 1472,
      "##jacke": 1473,
      "##schri": 1474,
      "##ampe": 1475,
      "##ommen": 1476,
      "Publikum": 1477,
      "Unter": 1478,
      "fliegt": 1479,
      "##straße": 1480,
      "fotograf": 1481,
      "Ab": 1482,
      "Alter": 1483,
      "Glas": 1484,
      "Platz": 1485,
      "Richtung": 1486,
      "hebt": 1487,
      "lachen": 1488,
      "##ue": 1489,
      "##mann": 1490,
      "##jekt": 1491,
      "Hemden": 1492,
      "hinauf": 1493,
      "Kampf": 1494,
      "kämpfen": 1495,
      "Hoch": 1496,
      "Ju": 1497,
      "Sie": 1498,
      "Tür": 1499,
      "##ill": 1500,
      "##rennen": 1501,
      "##geschäft": 1502,
      "##fläche": 1503,
      "##atte": 1504,
      "Fels": 1505,
      "grünem": 1506,
      "Zeitung": 1507,
      "Wett": 1508,
      "Weste": 1509,
      "tre": 1510,
      "vier": 1511,
      "##werk": 1512,
      "##inger": 1513,
      "dunklen": 1514,
      "Team": 1515,
      "##ffent": 1516,
      "Schutzh": 1517,
      "Müll": 1518,
      "Ne": 1519,
      "##ud": 1520,
      "##fall": 1521,
      "Schal": 1522,
      "##gew": 1523,
      "Spielplatz": 1524,
      "hohen": 1525,
      "Graffiti": 1526,
      "Mar": 1527,
      "##ges": 1528,
      "##ädt": 1529,
      "##erb": 1530,
      "##aub": 1531,
      "##utsche": 1532,
      "##läger": 1533,
      "Flug": 1534,
      "Kopfbedeckung": 1535,
      "Bier": 1536,
      "##acken": 1537,
      "##reu": 1538,
      "##pft": 1539,
      "##äll": 1540,
      "mitt": 1541,
      "##igar": 1542,
      "Erwachsene": 1543,
      "Augen": 1544,
      "Hals": 1545,
      "Computer": 1546,
      "##ünstler": 1547,
      "Kan": 1548,
      "Zigar": 1549,
      "##fest": 1550,
      "Mannes": 1551,
      "##deckt": 1552,
      "liegen": 1553,
      "asiatischer": 1554,
      "hellbrau": 1555,
      "zuschauen": 1556,
      "mittler": 1557,
      "Hof": 1558,
      "Leben": 1559,
      "Pool": 1560,
      "##hut": 1561,
      "schm": 1562,
      "umar": 1563,
      "blondes": 1564,
      "##haariger": 1565,
      "##hemd": 1566,
      "Fisch": 1567,
      "Winter": 1568,
      "bel": 1569,
      "##bank": 1570,
      "##hose": 1571,
      "##auch": 1572,
      "Schirm": 1573,
      "##atue": 1574,
      "blaue": 1575,
      "Schulter": 1576,
      "verschn": 1577,
      "##ummer": 1578,
      "davon": 1579,
      "hü": 1580,
      "mehrere": 1581,
      "ne": 1582,
      "##anc": 1583,
      "##rand": 1584,
      "##etten": 1585,
      "bereiten": 1586,
      "dunkelhäut": 1587,
      "überqueren": 1588,
      "genießt": 1589,
      "Freund": 1590,
      "karierten": 1591,
      "Schaukel": 1592,
      "Bar": 1593,
      "Co": 1594,
      "Dach": 1595,
      "Jemand": 1596,
      "Mo": 1597,
      "Tro": 1598,
      "Ziegel": 1599,
      "##ok": 1600,
      "##hü": 1601,
      "Stück": 1602,
      "##recke": 1603,
      "alte": 1604,
      "##laster": 1605,
      "Kunststück": 1606,
      "Decke": 1607,
      "Jugend": 1608,
      "Tanz": 1609,
      "lacht": 1610,
      "##ibt": 1611,
      "##park": 1612,
      "##sten": 1613,
      "##auer": 1614,
      "schö": 1615,
      "beg": 1616,
      "tritt": 1617,
      "Mauer": 1618,
      "Zuschauern": 1619,
      "##brett": 1620,
      "Frisbee": 1621,
      "mittleren": 1622,
      "Fot": 1623,
      "Kra": 1624,
      "ries": 1625,
      "öffent": 1626,
      "##ons": 1627,
      "##rädern": 1628,
      "Blick": 1629,
      "##ängt": 1630,
      "bereit": 1631,
      "repar": 1632,
      "benutzt": 1633,
      "Gemü": 1634,
      "##schrift": 1635,
      "Brau": 1636,
      "Sof": 1637,
      "Sold": 1638,
      "bes": 1639,
      "##bar": 1640,
      "##bild": 1641,
      "##ron": 1642,
      "##haus": 1643,
      "##els": 1644,
      "Menge": 1645,
      "##rün": 1646,
      "Baseballspieler": 1647,
      "Volleyball": 1648,
      "Obst": 1649,
      "Par": 1650,
      "grei": 1651,
      "nä": 1652,
      "viol": 1653,
      "##los": 1654,
      "##gänger": 1655,
      "##ho": 1656,
      "einigen": 1657,
      "Einige": 1658,
      "##elmen": 1659,
      "Schür": 1660,
      "gew": 1661,
      "Mensch": 1662,
      "##reckt": 1663,
      "städt": 1664,
      "alten": 1665,
      "unterhält": 1666,
      "Alters": 1667,
      "Lebensm": 1668,
      "Ak": 1669,
      "Mund": 1670,
      "##pfen": 1671,
      "##tik": 1672,
      "##off": 1673,
      "##ini": 1674,
      "##stuhl": 1675,
      "zusieht": 1676,
      "##deo": 1677,
      "##ender": 1678,
      "gelber": 1679,
      "orangen": 1680,
      "nahe": 1681,
      "Uniform": 1682,
      "Fotos": 1683,
      "Asi": 1684,
      "Kor": 1685,
      "auß": 1686,
      "##gebäu": 1687,
      "nebeneinander": 1688,
      "Fußgänger": 1689,
      "Reifen": 1690,
      "##immen": 1691,
      "großes": 1692,
      "Weihn": 1693,
      "zuschaut": 1694,
      "Mitte": 1695,
      "Sofa": 1696,
      "Bein": 1697,
      "Lei": 1698,
      "dies": 1699,
      "farben": 1700,
      "mehrer": 1701,
      "nicht": 1702,
      "rut": 1703,
      "##af": 1704,
      "Stü": 1705,
      "zusehen": 1706,
      "lässt": 1707,
      "Bu": 1708,
      "Cl": 1709,
      "Ch": 1710,
      "Dies": 1711,
      "Hockey": 1712,
      "Nacht": 1713,
      "all": 1714,
      "nachts": 1715,
      "##ickt": 1716,
      "##oß": 1717,
      "schüt": 1718,
      "braune": 1719,
      "##igk": 1720,
      "Sonne": 1721,
      "kniet": 1722,
      "Gegenstand": 1723,
      "Einkaufs": 1724,
      "##kampf": 1725,
      "Asiat": 1726,
      "Ufer": 1727,
      "hör": 1728,
      "##lin": 1729,
      "##egt": 1730,
      "##ition": 1731,
      "##itzt": 1732,
      "bew": 1733,
      "hinten": 1734,
      "versuchen": 1735,
      "Herr": 1736,
      "Surfer": 1737,
      "Zigarette": 1738,
      "Grill": 1739,
      "Nummer": 1740,
      "Zelt": 1741,
      "gibt": 1742,
      "##ohn": 1743,
      "##kon": 1744,
      "##frik": 1745,
      "##erne": 1746,
      "##ong": 1747,
      "##amerikan": 1748,
      "unbe": 1749,
      "gestreift": 1750,
      "kurz": 1751,
      "beobachten": 1752,
      "##etzt": 1753,
      "scheint": 1754,
      "treten": 1755,
      "Braut": 1756,
      "mehreren": 1757,
      "Kn": 1758,
      "Ker": 1759,
      "Sa": 1760,
      "##ritt": 1761,
      "##ause": 1762,
      "Pfad": 1763,
      "Veranstaltung": 1764,
      "Gemüse": 1765,
      "Bett": 1766,
      "Garten": 1767,
      "fängt": 1768,
      "raucht": 1769,
      "##tur": 1770,
      "##gner": 1771,
      "Mannschaft": 1772,
      "##itzen": 1773,
      "##fahren": 1774,
      "Armen": 1775,
      "Trikots": 1776,
      "Flagge": 1777,
      "öffentlichen": 1778,
      "farbenfro": 1779,
      "Eim": 1780,
      "Ferne": 1781,
      "Laden": 1782,
      "Part": 1783,
      "bärt": 1784,
      "##zert": 1785,
      "##eim": 1786,
      "##stelle": 1787,
      "Stange": 1788,
      "Stufen": 1789,
      "beide": 1790,
      "##rück": 1791,
      "##issen": 1792,
      "##lasche": 1793,
      "jungen": 1794,
      "star": 1795,
      "trinken": 1796,
      "betrachten": 1797,
      "gleich": 1798,
      "verschneiten": 1799,
      "Schürze": 1800,
      "##frikan": 1801,
      "Rampe": 1802,
      "führen": 1803,
      "ind": 1804,
      "sur": 1805,
      "weg": 1806,
      "##gehen": 1807,
      "##blauen": 1808,
      "Gehsteig": 1809,
      "Wanderer": 1810,
      "Es": 1811,
      "Ob": 1812,
      "man": 1813,
      "##dien": 1814,
      "##hund": 1815,
      "##hof": 1816,
      "##under": 1817,
      "##alle": 1818,
      "Geb": 1819,
      "##olgt": 1820,
      "verw": 1821,
      "Bow": 1822,
      "##twagen": 1823,
      "##änzer": 1824,
      "rotes": 1825,
      "##gebung": 1826,
      "Musiker": 1827,
      "viele": 1828,
      "Weiß": 1829,
      "Surf": 1830,
      "##euchten": 1831,
      "Kap": 1832,
      "##ust": 1833,
      "##hnen": 1834,
      "##öff": 1835,
      "einander": 1836,
      "##nde": 1837,
      "##arn": 1838,
      "##iehen": 1839,
      "##schn": 1840,
      "unten": 1841,
      "##anzen": 1842,
      "heraus": 1843,
      "blonden": 1844,
      "Geld": 1845,
      "Tennisball": 1846,
      "nackt": 1847,
      "Kostüm": 1848,
      "Snowboarder": 1849,
      "##erhalb": 1850,
      "außerhalb": 1851,
      "Che": 1852,
      "Läufer": 1853,
      "Plas": 1854,
      "Tau": 1855,
      "Telefon": 1856,
      "##rie": 1857,
      "##dru": 1858,
      "##vor": 1859,
      "##öl": 1860,
      "##atten": 1861,
      "weiter": 1862,
      "ausgest": 1863,
      "##untergang": 1864,
      "Sonnenuntergang": 1865,
      "Basketballspieler": 1866,
      "Roller": 1867,
      "Kostümen": 1868,
      "Snowboard": 1869,
      "Turn": 1870,
      "Plastik": 1871,
      "Ho": 1872,
      "Swe": 1873,
      "dass": 1874,
      "hil": 1875,
      "leuchten": 1876,
      "##agt": 1877,
      "##phon": 1878,
      "##mütze": 1879,
      "##üst": 1880,
      "##err": 1881,
      "##arf": 1882,
      "Statue": 1883,
      "zurück": 1884,
      "amerikan": 1885,
      "##liches": 1886,
      "Fahrzeug": 1887,
      "Art": 1888,
      "Skifahrer": 1889,
      "Bikini": 1890,
      "greift": 1891,
      "Lebensmittel": 1892,
      "rutscht": 1893,
      "Bowling": 1894,
      "Sei": 1895,
      "Vater": 1896,
      "##aff": 1897,
      "##pen": 1898,
      "##gesch": 1899,
      "##oten": 1900,
      "Schm": 1901,
      "##eugt": 1902,
      "Kleidern": 1903,
      "Klassen": 1904,
      "Aufschrift": 1905,
      "Brunnen": 1906,
      "##shirt": 1907,
      "fotografiert": 1908,
      "Kapu": 1909,
      "hilft": 1910,
      "##echen": 1911,
      "##köpf": 1912,
      "##eibe": 1913,
      "Stro": 1914,
      "##geht": 1915,
      "##atshirt": 1916,
      "##endet": 1917,
      "blaues": 1918,
      "beiden": 1919,
      "##pflaster": 1920,
      "grüner": 1921,
      "##boot": 1922,
      "##ausrüstung": 1923,
      "##own": 1924,
      "##lekt": 1925,
      "Damen": 1926,
      "reden": 1927,
      "Hüten": 1928,
      "gelbem": 1929,
      "Polizist": 1930,
      "Vogel": 1931,
      "##froamerikan": 1932,
      "männliche": 1933,
      "bärtiger": 1934,
      "surft": 1935,
      "Sweatshirt": 1936,
      "Bal": 1937,
      "Las": 1938,
      "Maschine": 1939,
      "Pass": 1940,
      "br": 1941,
      "bem": 1942,
      "##skleidung": 1943,
      "##halten": 1944,
      "##jak": 1945,
      "##eichen": 1946,
      "##anten": 1947,
      "Haare": 1948,
      "Kletter": 1949,
      "Sechs": 1950,
      "werfen": 1951,
      "Polizisten": 1952,
      "überquert": 1953,
      "Kampfsport": 1954,
      "Hochzeit": 1955,
      "##gebäude": 1956,
      "Leiter": 1957,
      "unbefest": 1958,
      "Krei": 1959,
      "Rot": 1960,
      "barf": 1961,
      "##uck": 1962,
      "##mauer": 1963,
      "##hm": 1964,
      "##ktion": 1965,
      "gelbe": 1966,
      "strei": 1967,
      "##zent": 1968,
      "##ünger": 1969,
      "legt": 1970,
      "Kajak": 1971,
      "versammeln": 1972,
      "städtischen": 1973,
      "nacktem": 1974,
      "Rand": 1975,
      "bal": 1976,
      "##ka": 1977,
      "##einsam": 1978,
      "schl": 1979,
      "##bend": 1980,
      "geb": 1981,
      "##ilber": 1982,
      "##reck": 1983,
      "Anz": 1984,
      "Konzert": 1985,
      "gemeinsam": 1986,
      "nehmen": 1987,
      "Bei": 1988,
      "Kran": 1989,
      "Leine": 1990,
      "Rutsche": 1991,
      "jünger": 1992,
      "##lück": 1993,
      "##ilt": 1994,
      "##stein": 1995,
      "##stell": 1996,
      "schrei": 1997,
      "Schuhen": 1998,
      "Regenschirm": 1999,
      "kommt": 2000,
      "Getränk": 2001,
      "gestreiftem": 2002,
      "Kat": 2003,
      "Waren": 2004,
      "Westen": 2005,
      "Wohn": 2006,
      "gras": 2007,
      "trad": 2008,
      "##ecke": 2009,
      "##ippe": 2010,
      "##afen": 2011,
      "##mus": 2012,
      "##führ": 2013,
      "##schl": 2014,
      "schreibt": 2015,
      "##athon": 2016,
      "##ilit": 2017,
      "##ilder": 2018,
      "##add": 2019,
      "durchs": 2020,
      "##boden": 2021,
      "stellt": 2022,
      "Kopfhör": 2023,
      "Spiegel": 2024,
      "blonder": 2025,
      "##form": 2026,
      "Vorder": 2027,
      "genießen": 2028,
      "##iefeln": 2029,
      "guckt": 2030,
      "Soldaten": 2031,
      "Eimer": 2032,
      "unbefestig": 2033,
      "tradition": 2034,
      "Diese": 2035,
      "Trick": 2036,
      "Tänzer": 2037,
      "Wellen": 2038,
      "silber": 2039,
      "##lan": 2040,
      "##ed": 2041,
      "##tre": 2042,
      "##top": 2043,
      "##watte": 2044,
      "##öcken": 2045,
      "##erle": 2046,
      "##schw": 2047,
      "##urf": 2048,
      "weib": 2049,
      "##blasen": 2050,
      "##ings": 2051,
      "##otorrad": 2052,
      "leeren": 2053,
      "asiatischen": 2054,
      "##spann": 2055,
      "Mikrophon": 2056,
      "Badeanzug": 2057,
      "Umgebung": 2058,
      "Rodeo": 2059,
      "Schlagzeug": 2060,
      "Schüler": 2061,
      "Schutzhelm": 2062,
      "Korb": 2063,
      "Stühlen": 2064,
      "Seifen": 2065,
      "Ende": 2066,
      "Lap": 2067,
      "ohne": 2068,
      "##rgend": 2069,
      "##mitten": 2070,
      "##kat": 2071,
      "##halle": 2072,
      "##öpfen": 2073,
      "##eige": 2074,
      "##aske": 2075,
      "##llen": 2076,
      "##reht": 2077,
      "entspann": 2078,
      "streckt": 2079,
      "gekleideten": 2080,
      "Pfl": 2081,
      "Motorradfahrer": 2082,
      "gelbes": 2083,
      "Kaff": 2084,
      "##rillen": 2085,
      "wobei": 2086,
      "Geländem": 2087,
      "Leder": 2088,
      "Laptop": 2089,
      "Gol": 2090,
      "Ohr": 2091,
      "Vi": 2092,
      "Werk": 2093,
      "afrikan": 2094,
      "ch": 2095,
      "kaufen": 2096,
      "wä": 2097,
      "##mä": 2098,
      "##mten": 2099,
      "##verk": 2100,
      "##üß": 2101,
      "##ön": 2102,
      "inmitten": 2103,
      "##ase": 2104,
      "##rat": 2105,
      "gep": 2106,
      "##reifen": 2107,
      "##ischt": 2108,
      "schwingt": 2109,
      "sprechen": 2110,
      "Wassers": 2111,
      "##egel": 2112,
      "verl": 2113,
      "grauem": 2114,
      "##ssel": 2115,
      "Erwachsenen": 2116,
      "Erwachsener": 2117,
      "##tain": 2118,
      "##richter": 2119,
      "Marathon": 2120,
      "beleuch": 2121,
      "riesigen": 2122,
      "Hö": 2123,
      "de": 2124,
      "fl": 2125,
      "lesen": 2126,
      "##hand": 2127,
      "##ines": 2128,
      "##instrumen": 2129,
      "##chten": 2130,
      "##oren": 2131,
      "Gegend": 2132,
      "anderes": 2133,
      "Handschuhen": 2134,
      "Fahrer": 2135,
      "grüne": 2136,
      "älteren": 2137,
      "Parkplatz": 2138,
      "gegenüber": 2139,
      "Sohn": 2140,
      "Uniformen": 2141,
      "Instrument": 2142,
      "Parade": 2143,
      "Finger": 2144,
      "Hu": 2145,
      "Lauf": 2146,
      "dr": 2147,
      "kom": 2148,
      "singen": 2149,
      "##nah": 2150,
      "##gn": 2151,
      "##kten": 2152,
      "##äch": 2153,
      "Stand": 2154,
      "Schreibt": 2155,
      "##rum": 2156,
      "##räder": 2157,
      "##estelle": 2158,
      "##ader": 2159,
      "##bewachsen": 2160,
      "Kinderwagen": 2161,
      "Gebäuden": 2162,
      "Shirts": 2163,
      "Bergen": 2164,
      "Bereich": 2165,
      "Straßenrand": 2166,
      "Straßenecke": 2167,
      "##ätow": 2168,
      "##üllt": 2169,
      "Treppen": 2170,
      "##tasche": 2171,
      "pinkfarbenen": 2172,
      "offenen": 2173,
      "##reuz": 2174,
      "hört": 2175,
      "starrt": 2176,
      "balanc": 2177,
      "Fern": 2178,
      "Kir": 2179,
      "Künstler": 2180,
      "Sänger": 2181,
      "The": 2182,
      "ganz": 2183,
      "irgend": 2184,
      "jagt": 2185,
      "mar": 2186,
      "rein": 2187,
      "##gem": 2188,
      "Schoß": 2189,
      "##atur": 2190,
      "##ppt": 2191,
      "schwarzes": 2192,
      "##räger": 2193,
      "Backs": 2194,
      "Baustelle": 2195,
      "##verall": 2196,
      "Arme": 2197,
      "Tour": 2198,
      "schlagen": 2199,
      "umarmt": 2200,
      "Party": 2201,
      "Cheerle": 2202,
      "Geländemotorrad": 2203,
      "Backstein": 2204,
      "Gro": 2205,
      "Jacken": 2206,
      "Kuchen": 2207,
      "Overall": 2208,
      "Pause": 2209,
      "Ste": 2210,
      "Wasch": 2211,
      "get": 2212,
      "##bik": 2213,
      "##rm": 2214,
      "##ptur": 2215,
      "##kar": 2216,
      "##halt": 2217,
      "##anne": 2218,
      "##ork": 2219,
      "##ierte": 2220,
      "##leisch": 2221,
      "##irmen": 2222,
      "Fußballspiel": 2223,
      "##stüm": 2224,
      "klettern": 2225,
      "##ulptur": 2226,
      "dunkelhäutiger": 2227,
      "Krawatte": 2228,
      "Clown": 2229,
      "grasbewachsen": 2230,
      "Mob": 2231,
      "Netz": 2232,
      "Tier": 2233,
      "link": 2234,
      "tro": 2235,
      "##ip": 2236,
      "##srichter": 2237,
      "##glie": 2238,
      "##dach": 2239,
      "##hockey": 2240,
      "##farb": 2241,
      "##enkt": 2242,
      "einz": 2243,
      "##ord": 2244,
      "##ständ": 2245,
      "Schatten": 2246,
      "##indern": 2247,
      "gegner": 2248,
      "gepflaster": 2249,
      "##utzen": 2250,
      "bedeckt": 2251,
      "Angel": 2252,
      "orangefarbener": 2253,
      "Tennisspieler": 2254,
      "##üllten": 2255,
      "##skop": 2256,
      "Gelände": 2257,
      "Jugendlicher": 2258,
      "repariert": 2259,
      "##druck": 2260,
      "Vordergrund": 2261,
      "Schreibtisch": 2262,
      "Dra": 2263,
      "Fü": 2264,
      "Fell": 2265,
      "Gesch": 2266,
      "Sich": 2267,
      "Teil": 2268,
      "glück": 2269,
      "neu": 2270,
      "putzt": 2271,
      "##io": 2272,
      "##äck": 2273,
      "##ester": 2274,
      "##team": 2275,
      "##schild": 2276,
      "##strecke": 2277,
      "##urs": 2278,
      "schwimmen": 2279,
      "##asser": 2280,
      "bek": 2281,
      "##bew": 2282,
      "##farbene": 2283,
      "##lage": 2284,
      "unters": 2285,
      "schauk": 2286,
      "Blau": 2287,
      "Fahrradfahrer": 2288,
      "Sandalen": 2289,
      "hellhäut": 2290,
      "kurzer": 2291,
      "gegeneinander": 2292,
      "Schlitten": 2293,
      "Taschen": 2294,
      "verkaufen": 2295,
      "##schuh": 2296,
      "##auto": 2297,
      "gekleidetes": 2298,
      "Schnau": 2299,
      "verschiedene": 2300,
      "##korb": 2301,
      "Flugzeug": 2302,
      "Einkaufswagen": 2303,
      "Kapuzen": 2304,
      "##stellung": 2305,
      "Im": 2306,
      "Kunden": 2307,
      "gut": 2308,
      "so": 2309,
      "“.": 2310,
      "##id": 2311,
      "##rot": 2312,
      "##zä": 2313,
      "##ve": 2314,
      "##westen": 2315,
      "##arm": 2316,
      "##unn": 2317,
      "##orfen": 2318,
      "Schied": 2319,
      "Schläger": 2320,
      "bedien": 2321,
      "##iste": 2322,
      "Fahrrädern": 2323,
      "asiatisches": 2324,
      "Mikroskop": 2325,
      "##ittag": 2326,
      "Baumst": 2327,
      "grünes": 2328,
      "Footballspieler": 2329,
      "angezogen": 2330,
      "jemandem": 2331,
      "##lossen": 2332,
      "##afé": 2333,
      "##führung": 2334,
      "##ilitär": 2335,
      "balanciert": 2336,
      "En": 2337,
      "Lo": 2338,
      "Lab": 2339,
      "alle": 2340,
      "beugt": 2341,
      "fei": 2342,
      "fäll": 2343,
      "ras": 2344,
      "setzt": 2345,
      "winkt": 2346,
      "ziehen": 2347,
      "##lung": 2348,
      "##luft": 2349,
      "##ift": 2350,
      "##iff": 2351,
      "##ac": 2352,
      "##dem": 2353,
      "##führt": 2354,
      "##weste": 2355,
      "einge": 2356,
      "##ankt": 2357,
      "##raum": 2358,
      "##schläger": 2359,
      "Stiefeln": 2360,
      "Schauf": 2361,
      "##amen": 2362,
      "##deon": 2363,
      "##ppich": 2364,
      "##pren": 2365,
      "Blät": 2366,
      "Büro": 2367,
      "Pferden": 2368,
      "Erde": 2369,
      "##gebiet": 2370,
      "##hält": 2371,
      "Schlauch": 2372,
      "Badehose": 2373,
      "##ive": 2374,
      "Train": 2375,
      "Verkehr": 2376,
      "Akkor": 2377,
      "schütt": 2378,
      "##iltelefon": 2379,
      "Golf": 2380,
      "chines": 2381,
      "Mobiltelefon": 2382,
      "Schiedsrichter": 2383,
      "Fall": 2384,
      "Fleisch": 2385,
      "Gri": 2386,
      "Loch": 2387,
      "Pla": 2388,
      "beste": 2389,
      "dreht": 2390,
      "kahl": 2391,
      "##bel": 2392,
      "##rö": 2393,
      "##pl": 2394,
      "##hang": 2395,
      "##hak": 2396,
      "##äsche": 2397,
      "##chte": 2398,
      "Schla": 2399,
      "##bereich": 2400,
      "##atz": 2401,
      "##ment": 2402,
      "##ilfe": 2403,
      "verf": 2404,
      "Koch": 2405,
      "orangefarbenem": 2406,
      "##mpe": 2407,
      "braunem": 2408,
      "Felswand": 2409,
      "Halsband": 2410,
      "hellbrauner": 2411,
      "Surfbrett": 2412,
      "Klassenzimmer": 2413,
      "fällt": 2414,
      "Akkordeon": 2415,
      "Jahr": 2416,
      "Kla": 2417,
      "Tankt": 2418,
      "Zimmer": 2419,
      "fünf": 2420,
      "pro": 2421,
      "reiten": 2422,
      "wunder": 2423,
      "zeigen": 2424,
      "##nung": 2425,
      "##aß": 2426,
      "##uden": 2427,
      "##rem": 2428,
      "##äl": 2429,
      "##allen": 2430,
      "##roll": 2431,
      "##ugel": 2432,
      "##anzügen": 2433,
      "##igem": 2434,
      "Oberteilen": 2435,
      "##wegs": 2436,
      "##aufenster": 2437,
      "##kleidet": 2438,
      "dessen": 2439,
      "Schlamm": 2440,
      "belebte": 2441,
      "davor": 2442,
      "lächelnde": 2443,
      "##erheit": 2444,
      "schmutz": 2445,
      "Weihnachts": 2446,
      "unbefestigten": 2447,
      "##treppe": 2448,
      "Höhe": 2449,
      "Groß": 2450,
      "Sicherheit": 2451,
      "Tanktop": 2452,
      "Bru": 2453,
      "Or": 2454,
      "Pick": 2455,
      "Wind": 2456,
      "for": 2457,
      "##land": 2458,
      "##nis": 2459,
      "##zaun": 2460,
      "##ser": 2461,
      "##co": 2462,
      "##ückt": 2463,
      "##ont": 2464,
      "##irn": 2465,
      "seines": 2466,
      "##prü": 2467,
      "aussieht": 2468,
      "##ehrt": 2469,
      "##geln": 2470,
      "Skater": 2471,
      "##fahrzeug": 2472,
      "erwachsen": 2473,
      "Pferde": 2474,
      "train": 2475,
      "Schul": 2476,
      "Schuhe": 2477,
      "Innen": 2478,
      "redet": 2479,
      "##schaften": 2480,
      "Spring": 2481,
      "##brunnen": 2482,
      "##kommt": 2483,
      "Kanu": 2484,
      "##ongl": 2485,
      "leuchtend": 2486,
      "Lastwagen": 2487,
      "Kreis": 2488,
      "weibliche": 2489,
      "Seifenblasen": 2490,
      "##nahme": 2491,
      "Beg": 2492,
      "Ecke": 2493,
      "Oran": 2494,
      "Toch": 2495,
      "Tischen": 2496,
      "ob": 2497,
      "was": 2498,
      "##du": 2499,
      "##voll": 2500,
      "##fern": 2501,
      "##fährt": 2502,
      "##erin": 2503,
      "##ant": 2504,
      "##untain": 2505,
      "##stad": 2506,
      "Schne": 2507,
      "Schaufenster": 2508,
      "##iern": 2509,
      "##urt": 2510,
      "##alter": 2511,
      "bewe": 2512,
      "Spielfeld": 2513,
      "Spaß": 2514,
      "Skateboarder": 2515,
      "Schlange": 2516,
      "verschiedenen": 2517,
      "küsst": 2518,
      "Mountain": 2519,
      "bemalt": 2520,
      "Kranken": 2521,
      "Pflanzen": 2522,
      "Kaffee": 2523,
      "Schnauze": 2524,
      "##unnel": 2525,
      "##haki": 2526,
      "Nach": 2527,
      "Säu": 2528,
      "Tri": 2529,
      "Teich": 2530,
      "Wü": 2531,
      "ori": 2532,
      "padd": 2533,
      "öff": 2534,
      "##leg": 2535,
      "##riert": 2536,
      "##pro": 2537,
      "##gelt": 2538,
      "##kop": 2539,
      "##hän": 2540,
      "##eier": 2541,
      "Stirn": 2542,
      "##aler": 2543,
      "##endes": 2544,
      "Kopft": 2545,
      "##igur": 2546,
      "Luftball": 2547,
      "Stadion": 2548,
      "Teppich": 2549,
      "##ahnen": 2550,
      "Bäume": 2551,
      "geschm": 2552,
      "lilafarbenen": 2553,
      "Rennstrecke": 2554,
      "Tramp": 2555,
      "küssen": 2556,
      "Gerüst": 2557,
      "Schultern": 2558,
      "Tromm": 2559,
      "schönen": 2560,
      "farbenfrohen": 2561,
      "Objekt": 2562,
      "##köpfiger": 2563,
      "kompl": 2564,
      "grasbewachsenen": 2565,
      "##indernis": 2566,
      "wundersch": 2567,
      "Tochter": 2568,
      "Mountainbik": 2569,
      "Café": 2570,
      "Fe": 2571,
      "Fest": 2572,
      "Flasche": 2573,
      "Haufen": 2574,
      "Tasse": 2575,
      "bis": 2576,
      "jog": 2577,
      "##bad": 2578,
      "##belt": 2579,
      "##ackt": 2580,
      "##asche": 2581,
      "##tra": 2582,
      "##oh": 2583,
      "##üs": 2584,
      "##eicht": 2585,
      "##ard": 2586,
      "Hunden": 2587,
      "##ruppen": 2588,
      "##osten": 2589,
      "##dert": 2590,
      "##laden": 2591,
      "##zene": 2592,
      "recht": 2593,
      "Kai": 2594,
      "Kappe": 2595,
      "kocht": 2596,
      "männlicher": 2597,
      "frisch": 2598,
      "Verkauf": 2599,
      "violetten": 2600,
      "##igkeit": 2601,
      "Sax": 2602,
      "Hula": 2603,
      "Kirche": 2604,
      "gepflasterten": 2605,
      "Farben": 2606,
      "Helmen": 2607,
      "Hindernis": 2608,
      "Lie": 2609,
      "Plat": 2610,
      "Wein": 2611,
      "Zä": 2612,
      "Ziel": 2613,
      "afroamerikan": 2614,
      "dam": 2615,
      "fels": 2616,
      "gol": 2617,
      "hei": 2618,
      "jongl": 2619,
      "wein": 2620,
      "##lauf": 2621,
      "##oo": 2622,
      "##kw": 2623,
      "##do": 2624,
      "##hosen": 2625,
      "##öh": 2626,
      "aufger": 2627,
      "Strecke": 2628,
      "##urg": 2629,
      "##gerät": 2630,
      "überf": 2631,
      "##olin": 2632,
      "##bogen": 2633,
      "unterwegs": 2634,
      "##alto": 2635,
      "Parkbank": 2636,
      "grauer": 2637,
      "asiatisch": 2638,
      "Schuh": 2639,
      "##ärm": 2640,
      "hellen": 2641,
      "Meeres": 2642,
      "Küste": 2643,
      "##kostüm": 2644,
      "Soft": 2645,
      "Karate": 2646,
      "geschlossen": 2647,
      "Freunden": 2648,
      "Landschaft": 2649,
      "##ental": 2650,
      "Flaggen": 2651,
      "aussehende": 2652,
      "umarmen": 2653,
      "Freunde": 2654,
      "##igkeiten": 2655,
      "##linie": 2656,
      "Hoop": 2657,
      "Balkon": 2658,
      "##kappe": 2659,
      "marsch": 2660,
      "Cheerleader": 2661,
      "##rmell": 2662,
      "gegnerischen": 2663,
      "schaukelt": 2664,
      "Schaufel": 2665,
      "oriental": 2666,
      "golden": 2667,
      "Am": 2668,
      "Gasse": 2669,
      "Geige": 2670,
      "Hot": 2671,
      "Hang": 2672,
      "Ke": 2673,
      "Lkw": 2674,
      "Mahl": 2675,
      "Maske": 2676,
      "Mittag": 2677,
      "Qu": 2678,
      "Sachen": 2679,
      "Werb": 2680,
      "brün": 2681,
      "gie": 2682,
      "ärmell": 2683,
      "##uh": 2684,
      "##fte": 2685,
      "##wärt": 2686,
      "##tert": 2687,
      "Studen": 2688,
      "##indet": 2689,
      "##licht": 2690,
      "##fahrt": 2691,
      "Flü": 2692,
      "##schaukel": 2693,
      "##ammer": 2694,
      "dunkler": 2695,
      "Schwimmbrille": 2696,
      "##haariges": 2697,
      "##hälter": 2698,
      "Steine": 2699,
      "##rillt": 2700,
      "Außen": 2701,
      "Schnur": 2702,
      "ruh": 2703,
      "Gegenständ": 2704,
      "##sprung": 2705,
      "Schutzhelmen": 2706,
      "Bullen": 2707,
      "Dieser": 2708,
      "Stroh": 2709,
      "Katze": 2710,
      "entspannt": 2711,
      "beleuchteten": 2712,
      "Touristen": 2713,
      "Kapuzenpu": 2714,
      "bedient": 2715,
      "Schlaf": 2716,
      "##stadt": 2717,
      "Trampolin": 2718,
      "damit": 2719,
      "Al": 2720,
      "Bad": 2721,
      "Fahnen": 2722,
      "Glei": 2723,
      "Kur": 2724,
      "Kreuz": 2725,
      "Militär": 2726,
      "Seiten": 2727,
      "Terr": 2728,
      "Zeichen": 2729,
      "alt": 2730,
      "en": 2731,
      "wur": 2732,
      "##bü": 2733,
      "##grü": 2734,
      "##ki": 2735,
      "##inn": 2736,
      "##inen": 2737,
      "##enk": 2738,
      "##essen": 2739,
      "Stoff": 2740,
      "Schä": 2741,
      "##anda": 2742,
      "gezogen": 2743,
      "##ierter": 2744,
      "##eut": 2745,
      "entfer": 2746,
      "gele": 2747,
      "steigt": 2748,
      "Skiern": 2749,
      "hinab": 2750,
      "##zeugen": 2751,
      "##örm": 2752,
      "Spei": 2753,
      "Berge": 2754,
      "Feldweg": 2755,
      "befest": 2756,
      "Straßenk": 2757,
      "##veranstaltung": 2758,
      "Gesichts": 2759,
      "Kunstwerk": 2760,
      "holt": 2761,
      "hängen": 2762,
      "Turner": 2763,
      "langem": 2764,
      "Schüssel": 2765,
      "Wettkampf": 2766,
      "New": 2767,
      "hüpft": 2768,
      "##hügel": 2769,
      "verwendet": 2770,
      "Kopfhörer": 2771,
      "##bewerb": 2772,
      "##zäun": 2773,
      "Springbrunnen": 2774,
      "jongliert": 2775,
      "Abend": 2776,
      "Bilder": 2777,
      "Laub": 2778,
      "Rett": 2779,
      "Sitzen": 2780,
      "besch": 2781,
      "geschäft": 2782,
      "kauft": 2783,
      "nur": 2784,
      "##ian": 2785,
      "##bis": 2786,
      "##richtung": 2787,
      "##zeigt": 2788,
      "##tü": 2789,
      "##äten": 2790,
      "##arbe": 2791,
      "##one": 2792,
      "##asten": 2793,
      "##ichtet": 2794,
      "##lagen": 2795,
      "##blas": 2796,
      "##omaten": 2797,
      "Klippe": 2798,
      "schießt": 2799,
      "Eishockey": 2800,
      "##ändern": 2801,
      "lächelnder": 2802,
      "Brett": 2803,
      "Umzug": 2804,
      "fliegen": 2805,
      "##flug": 2806,
      "Teams": 2807,
      "Couch": 2808,
      "Anzügen": 2809,
      "links": 2810,
      "##rotest": 2811,
      "Fallschirm": 2812,
      "Sicherheits": 2813,
      "Pickn": 2814,
      "rechts": 2815,
      "Softball": 2816,
      "Ei": 2817,
      "Licht": 2818,
      "Teller": 2819,
      "Tunnel": 2820,
      "Wel": 2821,
      "Wurf": 2822,
      "York": 2823,
      "grillt": 2824,
      "heben": 2825,
      "steil": 2826,
      "wander": 2827,
      "“-": 2828,
      "##ech": 2829,
      "##bus": 2830,
      "##baren": 2831,
      "##afe": 2832,
      "##maschine": 2833,
      "##glas": 2834,
      "##hlt": 2835,
      "##äst": 2836,
      "##yl": 2837,
      "##ere": 2838,
      "einsam": 2839,
      "##emon": 2840,
      "##eister": 2841,
      "inter": 2842,
      "##weise": 2843,
      "##inder": 2844,
      "##gegen": 2845,
      "geöff": 2846,
      "bläst": 2847,
      "##rock": 2848,
      "##ospiel": 2849,
      "##irr": 2850,
      "bekommt": 2851,
      "verh": 2852,
      "Bücher": 2853,
      "##stücke": 2854,
      "##apel": 2855,
      "berührt": 2856,
      "##sstand": 2857,
      "##ophon": 2858,
      "Geschen": 2859,
      "hellblauen": 2860,
      "Reiter": 2861,
      "Ausrüstung": 2862,
      "gesäu": 2863,
      "ruht": 2864,
      "Projekt": 2865,
      "Instrumenten": 2866,
      "aussehender": 2867,
      "Cowboyhut": 2868,
      "fotografieren": 2869,
      "dunkelhäutige": 2870,
      "reparieren": 2871,
      "Asiate": 2872,
      "barfuß": 2873,
      "schüttelt": 2874,
      "Grim": 2875,
      "verfolgt": 2876,
      "Wüste": 2877,
      "Kopftuch": 2878,
      "wunderschö": 2879,
      "wandert": 2880,
      "Da": 2881,
      "For": 2882,
      "Kä": 2883,
      "Kart": 2884,
      "Nase": 2885,
      "best": 2886,
      "dir": 2887,
      "##ic": 2888,
      "##tuch": 2889,
      "##xt": 2890,
      "##ement": 2891,
      "##orn": 2892,
      "gebl": 2893,
      "##itze": 2894,
      "stein": 2895,
      "vorüber": 2896,
      "##nteln": 2897,
      "Personengruppe": 2898,
      "##ürde": 2899,
      "##iertem": 2900,
      "##ktor": 2901,
      "Handtasche": 2902,
      "Box": 2903,
      "schauf": 2904,
      "##aufnahme": 2905,
      "##ützen": 2906,
      "Erd": 2907,
      "Steinen": 2908,
      "hockt": 2909,
      "Geschäfts": 2910,
      "##iform": 2911,
      "Veranda": 2912,
      "Sportler": 2913,
      "Instrumente": 2914,
      "##udio": 2915,
      "violett": 2916,
      "##hoben": 2917,
      "Beinen": 2918,
      "##verkäufer": 2919,
      "reinigt": 2920,
      "bestehen": 2921,
      "überfüllten": 2922,
      "geschlossenen": 2923,
      "Mahlzeit": 2924,
      "Bach": 2925,
      "Din": 2926,
      "Ind": 2927,
      "Nah": 2928,
      "Salto": 2929,
      "auch": 2930,
      "bauen": 2931,
      "farb": 2932,
      "jub": 2933,
      "kon": 2934,
      "linken": 2935,
      "##lü": 2936,
      "##ium": 2937,
      "##bart": 2938,
      "##baum": 2939,
      "##aschen": 2940,
      "##del": 2941,
      "##helm": 2942,
      "##ffer": 2943,
      "##flasche": 2944,
      "##erfer": 2945,
      "##eiß": 2946,
      "##itte": 2947,
      "##elten": 2948,
      "##eskop": 2949,
      "##schirmen": 2950,
      "##ragen": 2951,
      "##etzen": 2952,
      "##alon": 2953,
      "##ross": 2954,
      "beige": 2955,
      "Gep": 2956,
      "##sent": 2957,
      "##mmer": 2958,
      "umher": 2959,
      "Wasserfall": 2960,
      "amüs": 2961,
      "##isk": 2962,
      "Blatt": 2963,
      "stark": 2964,
      "vorbeigehen": 2965,
      "##apan": 2966,
      "##arbeiten": 2967,
      "schnell": 2968,
      "##eichnet": 2969,
      "##schuhe": 2970,
      "##gestellt": 2971,
      "bunt": 2972,
      "##smann": 2973,
      "Hauses": 2974,
      "pinkfarbenem": 2975,
      "gucken": 2976,
      "hüb": 2977,
      "Asiaten": 2978,
      "diesem": 2979,
      "Asiatin": 2980,
      "Gebiet": 2981,
      "amerikanische": 2982,
      "##zentrum": 2983,
      "traditioneller": 2984,
      "Lederjacke": 2985,
      "öffnet": 2986,
      "Zähne": 2987,
      "felsigen": 2988,
      "Fischer": 2989,
      "Gruppen": 2990,
      "He": 2991,
      "Lager": 2992,
      "Pa": 2993,
      "Pos": 2994,
      "Tr": 2995,
      "Tuch": 2996,
      "kann": 2997,
      "mehr": 2998,
      "pass": 2999,
      "plan": 3000,
      "taucht": 3001,
      "##ippen": 3002,
      "##brillen": 3003,
      "##age": 3004,
      "##tisch": 3005,
      "##sel": 3006,
      "##get": 3007,
      "##gitar": 3008,
      "##opren": 3009,
      "##hafen": 3010,
      "##yboard": 3011,
      "Eingang": 3012,
      "aufblas": 3013,
      "##scher": 3014,
      "##schlag": 3015,
      "##lli": 3016,
      "anh": 3017,
      "##bereitet": 3018,
      "bedeck": 3019,
      "vert": 3020,
      "Fahrräder": 3021,
      "Spielen": 3022,
      "untersch": 3023,
      "steigen": 3024,
      "##hle": 3025,
      "Sees": 3026,
      "Gewehr": 3027,
      "Küchen": 3028,
      "##struktion": 3029,
      "##stehen": 3030,
      "schneiden": 3031,
      "langärm": 3032,
      "fröh": 3033,
      "Getränke": 3034,
      "Neopren": 3035,
      "hellbraunen": 3036,
      "Winterkleidung": 3037,
      "Kerl": 3038,
      "##muster": 3039,
      "wäscht": 3040,
      "untersucht": 3041,
      "Blätter": 3042,
      "Werbung": 3043,
      "BM": 3044,
      "Dre": 3045,
      "Hä": 3046,
      "Kissen": 3047,
      "Mö": 3048,
      "Masch": 3049,
      "Mod": 3050,
      "Ol": 3051,
      "Pal": 3052,
      "Tel": 3053,
      "Tarn": 3054,
      "Wäsche": 3055,
      "Zunge": 3056,
      "gold": 3057,
      "hel": 3058,
      "je": 3059,
      "kickt": 3060,
      "pfl": 3061,
      "se": 3062,
      "sau": 3063,
      "samm": 3064,
      "übt": 3065,
      "##sicht": 3066,
      "##mantel": 3067,
      "##ober": 3068,
      "##händ": 3069,
      "##viert": 3070,
      "##äcken": 3071,
      "##wasser": 3072,
      "##ena": 3073,
      "##schein": 3074,
      "##cker": 3075,
      "##stag": 3076,
      "##ichten": 3077,
      "##amp": 3078,
      "##rist": 3079,
      "##pritzt": 3080,
      "beieinander": 3081,
      "##räsent": 3082,
      "sitzende": 3083,
      "gelegt": 3084,
      "##fahrern": 3085,
      "##zeuge": 3086,
      "nachdem": 3087,
      "##leidete": 3088,
      "##änden": 3089,
      "##itarbei": 3090,
      "Fotogra": 3091,
      "Skateboardfahrer": 3092,
      "darunter": 3093,
      "vollen": 3094,
      "Kleine": 3095,
      "##icker": 3096,
      "##ickelt": 3097,
      "##ake": 3098,
      "Rollstuhl": 3099,
      "##azier": 3100,
      "Gerät": 3101,
      "Sieben": 3102,
      "##ällen": 3103,
      "##ance": 3104,
      "Fußgängerüber": 3105,
      "Weihnacht": 3106,
      "allein": 3107,
      "Geldb": 3108,
      "Taucher": 3109,
      "weitere": 3110,
      "Passanten": 3111,
      "streich": 3112,
      "Vide": 3113,
      "einzel": 3114,
      "Baumstamm": 3115,
      "Jahrmarkt": 3116,
      "gießt": 3117,
      "##wärts": 3118,
      "Kurve": 3119,
      "Terrasse": 3120,
      "wurde": 3121,
      "##grünen": 3122,
      "Teleskop": 3123,
      "Brä": 3124,
      "Bord": 3125,
      "Dr": 3126,
      "Dunk": 3127,
      "Fil": 3128,
      "Grün": 3129,
      "Kab": 3130,
      "Kuh": 3131,
      "Mon": 3132,
      "Moto": 3133,
      "Ort": 3134,
      "Per": 3135,
      "Rug": 3136,
      "Su": 3137,
      "höl": 3138,
      "kommen": 3139,
      "mö": 3140,
      "nassen": 3141,
      "reg": 3142,
      "üben": 3143,
      "##ipf": 3144,
      "##nitten": 3145,
      "##ton": 3146,
      "##sa": 3147,
      "##kommen": 3148,
      "##vo": 3149,
      "##wa": 3150,
      "##öcke": 3151,
      "##chern": 3152,
      "##chester": 3153,
      "##eid": 3154,
      "##itter": 3155,
      "##unt": 3156,
      "##stoff": 3157,
      "vorn": 3158,
      "##ale": 3159,
      "##eucht": 3160,
      "##utig": 3161,
      "##räbt": 3162,
      "##ilden": 3163,
      "verkleidet": 3164,
      "hinaus": 3165,
      "Kamer": 3166,
      "rothaarige": 3167,
      "hinterher": 3168,
      "##ütte": 3169,
      "Schwimmer": 3170,
      "vollführt": 3171,
      "Becher": 3172,
      "Karten": 3173,
      "Mitglie": 3174,
      "schlaf": 3175,
      "schlafen": 3176,
      "näh": 3177,
      "geworfen": 3178,
      "Hockeyspieler": 3179,
      "bringt": 3180,
      "barfüß": 3181,
      "##önnen": 3182,
      "rasiert": 3183,
      "Brust": 3184,
      "Keyboard": 3185,
      "Straßenkünstler": 3186,
      "Geschenk": 3187,
      "konzent": 3188,
      "Gepäck": 3189,
      "unterschied": 3190,
      "helfen": 3191,
      "##itarbeiter": 3192,
      "Bräutig": 3193,
      "Rugby": 3194,
      "Bräutigam": 3195,
      "Auft": 3196,
      "Besen": 3197,
      "Ex": 3198,
      "Matte": 3199,
      "Namen": 3200,
      "Tätow": 3201,
      "Träger": 3202,
      "Ur": 3203,
      "dan": 3204,
      "fert": 3205,
      "ger": 3206,
      "mus": 3207,
      "ringen": 3208,
      "tief": 3209,
      "zer": 3210,
      "Über": 3211,
      "##seite": 3212,
      "##heit": 3213,
      "##haufen": 3214,
      "##hilfe": 3215,
      "##äge": 3216,
      "##ymp": 3217,
      "##eilt": 3218,
      "##stufen": 3219,
      "angelt": 3220,
      "##unde": 3221,
      "geben": 3222,
      "gezeigt": 3223,
      "##iere": 3224,
      "sitzenden": 3225,
      "sitzender": 3226,
      "weit": 3227,
      "überprü": 3228,
      "##mmert": 3229,
      "##pfer": 3230,
      "##farbenes": 3231,
      "Spiels": 3232,
      "Flie": 3233,
      "##stühlen": 3234,
      "##ettern": 3235,
      "Fotograf": 3236,
      "abge": 3237,
      "Waldgebiet": 3238,
      "bunte": 3239,
      "Karren": 3240,
      "gleitet": 3241,
      "Arbeitskleidung": 3242,
      "Prof": 3243,
      "Produ": 3244,
      "benutzen": 3245,
      "##gewicht": 3246,
      "schreit": 3247,
      "verlassen": 3248,
      "Drachen": 3249,
      "Geschirr": 3250,
      "hellhäutiger": 3251,
      "Plakat": 3252,
      "paddelt": 3253,
      "##hängen": 3254,
      "goldenen": 3255,
      "Studenten": 3256,
      "Schäfer": 3257,
      "Rettungs": 3258,
      "##gitarre": 3259,
      "Neoprenanzug": 3260,
      "Tätowier": 3261,
      "Afroamerikan": 3262,
      "Ban": 3263,
      "Bes": 3264,
      "Figur": 3265,
      "Heu": 3266,
      "Jockey": 3267,
      "Jungs": 3268,
      "Not": 3269,
      "Ring": 3270,
      "Sm": 3271,
      "Sitz": 3272,
      "Vö": 3273,
      "Viol": 3274,
      "Wild": 3275,
      "at": 3276,
      "brei": 3277,
      "elekt": 3278,
      "kehrt": 3279,
      "khaki": 3280,
      "land": 3281,
      "selt": 3282,
      "tür": 3283,
      "tätow": 3284,
      "##zuf": 3285,
      "##tform": 3286,
      "##satz": 3287,
      "##kte": 3288,
      "##hö": 3289,
      "##cross": 3290,
      "##älle": 3291,
      "##öhn": 3292,
      "##chter": 3293,
      "aufge": 3294,
      "##are": 3295,
      "Staub": 3296,
      "Mänteln": 3297,
      "Schot": 3298,
      "Schiff": 3299,
      "Hundes": 3300,
      "##utach": 3301,
      "##neten": 3302,
      "##nehmen": 3303,
      "ausge": 3304,
      "##bekleidung": 3305,
      "verz": 3306,
      "Handtuch": 3307,
      "##laschen": 3308,
      "herab": 3309,
      "##lät": 3310,
      "##läufer": 3311,
      "Spazier": 3312,
      "##ocks": 3313,
      "lehnen": 3314,
      "Tennisschläger": 3315,
      "Berges": 3316,
      "Musikinstrumen": 3317,
      "Gewand": 3318,
      "Bahnsteig": 3319,
      "Polizei": 3320,
      "Gemäl": 3321,
      "##mannschaft": 3322,
      "Flughafen": 3323,
      "schöne": 3324,
      "begutach": 3325,
      "alleine": 3326,
      "##schnitt": 3327,
      "Turnhalle": 3328,
      "##reckten": 3329,
      "##gnü": 3330,
      "Theke": 3331,
      "glücklich": 3332,
      "feiern": 3333,
      "chinesischen": 3334,
      "Weihnachtsbaum": 3335,
      "bewegt": 3336,
      "Trommel": 3337,
      "ärmellosen": 3338,
      "Schnurr": 3339,
      "Kapuzenpulli": 3340,
      "entfernt": 3341,
      "befestigt": 3342,
      "##zäunten": 3343,
      "Nahaufnahme": 3344,
      "BMX": 3345,
      "Motocross": 3346,
      "konzentriert": 3347,
      "Auftritt": 3348,
      "Schäferhund": 3349,
      "seltsam": 3350,
      "Dau": 3351,
      "Fr": 3352,
      "Frü": 3353,
      "Fläche": 3354,
      "Farbe": 3355,
      "Hän": 3356,
      "Jog": 3357,
      "Ketten": 3358,
      "Kid": 3359,
      "Lin": 3360,
      "Lehrer": 3361,
      "Mat": 3362,
      "Pit": 3363,
      "Pier": 3364,
      "Segel": 3365,
      "US": 3366,
      "Vers": 3367,
      "Zahl": 3368,
      "Zement": 3369,
      "füt": 3370,
      "fast": 3371,
      "folgt": 3372,
      "gräbt": 3373,
      "jagen": 3374,
      "kalten": 3375,
      "lassen": 3376,
      "nass": 3377,
      "##lern": 3378,
      "##icken": 3379,
      "##ippt": 3380,
      "##bau": 3381,
      "##bung": 3382,
      "##sern": 3383,
      "##man": 3384,
      "##glei": 3385,
      "##hol": 3386,
      "##förm": 3387,
      "##ßer": 3388,
      "##asst": 3389,
      "##einw": 3390,
      "##statt": 3391,
      "Station": 3392,
      "Stapel": 3393,
      "##bern": 3394,
      "##roten": 3395,
      "##gerüst": 3396,
      "entgegen": 3397,
      "Handstand": 3398,
      "##ransport": 3399,
      "Koffer": 3400,
      "Skulptur": 3401,
      "##läsern": 3402,
      "Ballon": 3403,
      "##sperr": 3404,
      "rechten": 3405,
      "Wandbild": 3406,
      "braunes": 3407,
      "braunhaarige": 3408,
      "Bahnhof": 3409,
      "schießen": 3410,
      "Bekleidung": 3411,
      "Rolltreppe": 3412,
      "Brot": 3413,
      "##strand": 3414,
      "lächelndes": 3415,
      "offenem": 3416,
      "jemanden": 3417,
      "Wettbewerb": 3418,
      "Trompe": 3419,
      "Soldat": 3420,
      "Hochzeits": 3421,
      "Wohnzimmer": 3422,
      "Angelru": 3423,
      "Orchester": 3424,
      "trainiert": 3425,
      "##legestelle": 3426,
      "Saxophon": 3427,
      "Gegenstände": 3428,
      "geschäftigen": 3429,
      "geblü": 3430,
      "Weihnachtsmann": 3431,
      "Videospiel": 3432,
      "hölzer": 3433,
      "Dor": 3434,
      "El": 3435,
      "Elter": 3436,
      "Fans": 3437,
      "Gass": 3438,
      "Gang": 3439,
      "Gold": 3440,
      "Hocke": 3441,
      "Hafen": 3442,
      "Jung": 3443,
      "Man": 3444,
      "Oze": 3445,
      "Pär": 3446,
      "Rä": 3447,
      "Tatt": 3448,
      "Zahn": 3449,
      "baut": 3450,
      "nied": 3451,
      "rei": 3452,
      "runden": 3453,
      "sel": 3454,
      "##leu": 3455,
      "##bes": 3456,
      "##rutsche": 3457,
      "##plat": 3458,
      "##tag": 3459,
      "##seit": 3460,
      "##salon": 3461,
      "##ote": 3462,
      "##kü": 3463,
      "Mannschaften": 3464,
      "schwei": 3465,
      "Scheibe": 3466,
      "##reichen": 3467,
      "##eutel": 3468,
      "Gegner": 3469,
      "ihres": 3470,
      "##iker": 3471,
      "stehenden": 3472,
      "statt": 3473,
      "Ballons": 3474,
      "erkl": 3475,
      "Freizeit": 3476,
      "##änken": 3477,
      "##wegung": 3478,
      "Spor": 3479,
      "Spitze": 3480,
      "Arena": 3481,
      "Sonnenbrillen": 3482,
      "blondem": 3483,
      "Motorrädern": 3484,
      "Inlin": 3485,
      "Baseballkappe": 3486,
      "Pfütze": 3487,
      "Pfosten": 3488,
      "Bildschirm": 3489,
      "Kleiner": 3490,
      "##geboren": 3491,
      "Kunststücke": 3492,
      "Blue": 3493,
      "Restaurants": 3494,
      "Behälter": 3495,
      "dunkelhaarige": 3496,
      "kochen": 3497,
      "Bushalt": 3498,
      "Traktor": 3499,
      "Topf": 3500,
      "##hüter": 3501,
      "hören": 3502,
      "bewöl": 3503,
      "##affel": 3504,
      "bringen": 3505,
      "silbernen": 3506,
      "Werkzeug": 3507,
      "##männer": 3508,
      "irgendein": 3509,
      "Füßen": 3510,
      "Labor": 3511,
      "kahlköpfiger": 3512,
      "Klav": 3513,
      "##reme": 3514,
      "form": 3515,
      "Orange": 3516,
      "komplett": 3517,
      "Mountainbike": 3518,
      "weint": 3519,
      "brünette": 3520,
      "gelehnt": 3521,
      "steilen": 3522,
      "schaufelt": 3523,
      "mehrfarb": 3524,
      "Häus": 3525,
      "streichelt": 3526,
      "nähert": 3527,
      "Trägerhemd": 3528,
      "daneben": 3529,
      "Gemälde": 3530,
      "Daumen": 3531,
      "hölzernen": 3532,
      "Pärchen": 3533,
      "Bushaltestelle": 3534,
      "Ast": 3535,
      "Aben": 3536,
      "Feier": 3537,
      "Gumm": 3538,
      "Hammer": 3539,
      "Hürde": 3540,
      "Jack": 3541,
      "Kisten": 3542,
      "Mop": 3543,
      "Pat": 3544,
      "Pod": 3545,
      "bie": 3546,
      "beschäft": 3547,
      "grö": 3548,
      "kau": 3549,
      "ler": 3550,
      "lock": 3551,
      "zeichnet": 3552,
      "##locks": 3553,
      "##nes": 3554,
      "##richt": 3555,
      "##zeichen": 3556,
      "##szene": 3557,
      "##merk": 3558,
      "##opf": 3559,
      "##kugel": 3560,
      "##dy": 3561,
      "##ym": 3562,
      "##enz": 3563,
      "##ausch": 3564,
      "##auchen": 3565,
      "##anlage": 3566,
      "##eligen": 3567,
      "##schm": 3568,
      "##raten": 3569,
      "##stange": 3570,
      "Stier": 3571,
      "Schlei": 3572,
      "##reiben": 3573,
      "##ama": 3574,
      "klat": 3575,
      "##othe": 3576,
      "##euert": 3577,
      "##rigen": 3578,
      "##rise": 3579,
      "##nehm": 3580,
      "Menschengruppe": 3581,
      "##tetes": 3582,
      "##ole": 3583,
      "spritzt": 3584,
      "länd": 3585,
      "##adlocks": 3586,
      "##anze": 3587,
      "hinein": 3588,
      "##ome": 3589,
      "Skatepark": 3590,
      "Stadtstraße": 3591,
      "Motorroll": 3592,
      "##haarigen": 3593,
      "Baseballspiel": 3594,
      "Steinmauer": 3595,
      "Tax": 3596,
      "##dessen": 3597,
      "Socken": 3598,
      "##gestell": 3599,
      "Rücks": 3600,
      "Deck": 3601,
      "##esser": 3602,
      "##skulptur": 3603,
      "Rennwagen": 3604,
      "Zuschauermenge": 3605,
      "Graffitis": 3606,
      "scheinen": 3607,
      "Getränken": 3608,
      "Jugendliche": 3609,
      "Dieses": 3610,
      "Einkaufszentrum": 3611,
      "bewund": 3612,
      "ausgestreckten": 3613,
      "Passag": 3614,
      "Kletterer": 3615,
      "jüngeren": 3616,
      "Kopfhörern": 3617,
      "Video": 3618,
      "geparkt": 3619,
      "schmutzigen": 3620,
      "Krankenhaus": 3621,
      "Luftballons": 3622,
      "joggt": 3623,
      "heißen": 3624,
      "Picknickt": 3625,
      "wunderschönen": 3626,
      "Dreadlocks": 3627,
      "sechs": 3628,
      "##händler": 3629,
      "Schnurrbart": 3630,
      "Gassi": 3631,
      "Inlines": 3632,
      "Klavier": 3633,
      "##merksam": 3634,
      "At": 3635,
      "Bre": 3636,
      "Brand": 3637,
      "Ent": 3638,
      "Ele": 3639,
      "Fa": 3640,
      "Fass": 3641,
      "Gür": 3642,
      "Kies": 3643,
      "Kör": 3644,
      "Nicker": 3645,
      "Pi": 3646,
      "Sil": 3647,
      "Ton": 3648,
      "Warn": 3649,
      "bo": 3650,
      "brennen": 3651,
      "disk": 3652,
      "gr": 3653,
      "halb": 3654,
      "nah": 3655,
      "ähn": 3656,
      "##ia": 3657,
      "##zern": 3658,
      "##gu": 3659,
      "##keit": 3660,
      "##dr": 3661,
      "##dü": 3662,
      "##äht": 3663,
      "##xen": 3664,
      "##innt": 3665,
      "##nden": 3666,
      "##itglie": 3667,
      "##ufe": 3668,
      "aufs": 3669,
      "##ieder": 3670,
      "##ask": 3671,
      "##rag": 3672,
      "##racht": 3673,
      "##stock": 3674,
      "##ichtern": 3675,
      "Stab": 3676,
      "##inden": 3677,
      "ged": 3678,
      "##reiche": 3679,
      "##ampen": 3680,
      "Mädchens": 3681,
      "schwach": 3682,
      "##eum": 3683,
      "##rückt": 3684,
      "##rät": 3685,
      "verb": 3686,
      "verlä": 3687,
      "älteres": 3688,
      "Balls": 3689,
      "##ume": 3690,
      "##umpf": 3691,
      "Hinterhof": 3692,
      "erl": 3693,
      "Bauch": 3694,
      "##iesen": 3695,
      "##blau": 3696,
      "vorbeifährt": 3697,
      "Flö": 3698,
      "Anlegestelle": 3699,
      "Nähm": 3700,
      "Gitarrist": 3701,
      "rosafarbenem": 3702,
      "Sanddü": 3703,
      "Schub": 3704,
      "Essens": 3705,
      "##itteln": 3706,
      "Rede": 3707,
      "Baseballmütze": 3708,
      "##arbeit": 3709,
      "##arbeitet": 3710,
      "Herd": 3711,
      "Herbst": 3712,
      "Schutzbrille": 3713,
      "gesp": 3714,
      "langhaariger": 3715,
      "rudert": 3716,
      "Arbeits": 3717,
      "##ricket": 3718,
      "##klam": 3719,
      "Outfits": 3720,
      "Typen": 3721,
      "##gewöhn": 3722,
      "##bildschirm": 3723,
      "Rollerbl": 3724,
      "Bowlingbahn": 3725,
      "Strom": 3726,
      "Fingern": 3727,
      "Füße": 3728,
      "Trainings": 3729,
      "Flüss": 3730,
      "Kreuzung": 3731,
      "Speisen": 3732,
      "##tüte": 3733,
      "gesäumten": 3734,
      "direkt": 3735,
      "Modell": 3736,
      "Geldbör": 3737,
      "einzelner": 3738,
      "Kids": 3739,
      "Dorf": 3740,
      "Rädern": 3741,
      "beschäftigt": 3742,
      "Nickerchen": 3743,
      "diskut": 3744,
      "Nähmaschine": 3745,
      "Bänken": 3746,
      "Do": 3747,
      "Dreck": 3748,
      "Geschä": 3749,
      "Ha": 3750,
      "Heiß": 3751,
      "Hütte": 3752,
      "Körper": 3753,
      "Kegel": 3754,
      "Lö": 3755,
      "Leg": 3756,
      "Piz": 3757,
      "Plü": 3758,
      "Röcken": 3759,
      "Süß": 3760,
      "Tü": 3761,
      "Tal": 3762,
      "Teig": 3763,
      "We": 3764,
      "Wänden": 3765,
      "aber": 3766,
      "dicht": 3767,
      "können": 3768,
      "lö": 3769,
      "nack": 3770,
      "runter": 3771,
      "##ibl": 3772,
      "##bem": 3773,
      "##pool": 3774,
      "##zeich": 3775,
      "##hal": 3776,
      "##ähn": 3777,
      "##wo": 3778,
      "##wanne": 3779,
      "##je": 3780,
      "##eira": 3781,
      "##eiden": 3782,
      "##eisten": 3783,
      "##ity": 3784,
      "mittel": 3785,
      "mithilfe": 3786,
      "##une": 3787,
      "##unkt": 3788,
      "##schutz": 3789,
      "##orgen": 3790,
      "Start": 3791,
      "Stamm": 3792,
      "Strick": 3793,
      "Schacht": 3794,
      "gehalten": 3795,
      "##bert": 3796,
      "##ott": 3797,
      "##rohr": 3798,
      "roll": 3799,
      "##ürzt": 3800,
      "bearbeitet": 3801,
      "Show": 3802,
      "Blume": 3803,
      "stö": 3804,
      "stellen": 3805,
      "##zeuger": 3806,
      "Freiluft": 3807,
      "Bauern": 3808,
      "##sion": 3809,
      "##leideter": 3810,
      "berühren": 3811,
      "##ettert": 3812,
      "##ops": 3813,
      "abzu": 3814,
      "Schule": 3815,
      "Gelb": 3816,
      "##offt": 3817,
      "##kette": 3818,
      "Kleines": 3819,
      "Kunststoff": 3820,
      "Ruder": 3821,
      "##etzten": 3822,
      "Regenschirmen": 3823,
      "##automaten": 3824,
      "Rucksäcken": 3825,
      "kopf": 3826,
      "kariertem": 3827,
      "Gewässers": 3828,
      "Einkaufst": 3829,
      "Schlagzeuger": 3830,
      "teilen": 3831,
      "##öpfe": 3832,
      "Feuerwehrmänner": 3833,
      "lachend": 3834,
      "##udels": 3835,
      "##fallen": 3836,
      "beladen": 3837,
      "Chor": 3838,
      "##konstruktion": 3839,
      "##eimer": 3840,
      "indische": 3841,
      "amerikanischen": 3842,
      "Bowlingkugel": 3843,
      "##affe": 3844,
      "Balken": 3845,
      "Klettergerüst": 3846,
      "##kates": 3847,
      "afrikanischer": 3848,
      "flausch": 3849,
      "trocken": 3850,
      "Windhund": 3851,
      "##cours": 3852,
      "##ohner": 3853,
      "marschiert": 3854,
      "Strohhut": 3855,
      "Schlafanzug": 3856,
      "verheira": 3857,
      "steinigen": 3858,
      "violettem": 3859,
      "Dinge": 3860,
      "amüsieren": 3861,
      "aufblasbaren": 3862,
      "anhat": 3863,
      "bedeckten": 3864,
      "Fotografen": 3865,
      "Trompete": 3866,
      "Angelrute": 3867,
      "geblümten": 3868,
      "Tattoo": 3869,
      "selbst": 3870,
      "Moped": 3871,
      "##othek": 3872,
      "Bel": 3873,
      "Bat": 3874,
      "Cafe": 3875,
      "Demon": 3876,
      "Dudels": 3877,
      "Elekt": 3878,
      "Kö": 3879,
      "Kugel": 3880,
      "Lied": 3881,
      "Lippen": 3882,
      "Noten": 3883,
      "Oper": 3884,
      "Pin": 3885,
      "fla": 3886,
      "füllt": 3887,
      "glatz": 3888,
      "kaut": 3889,
      "or": 3890,
      "richtet": 3891,
      "ser": 3892,
      "sow": 3893,
      "sucht": 3894,
      "setzen": 3895,
      "##ban": 3896,
      "##pt": 3897,
      "##ph": 3898,
      "##zus": 3899,
      "##ziehen": 3900,
      "##tor": 3901,
      "##säge": 3902,
      "##mod": 3903,
      "##mlung": 3904,
      "##gro": 3905,
      "##ost": 3906,
      "##ohemd": 3907,
      "##üssel": 3908,
      "##öt": 3909,
      "##jeans": 3910,
      "eins": 3911,
      "##eiger": 3912,
      "##aube": 3913,
      "##iten": 3914,
      "##ität": 3915,
      "##unft": 3916,
      "##rab": 3917,
      "##raht": 3918,
      "##rampe": 3919,
      "Stift": 3920,
      "angel": 3921,
      "##eta": 3922,
      "gepark": 3923,
      "steckt": 3924,
      "##ammen": 3925,
      "schwenkt": 3926,
      "##präch": 3927,
      "##dent": 3928,
      "##ades": 3929,
      "##ktive": 3930,
      "Kleider": 3931,
      "Spielkleidung": 3932,
      "Ballett": 3933,
      "Kamel": 3934,
      "##sammlung": 3935,
      "Fußballfeld": 3936,
      "Straßenhändler": 3937,
      "zusammenge": 3938,
      "Gespräch": 3939,
      "Sandstrand": 3940,
      "Schwimmbad": 3941,
      "##izieren": 3942,
      "##liegen": 3943,
      "gegenseit": 3944,
      "Schlitt": 3945,
      "Tafel": 3946,
      "Becken": 3947,
      "dunkelblauen": 3948,
      "Zeitschrift": 3949,
      "##ival": 3950,
      "Umhang": 3951,
      "Konfer": 3952,
      "Outdo": 3953,
      "Rennauto": 3954,
      "Torhüter": 3955,
      "##richten": 3956,
      "Feuerwehrmann": 3957,
      "treffen": 3958,
      "riesige": 3959,
      "##hou": 3960,
      "Club": 3961,
      "Kerzen": 3962,
      "##issenschaft": 3963,
      "##rieben": 3964,
      "Lebensmittelgeschäft": 3965,
      "afrikanische": 3966,
      "Wasserski": 3967,
      "Geländemotorradfahrer": 3968,
      "Backsteingebäude": 3969,
      "##luftball": 3970,
      "Klapp": 3971,
      "##landschaft": 3972,
      "erwachsene": 3973,
      "##vollen": 3974,
      "Schneesch": 3975,
      "Plattform": 3976,
      "Eisen": 3977,
      "bestehende": 3978,
      "beigefarbenen": 3979,
      "##oberteil": 3980,
      "Super": 3981,
      "##euchtung": 3982,
      "Schotter": 3983,
      "Bluejeans": 3984,
      "Abendessen": 3985,
      "##schmuck": 3986,
      "Picknicktisch": 3987,
      "Elef": 3988,
      "Silhou": 3989,
      "Schubkar": 3990,
      "Rollerblades": 3991,
      "Flüssigkeit": 3992,
      "Heißluftball": 3993,
      "Operation": 3994,
      "flachen": 3995,
      "gegenseitig": 3996,
      "Outdoor": 3997,
      "Di": 3998,
      "Fä": 3999,
      "Frise": 4000,
      "Gar": 4001,
      "Hig": 4002,
      "Hilfe": 4003,
      "Kür": 4004,
      "Kalb": 4005,
      "Kiste": 4006,
      "LK": 4007,
      "Lim": 4008,
      "Löff": 4009,
      "Läch": 4010,
      "Ma": 4011,
      "Mitarbeiter": 4012,
      "Na": 4013,
      "Port": 4014,
      "Protest": 4015,
      "Rück": 4016,
      "Rauch": 4017,
      "Wal": 4018,
      "ar": 4019,
      "bunter": 4020,
      "dün": 4021,
      "deut": 4022,
      "fegt": 4023,
      "findet": 4024,
      "gra": 4025,
      "japan": 4026,
      "leicht": 4027,
      "noch": 4028,
      "prü": 4029,
      "parkt": 4030,
      "soll": 4031,
      "wand": 4032,
      "will": 4033,
      "##lem": 4034,
      "##laufen": 4035,
      "##brücke": 4036,
      "##burg": 4037,
      "##ult": 4038,
      "##sschild": 4039,
      "##ga": 4040,
      "##gung": 4041,
      "##dog": 4042,
      "##heim": 4043,
      "##wett": 4044,
      "##waren": 4045,
      "##ndon": 4046,
      "##ante": 4047,
      "##anien": 4048,
      "##annt": 4049,
      "##org": 4050,
      "Strei": 4051,
      "vorne": 4052,
      "##urop": 4053,
      "##rok": 4054,
      "##riff": 4055,
      "beißt": 4056,
      "##recht": 4057,
      "##olen": 4058,
      "ungewöhn": 4059,
      "Wasserflasche": 4060,
      "##ktur": 4061,
      "##ranten": 4062,
      "Fahrt": 4063,
      "Fahrgeschäft": 4064,
      "##llegen": 4065,
      "##escheibe": 4066,
      "##läser": 4067,
      "erk": 4068,
      "dazu": 4069,
      "##blett": 4070,
      "Schwert": 4071,
      "Grasfläche": 4072,
      "Gitarren": 4073,
      "##ammlung": 4074,
      "Puck": 4075,
      "Jeansjacke": 4076,
      "Red": 4077,
      "Basketballspiel": 4078,
      "dunkelhaariger": 4079,
      "Geschäftskleidung": 4080,
      "Badewanne": 4081,
      "##korat": 4082,
      "##kinder": 4083,
      "Herren": 4084,
      "Sportveranstaltung": 4085,
      "##essel": 4086,
      "Robe": 4087,
      "frem": 4088,
      "Verkäufer": 4089,
      "offenbar": 4090,
      "Frisbeescheibe": 4091,
      "##richtet": 4092,
      "Feuerwehrleu": 4093,
      "Absperr": 4094,
      "Wettrennen": 4095,
      "##ront": 4096,
      "farbenfroher": 4097,
      "Esel": 4098,
      "Geburt": 4099,
      "Surfboard": 4100,
      "Tauben": 4101,
      "jüngere": 4102,
      "##formation": 4103,
      "entspannen": 4104,
      "Ohren": 4105,
      "gepunk": 4106,
      "dekor": 4107,
      "Fernse": 4108,
      "Sängerin": 4109,
      "Waschsalon": 4110,
      "untersuchen": 4111,
      "London": 4112,
      "trainieren": 4113,
      "Orangen": 4114,
      "Tricks": 4115,
      "marschieren": 4116,
      "altmod": 4117,
      "Turnerin": 4118,
      "geöffnet": 4119,
      "Grimasse": 4120,
      "planscht": 4121,
      "Palmen": 4122,
      "##volleyball": 4123,
      "##way": 4124,
      "begutachtet": 4125,
      "füttert": 4126,
      "Eltern": 4127,
      "schweißt": 4128,
      "Sportwagen": 4129,
      "bewölkten": 4130,
      "Brandung": 4131,
      "Fahne": 4132,
      "Sanddüne": 4133,
      "Geldbörse": 4134,
      "Geschäften": 4135,
      "Süßigkeiten": 4136,
      "rollt": 4137,
      "kopfüber": 4138,
      "High": 4139,
      "LKW": 4140,
      "wandern": 4141,
      "Geburtstag": 4142,
      "20": 4143,
      "Auss": 4144,
      "Afrikan": 4145,
      "Achter": 4146,
      "Bann": 4147,
      "Bass": 4148,
      "Beine": 4149,
      "Gl": 4150,
      "Kricket": 4151,
      "Lang": 4152,
      "Laufen": 4153,
      "Mark": 4154,
      "Messer": 4155,
      "Natur": 4156,
      "Piste": 4157,
      "Ringer": 4158,
      "Wa": 4159,
      "Zie": 4160,
      "ak": 4161,
      "abend": 4162,
      "bückt": 4163,
      "fau": 4164,
      "lange": 4165,
      "mo": 4166,
      "mod": 4167,
      "malen": 4168,
      "med": 4169,
      "nieder": 4170,
      "ober": 4171,
      "protest": 4172,
      "rast": 4173,
      "treibt": 4174,
      "wischt": 4175,
      "##les": 4176,
      "##loch": 4177,
      "##bein": 4178,
      "##bers": 4179,
      "##bur": 4180,
      "##buch": 4181,
      "##atet": 4182,
      "##usch": 4183,
      "##uhen": 4184,
      "##zten": 4185,
      "##zenden": 4186,
      "##mpf": 4187,
      "##mitglie": 4188,
      "##hten": 4189,
      "##hänger": 4190,
      "##fter": 4191,
      "##foto": 4192,
      "##flekt": 4193,
      "##ämmer": 4194,
      "##wen": 4195,
      "##wurf": 4196,
      "##chn": 4197,
      "Einer": 4198,
      "Einrad": 4199,
      "##uniform": 4200,
      "##steigen": 4201,
      "Stangen": 4202,
      "Stufe": 4203,
      "angeb": 4204,
      "anzu": 4205,
      "Schie": 4206,
      "Schirmen": 4207,
      "##alung": 4208,
      "##leit": 4209,
      "##leiter": 4210,
      "##leicht": 4211,
      "##oss": 4212,
      "übergewicht": 4213,
      "##räun": 4214,
      "ausgeb": 4215,
      "##olk": 4216,
      "befahren": 4217,
      "stehende": 4218,
      "##egeln": 4219,
      "Bogen": 4220,
      "Back": 4221,
      "##gelben": 4222,
      "stra": 4223,
      "##sammen": 4224,
      "##ble": 4225,
      "hochge": 4226,
      "Flur": 4227,
      "Floß": 4228,
      "Büschen": 4229,
      "Ang": 4230,
      "orangefarbene": 4231,
      "graue": 4232,
      "Straßenmus": 4233,
      "Motorräder": 4234,
      "##izin": 4235,
      "Reklam": 4236,
      "##abrik": 4237,
      "##usses": 4238,
      "##ussell": 4239,
      "Baumes": 4240,
      "##ienen": 4241,
      "Waldweg": 4242,
      "Bandan": 4243,
      "vielleicht": 4244,
      "##etzte": 4245,
      "Eisc": 4246,
      "Schildern": 4247,
      "Blumenmuster": 4248,
      "Sportkleidung": 4249,
      "Maulkorb": 4250,
      "Decken": 4251,
      "##braunen": 4252,
      "gefüllt": 4253,
      "herunterge": 4254,
      "Rohr": 4255,
      "gleichen": 4256,
      "festhält": 4257,
      "scheinbar": 4258,
      "Bike": 4259,
      "Teenageralter": 4260,
      "##eep": 4261,
      "##kamera": 4262,
      "Müllton": 4263,
      "##geworfen": 4264,
      "Ziegelmauer": 4265,
      "Tanzen": 4266,
      "bespritzt": 4267,
      "näht": 4268,
      "Akust": 4269,
      "Saiten": 4270,
      "Klassenraum": 4271,
      "Kapuze": 4272,
      "##köpfige": 4273,
      "Kreide": 4274,
      "schlend": 4275,
      "Theater": 4276,
      "reinigen": 4277,
      "Tennisspielerin": 4278,
      "bekommen": 4279,
      "eingezäunten": 4280,
      "Säug": 4281,
      "Tribü": 4282,
      "joggen": 4283,
      "Mittagessen": 4284,
      "engen": 4285,
      "Eishockeyspieler": 4286,
      "Welpen": 4287,
      "Poster": 4288,
      "Olymp": 4289,
      "sammelt": 4290,
      "Fußgängerüberweg": 4291,
      "mög": 4292,
      "überprüft": 4293,
      "Afroamerikaner": 4294,
      "Vögel": 4295,
      "Violine": 4296,
      "türk": 4297,
      "Podium": 4298,
      "##nehmer": 4299,
      "Motorroller": 4300,
      "bewundert": 4301,
      "verlässt": 4302,
      "erleuch": 4303,
      "diskutieren": 4304,
      "##bemalung": 4305,
      "Dudelsack": 4306,
      "Elefanten": 4307,
      "Silhouette": 4308,
      "Schubkarre": 4309,
      "faulen": 4310,
      "ausgebrei": 4311,
      "Akustik": 4312,
      "Bill": 4313,
      "Bällen": 4314,
      "Bibl": 4315,
      "Camp": 4316,
      "Fack": 4317,
      "Freu": 4318,
      "Flaschen": 4319,
      "Hock": 4320,
      "Irok": 4321,
      "Köpfen": 4322,
      "Khaki": 4323,
      "Mi": 4324,
      "Min": 4325,
      "Pe": 4326,
      "Pr": 4327,
      "Punk": 4328,
      "Ras": 4329,
      "Sack": 4330,
      "Szene": 4331,
      "Tran": 4332,
      "Wach": 4333,
      "Ze": 4334,
      "Zöpfen": 4335,
      "acht": 4336,
      "baum": 4337,
      "fil": 4338,
      "hind": 4339,
      "präsent": 4340,
      "sand": 4341,
      "säu": 4342,
      "transport": 4343,
      "webt": 4344,
      "wendet": 4345,
      "ört": 4346,
      "##eck": 4347,
      "##ial": 4348,
      "##ipp": 4349,
      "##iothek": 4350,
      "##nimmt": 4351,
      "##nast": 4352,
      "##back": 4353,
      "##rischen": 4354,
      "##renn": 4355,
      "##trikot": 4356,
      "##träger": 4357,
      "##mal": 4358,
      "##ond": 4359,
      "##oben": 4360,
      "##kla": 4361,
      "##kul": 4362,
      "##kurs": 4363,
      "##ders": 4364,
      "##haltung": 4365,
      "##cl": 4366,
      "##ven": 4367,
      "##üff": 4368,
      "##äne": 4369,
      "##wich": 4370,
      "##jo": 4371,
      "##ino": 4372,
      "Einem": 4373,
      "insp": 4374,
      "##ufern": 4375,
      "aufmerksam": 4376,
      "##arter": 4377,
      "##tete": 4378,
      "##onen": 4379,
      "##einwand": 4380,
      "##stellt": 4381,
      "##stift": 4382,
      "##ichter": 4383,
      "Streifen": 4384,
      "Stofft": 4385,
      "zuge": 4386,
      "zubereitet": 4387,
      "##henden": 4388,
      "blei": 4389,
      "##decke": 4390,
      "spieler": 4391,
      "##alken": 4392,
      "##ros": 4393,
      "##leitet": 4394,
      "##endraht": 4395,
      "schwarzwei": 4396,
      "##osa": 4397,
      "##fenster": 4398,
      "##rechen": 4399,
      "##ola": 4400,
      "##olgen": 4401,
      "##ika": 4402,
      "##ikul": 4403,
      "##pfad": 4404,
      "uniform": 4405,
      "##iertes": 4406,
      "##ktiv": 4407,
      "verdeckt": 4408,
      "##boten": 4409,
      "entlanggeht": 4410,
      "##eschw": 4411,
      "##gelassen": 4412,
      "##geländer": 4413,
      "Fahrrads": 4414,
      "##hlet": 4415,
      "Ballerin": 4416,
      "Derby": 4417,
      "rothaariges": 4418,
      "##block": 4419,
      "vorbeigeht": 4420,
      "Bühnen": 4421,
      "##apelle": 4422,
      "##artigen": 4423,
      "rosar": 4424,
      "rosafarbene": 4425,
      "Sonnenschirm": 4426,
      "##leck": 4427,
      "leger": 4428,
      "Sandwich": 4429,
      "##obil": 4430,
      "gestikul": 4431,
      "Muster": 4432,
      "Museum": 4433,
      "Boots": 4434,
      "Aufführung": 4435,
      "Radrennen": 4436,
      "Gewändern": 4437,
      "Tablett": 4438,
      "##akd": 4439,
      "schieben": 4440,
      "verkleidete": 4441,
      "##bstuhl": 4442,
      "##zeitig": 4443,
      "Seilen": 4444,
      "Marktplatz": 4445,
      "##flü": 4446,
      "teilweise": 4447,
      "##chsten": 4448,
      "aussehenden": 4449,
      "##springen": 4450,
      "##hören": 4451,
      "Computerbildschirm": 4452,
      "Moment": 4453,
      "Ziegelstein": 4454,
      "##okal": 4455,
      "beginnt": 4456,
      "##bare": 4457,
      "greifen": 4458,
      "nächsten": 4459,
      "gewickelt": 4460,
      "städtische": 4461,
      "##gebäudes": 4462,
      "Reifenschaukel": 4463,
      "Chin": 4464,
      "Asiatinnen": 4465,
      "Pfadf": 4466,
      "starren": 4467,
      "gleichzeitig": 4468,
      "ausgestreckt": 4469,
      "Snowboardfahrer": 4470,
      "##geschnitten": 4471,
      "Schmutz": 4472,
      "Schmuck": 4473,
      "Rande": 4474,
      "schlamm": 4475,
      "drinnen": 4476,
      "Fernglas": 4477,
      "Stehen": 4478,
      "##karte": 4479,
      "neue": 4480,
      "##teams": 4481,
      "Locken": 4482,
      "feiert": 4483,
      "##ace": 4484,
      "Blättern": 4485,
      "prob": 4486,
      "Innenstadt": 4487,
      "bewegen": 4488,
      "Stirnband": 4489,
      "Hotdog": 4490,
      "ruhigen": 4491,
      "einsamer": 4492,
      "Grimassen": 4493,
      "farbigen": 4494,
      "jubeln": 4495,
      "Maschendraht": 4496,
      "Kameras": 4497,
      "Mitglieder": 4498,
      "Rettungswesten": 4499,
      "khakifarbenen": 4500,
      "landet": 4501,
      "##höri": 4502,
      "Linie": 4503,
      "Pitcher": 4504,
      "##förmigen": 4505,
      "##geborenes": 4506,
      "Häusern": 4507,
      "Patien": 4508,
      "lockigen": 4509,
      "##ymnast": 4510,
      "ländlichen": 4511,
      "Taxi": 4512,
      "Breakd": 4513,
      "Köche": 4514,
      "glatzköpfiger": 4515,
      "Löffel": 4516,
      "Aussicht": 4517,
      "Achterbahn": 4518,
      "##ämmerung": 4519,
      "Bandana": 4520,
      "Säugling": 4521,
      "türkis": 4522,
      "Akustikgitarre": 4523,
      "Bibliothek": 4524,
      "Irokesen": 4525,
      "hindurch": 4526,
      "Amp": 4527,
      "Fit": 4528,
      "Fänger": 4529,
      "Fabrik": 4530,
      "Gymnast": 4531,
      "Later": 4532,
      "Mc": 4533,
      "Mützen": 4534,
      "Py": 4535,
      "Pel": 4536,
      "Pil": 4537,
      "Plan": 4538,
      "Rö": 4539,
      "Sar": 4540,
      "Tank": 4541,
      "Uhr": 4542,
      "Vort": 4543,
      "Wange": 4544,
      "Werfer": 4545,
      "Wake": 4546,
      "bilden": 4547,
      "du": 4548,
      "eben": 4549,
      "grillen": 4550,
      "qu": 4551,
      "rauchen": 4552,
      "sä": 4553,
      "sort": 4554,
      "Älter": 4555,
      "##line": 4556,
      "##egen": 4557,
      "##echer": 4558,
      "##bro": 4559,
      "##bett": 4560,
      "##blät": 4561,
      "##ring": 4562,
      "##pack": 4563,
      "##tro": 4564,
      "##tür": 4565,
      "##tion": 4566,
      "##trick": 4567,
      "##min": 4568,
      "##gers": 4569,
      "##ofon": 4570,
      "##kä": 4571,
      "##kunst": 4572,
      "##hes": 4573,
      "##haube": 4574,
      "##ce": 4575,
      "##figur": 4576,
      "##äste": 4577,
      "##wel": 4578,
      "##wir": 4579,
      "##wäsche": 4580,
      "##jung": 4581,
      "eingesch": 4582,
      "##ndel": 4583,
      "aufges": 4584,
      "##ession": 4585,
      "##onald": 4586,
      "##scheibe": 4587,
      "##ram": 4588,
      "##stuch": 4589,
      "##streifen": 4590,
      "schle": 4591,
      "Stat": 4592,
      "Stunt": 4593,
      "angem": 4594,
      "Schwei": 4595,
      "Schach": 4596,
      "Schilder": 4597,
      "##etze": 4598,
      "##itzer": 4599,
      "vorbereitet": 4600,
      "##otiv": 4601,
      "##urm": 4602,
      "schwer": 4603,
      "##menade": 4604,
      "Kindes": 4605,
      "##utt": 4606,
      "##irl": 4607,
      "##rif": 4608,
      "##rift": 4609,
      "Gehen": 4610,
      "##reten": 4611,
      "##recken": 4612,
      "bevor": 4613,
      "bekleidet": 4614,
      "##pfel": 4615,
      "##bedeckt": 4616,
      "Wasserm": 4617,
      "stehend": 4618,
      "stehender": 4619,
      "##lichem": 4620,
      "##lichkeit": 4621,
      "Handschuh": 4622,
      "brauen": 4623,
      "##llege": 4624,
      "Bohr": 4625,
      "##ign": 4626,
      "##länd": 4627,
      "##ildet": 4628,
      "erh": 4629,
      "erw": 4630,
      "Bauarbeiten": 4631,
      "dah": 4632,
      "Klasse": 4633,
      "##schauen": 4634,
      "rosafarbener": 4635,
      "Puppe": 4636,
      "leckt": 4637,
      "##sseln": 4638,
      "##spark": 4639,
      "rechte": 4640,
      "reflekt": 4641,
      "##abel": 4642,
      "Händler": 4643,
      "Radfahrern": 4644,
      "Pferdeschw": 4645,
      "span": 4646,
      "Bewegung": 4647,
      "Badezimmer": 4648,
      "##ivers": 4649,
      "Karte": 4650,
      "##istole": 4651,
      "Mittel": 4652,
      "##wandt": 4653,
      "Turban": 4654,
      "langhaarige": 4655,
      "Schlagmann": 4656,
      "gemus": 4657,
      "Halstuch": 4658,
      "Papiere": 4659,
      "Cowboys": 4660,
      "##ronen": 4661,
      "##loser": 4662,
      "Asien": 4663,
      "dieser": 4664,
      "Stühle": 4665,
      "gestreiftes": 4666,
      "indischer": 4667,
      "ausgestellt": 4668,
      "Plastiktüte": 4669,
      "Laster": 4670,
      "streicht": 4671,
      "gebeugt": 4672,
      "unbefestigte": 4673,
      "Kaffe": 4674,
      "Werkstatt": 4675,
      "##instrument": 4676,
      "Imbis": 4677,
      "Labork": 4678,
      "Trainer": 4679,
      "Golfball": 4680,
      "erwachsener": 4681,
      "Luftballon": 4682,
      "Feder": 4683,
      "Saxofon": 4684,
      "Liefer": 4685,
      "Hotel": 4686,
      "Quad": 4687,
      "Gesichtsbemalung": 4688,
      "##hobenen": 4689,
      "jubelt": 4690,
      "Film": 4691,
      "Exper": 4692,
      "fertig": 4693,
      "Kettensäge": 4694,
      "Versammlung": 4695,
      "Ozean": 4696,
      "größ": 4697,
      "klatscht": 4698,
      "Inlineskates": 4699,
      "##dress": 4700,
      "Flöte": 4701,
      "Strickmütze": 4702,
      "verheiratetes": 4703,
      "Beleuchtung": 4704,
      "sowie": 4705,
      "##etafel": 4706,
      "geparkten": 4707,
      "Friseur": 4708,
      "Lächeln": 4709,
      "graben": 4710,
      "Feuerwehrleute": 4711,
      "Banner": 4712,
      "abends": 4713,
      "Mülltonne": 4714,
      "Tribüne": 4715,
      "gestikuliert": 4716,
      "Gymnastik": 4717,
      "Vortrag": 4718,
      "Asp": 4719,
      "Bam": 4720,
      "Bro": 4721,
      "Bälle": 4722,
      "Cell": 4723,
      "DJ": 4724,
      "Durch": 4725,
      "Ess": 4726,
      "Glat": 4727,
      "Haltung": 4728,
      "Home": 4729,
      "Japan": 4730,
      "Kell": 4731,
      "Kette": 4732,
      "Köpfe": 4733,
      "Lac": 4734,
      "Neu": 4735,
      "Pon": 4736,
      "Padd": 4737,
      "Präsent": 4738,
      "Rik": 4739,
      "Reg": 4740,
      "Sw": 4741,
      "Sicht": 4742,
      "Töpf": 4743,
      "Während": 4744,
      "Wol": 4745,
      "Yog": 4746,
      "Zw": 4747,
      "bräun": 4748,
      "drän": 4749,
      "fallen": 4750,
      "glä": 4751,
      "ich": 4752,
      "pol": 4753,
      "putzen": 4754,
      "packt": 4755,
      "rück": 4756,
      "suchen": 4757,
      "tut": 4758,
      "trü": 4759,
      "waschen": 4760,
      "watet": 4761,
      "ziel": 4762,
      "übers": 4763,
      "##iment": 4764,
      "##nem": 4765,
      "##nzenden": 4766,
      "##bu": 4767,
      "##bär": 4768,
      "##balken": 4769,
      "##up": 4770,
      "##uer": 4771,
      "##umen": 4772,
      "##putz": 4773,
      "##zel": 4774,
      "##tes": 4775,
      "##tritt": 4776,
      "##sau": 4777,
      "##mte": 4778,
      "##opp": 4779,
      "##krä": 4780,
      "##kör": 4781,
      "##kasten": 4782,
      "##da": 4783,
      "##dunk": 4784,
      "##ha": 4785,
      "##hammer": 4786,
      "##feier": 4787,
      "##üd": 4788,
      "##üh": 4789,
      "##äb": 4790,
      "##yd": 4791,
      "##Donald": 4792,
      "##xas": 4793,
      "##ins": 4794,
      "##enken": 4795,
      "##aust": 4796,
      "aufgestellt": 4797,
      "##rauß": 4798,
      "##ash": 4799,
      "##raft": 4800,
      "##ständer": 4801,
      "##statue": 4802,
      "Stahl": 4803,
      "##weis": 4804,
      "ans": 4805,
      "aneinander": 4806,
      "ansieht": 4807,
      "Schuss": 4808,
      "Schafe": 4809,
      "Schrift": 4810,
      "##bereiten": 4811,
      "vorder": 4812,
      "##ambur": 4813,
      "##attel": 4814,
      "##rob": 4815,
      "##rig": 4816,
      "beisammen": 4817,
      "##rücken": 4818,
      "##reg": 4819,
      "##ellschaft": 4820,
      "##ürste": 4821,
      "##ehren": 4822,
      "##behälter": 4823,
      "##ister": 4824,
      "Dreirad": 4825,
      "##box": 4826,
      "Booten": 4827,
      "Board": 4828,
      "##igiert": 4829,
      "##spielen": 4830,
      "gehende": 4831,
      "herr": 4832,
      "staub": 4833,
      "##läuft": 4834,
      "verste": 4835,
      "##wegungen": 4836,
      "oranger": 4837,
      "Fliesen": 4838,
      "##agieren": 4839,
      "Anhänger": 4840,
      "Anweis": 4841,
      "##schaut": 4842,
      "Schneeanzug": 4843,
      "##unken": 4844,
      "##stüten": 4845,
      "Arzt": 4846,
      "##anke": 4847,
      "Pudel": 4848,
      "##legt": 4849,
      "legen": 4850,
      "Autob": 4851,
      "warm": 4852,
      "herumstehen": 4853,
      "Gesichtern": 4854,
      "dunklem": 4855,
      "##spor": 4856,
      "Inline": 4857,
      "Tee": 4858,
      "Texas": 4859,
      "Schwimmweste": 4860,
      "##iziert": 4861,
      "Paare": 4862,
      "gestreifter": 4863,
      "Hüte": 4864,
      "Pflaster": 4865,
      "##gebunden": 4866,
      "schnitzt": 4867,
      "Bandmitglie": 4868,
      "Bahnglei": 4869,
      "Eisw": 4870,
      "Beach": 4871,
      "Badeanzügen": 4872,
      "Vergnü": 4873,
      "Snack": 4874,
      "knien": 4875,
      "##brauner": 4876,
      "schneebedeckt": 4877,
      "Betonwand": 4878,
      "Sprungbrett": 4879,
      "Frisur": 4880,
      "Schüsseln": 4881,
      "angeboten": 4882,
      "kümmert": 4883,
      "##hört": 4884,
      "##klettern": 4885,
      "Computern": 4886,
      "Geräten": 4887,
      "Türen": 4888,
      "Nebel": 4889,
      "##falls": 4890,
      "Fischern": 4891,
      "verschneite": 4892,
      "Freundin": 4893,
      "begeister": 4894,
      "begleitet": 4895,
      "Kragen": 4896,
      "Bull": 4897,
      "Asiatische": 4898,
      "Knei": 4899,
      "Knöpfen": 4900,
      "manche": 4901,
      "##öffnung": 4902,
      "bemalten": 4903,
      "schreiben": 4904,
      "##schlauch": 4905,
      "traditionellen": 4906,
      "Tänzerin": 4907,
      "Laptops": 4908,
      "flach": 4909,
      "##rumpf": 4910,
      "Treppenhaus": 4911,
      "Treppenstufen": 4912,
      "marine": 4913,
      "Cheerlead": 4914,
      "Waschbecken": 4915,
      "Clowns": 4916,
      "trop": 4917,
      "Draht": 4918,
      "Engel": 4919,
      "##nisse": 4920,
      "paddeln": 4921,
      "geschmink": 4922,
      "Trommeln": 4923,
      "Mountainbiker": 4924,
      "afroamerikanische": 4925,
      "aufgerei": 4926,
      "aufgeregt": 4927,
      "Quarter": 4928,
      "altes": 4929,
      "Kunstwerke": 4930,
      "##flugzeug": 4931,
      "Welpe": 4932,
      "interess": 4933,
      "geöffneten": 4934,
      "Möbel": 4935,
      "Maschinen": 4936,
      "Tarnkleidung": 4937,
      "sauber": 4938,
      "##ipfel": 4939,
      "barfüßige": 4940,
      "Namensschild": 4941,
      "Produkte": 4942,
      "Tätowierung": 4943,
      "Tätowierungen": 4944,
      "Spaziergang": 4945,
      "USA": 4946,
      "Zahlreiche": 4947,
      "Junger": 4948,
      "##küche": 4949,
      "Jackett": 4950,
      "lernt": 4951,
      "Schleife": 4952,
      "Trainingsanzug": 4953,
      "Konferenz": 4954,
      "Heißluftballon": 4955,
      "Kürbis": 4956,
      "prüft": 4957,
      "##gungspark": 4958,
      "gepunkteten": 4959,
      "201": 4960,
      "Hocker": 4961,
      "sandigen": 4962,
      "##üffelt": 4963,
      "spielerisch": 4964,
      "Maschendrahtzaun": 4965,
      "Breakdance": 4966,
      "McDonald": 4967,
      "Röhr": 4968,
      "##brocken": 4969,
      "Wassermel": 4970,
      "Lieferwagen": 4971,
      "Asphalt": 4972,
      "Bambus": 4973,
      "Kellner": 4974,
      "Präsentation": 4975,
      "Yoga": 4976,
      "glänzenden": 4977,
      "Autobahn": 4978,
      "Vergnügungspark": 4979,
      "App": 4980,
      "Apfel": 4981,
      "Con": 4982,
      "City": 4983,
      "Cola": 4984,
      "Dock": 4985,
      "Fischen": 4986,
      "Farb": 4987,
      "Gr": 4988,
      "Gläsern": 4989,
      "Horn": 4990,
      "John": 4991,
      "Jeep": 4992,
      "Lass": 4993,
      "Leinwand": 4994,
      "Netze": 4995,
      "Ofen": 4996,
      "Pink": 4997,
      "Post": 4998,
      "Rah": 4999,
      "Sl": 5000,
      "Sen": 5001,
      "Top": 5002,
      "Vert": 5003,
      "Woll": 5004,
      "Wette": 5005,
      "Waffe": 5006,
      "Zyl": 5007,
      "diese": 5008,
      "drückt": 5009,
      "hart": 5010,
      "krat": 5011,
      "trau": 5012,
      "treiben": 5013,
      "##laub": 5014,
      "##lust": 5015,
      "##ex": 5016,
      "##eer": 5017,
      "##netz": 5018,
      "##bungen": 5019,
      "##bändern": 5020,
      "##aal": 5021,
      "##pan": 5022,
      "##ziel": 5023,
      "##zune": 5024,
      "##stet": 5025,
      "##maske": 5026,
      "##gs": 5027,
      "##ous": 5028,
      "##kuchen": 5029,
      "##holz": 5030,
      "##vie": 5031,
      "##vers": 5032,
      "##vieren": 5033,
      "##vent": 5034,
      "##feuer": 5035,
      "##ücken": 5036,
      "##yn": 5037,
      "##ys": 5038,
      "##öst": 5039,
      "##iner": 5040,
      "##inten": 5041,
      "##emen": 5042,
      "Einsatz": 5043,
      "##itor": 5044,
      "##anger": 5045,
      "##ansammlung": 5046,
      "##elbe": 5047,
      "##elig": 5048,
      "##estern": 5049,
      "##annen": 5050,
      "##iefel": 5051,
      "##eingang": 5052,
      "##ordent": 5053,
      "##station": 5054,
      "##studio": 5055,
      "##ichte": 5056,
      "Stöcke": 5057,
      "Strumpf": 5058,
      "##weil": 5059,
      "##genommen": 5060,
      "geh": 5061,
      "##bereit": 5062,
      "##reis": 5063,
      "##reiter": 5064,
      "##allow": 5065,
      "weil": 5066,
      "##als": 5067,
      "##roffen": 5068,
      "schwingen": 5069,
      "schwebt": 5070,
      "##prungen": 5071,
      "überw": 5072,
      "rost": 5073,
      "##mmel": 5074,
      "bedruck": 5075,
      "umr": 5076,
      "##eilen": 5077,
      "##pfl": 5078,
      "##adet": 5079,
      "unordent": 5080,
      "Wasserrutsche": 5081,
      "##egten": 5082,
      "##heke": 5083,
      "verm": 5084,
      "vergnü": 5085,
      "##rank": 5086,
      "Leucht": 5087,
      "##imming": 5088,
      "kleineren": 5089,
      "##fert": 5090,
      "gehender": 5091,
      "wirbelt": 5092,
      "##ierende": 5093,
      "##ffiz": 5094,
      "##blick": 5095,
      "##ützt": 5096,
      "Fußballdress": 5097,
      "berg": 5098,
      "Straßenverkäufer": 5099,
      "##ackelt": 5100,
      "abgeb": 5101,
      "abgeworfen": 5102,
      "Erzeug": 5103,
      "##ärlich": 5104,
      "Babys": 5105,
      "Holzbank": 5106,
      "Baseballschläger": 5107,
      "Händchen": 5108,
      "Pfeil": 5109,
      "##ließ": 5110,
      "verschw": 5111,
      "braunhaariger": 5112,
      "Zucker": 5113,
      "Helme": 5114,
      "##üllen": 5115,
      "hohe": 5116,
      "hoher": 5117,
      "Armee": 5118,
      "Beam": 5119,
      "Rollschuh": 5120,
      "##graben": 5121,
      "##ietung": 5122,
      "##kopf": 5123,
      "##kostü": 5124,
      "##kollegen": 5125,
      "Vorders": 5126,
      "##licherweise": 5127,
      "Herz": 5128,
      "Karussell": 5129,
      "Auge": 5130,
      "geschnitten": 5131,
      "Kleinkinder": 5132,
      "knall": 5133,
      "##astanien": 5134,
      "gefüllten": 5135,
      "gefleck": 5136,
      "Ausstellung": 5137,
      "gesprungen": 5138,
      "Rennfahrer": 5139,
      "männlichen": 5140,
      "pinkfarbener": 5141,
      "ruhen": 5142,
      "gemacht": 5143,
      "verschiedenfarb": 5144,
      "teilnehmen": 5145,
      "##arbietung": 5146,
      "##springt": 5147,
      "##sprecher": 5148,
      "Biker": 5149,
      "Feuerwehrauto": 5150,
      "##schriften": 5151,
      "Untergrund": 5152,
      "##mannschaften": 5153,
      "Türöffnung": 5154,
      "Felsvor": 5155,
      "##werker": 5156,
      "##reut": 5157,
      "Kante": 5158,
      "Jugendlichen": 5159,
      "Volleyballspieler": 5160,
      "Obststand": 5161,
      "Lebensmitteln": 5162,
      "Fußgängern": 5163,
      "Hockeyspiel": 5164,
      "Kerle": 5165,
      "Eimern": 5166,
      "indem": 5167,
      "Obje": 5168,
      "Telefonz": 5169,
      "Turnschuhen": 5170,
      "leuchtenden": 5171,
      "amerikanischer": 5172,
      "Katzen": 5173,
      "silberfarbenen": 5174,
      "##schwimmen": 5175,
      "##mäher": 5176,
      "Wasserspren": 5177,
      "Marathonläufer": 5178,
      "dritte": 5179,
      "Tiere": 5180,
      "Geländewagen": 5181,
      "Geschw": 5182,
      "Teilnehmer": 5183,
      "bekleidete": 5184,
      "bekleideter": 5185,
      "hellhäutige": 5186,
      "schütteln": 5187,
      "besteht": 5188,
      "Krankenschw": 5189,
      "Nachbar": 5190,
      "Säulen": 5191,
      "##projekt": 5192,
      "geschminkt": 5193,
      "Fecht": 5194,
      "Liegest": 5195,
      "afroamerikanischer": 5196,
      "orientalische": 5197,
      "Gegenständen": 5198,
      "Brettspiel": 5199,
      "Picknick": 5200,
      "Karton": 5201,
      "passenden": 5202,
      "verteilt": 5203,
      "langärmeligen": 5204,
      "sammeln": 5205,
      "Bordstein": 5206,
      "Perlen": 5207,
      "unterschiedlichen": 5208,
      "Ureinw": 5209,
      "Profi": 5210,
      "Banan": 5211,
      "Smok": 5212,
      "attra": 5213,
      "Staubsau": 5214,
      "seltsamen": 5215,
      "Früchte": 5216,
      "bietet": 5217,
      "Gürtel": 5218,
      "Legg": 5219,
      "Pizz": 5220,
      "Plüscht": 5221,
      "Webstuhl": 5222,
      "Stammes": 5223,
      "stößt": 5224,
      "Einkaufstasche": 5225,
      "flauschiger": 5226,
      "serviert": 5227,
      "Eisenbahn": 5228,
      "Porträt": 5229,
      "japanischen": 5230,
      "Redner": 5231,
      "Eiscreme": 5232,
      "möglicherweise": 5233,
      "Freude": 5234,
      "Zeb": 5235,
      "präsentiert": 5236,
      "transportiert": 5237,
      "örtlichen": 5238,
      "Ballerina": 5239,
      "Pfadfinder": 5240,
      "reflektier": 5241,
      "Pferdeschwanz": 5242,
      "Kaffeet": 5243,
      "Laborkittel": 5244,
      "Experiment": 5245,
      "Rikscha": 5246,
      "Swimming": 5247,
      "Töpfer": 5248,
      "rückwärts": 5249,
      "##dunkelten": 5250,
      "Beachvolleyball": 5251,
      "Quarterback": 5252,
      "2012": 5253,
      "Rahmen": 5254,
      "##zunehmen": 5255,
      "Vorderseite": 5256,
      "Ureinwohner": 5257,
      "Swimmingpool": 5258,
      "Acht": 5259,
      "Axt": 5260,
      "Car": 5261,
      "Del": 5262,
      "Dämmerung": 5263,
      "Eier": 5264,
      "Esst": 5265,
      "Font": 5266,
      "Go": 5267,
      "Garn": 5268,
      "Hier": 5269,
      "Hör": 5270,
      "Herk": 5271,
      "Hab": 5272,
      "Heim": 5273,
      "Hallen": 5274,
      "Kit": 5275,
      "Kauf": 5276,
      "Kick": 5277,
      "Kasse": 5278,
      "Kittel": 5279,
      "Kilt": 5280,
      "La": 5281,
      "Log": 5282,
      "Lampe": 5283,
      "Lampen": 5284,
      "Maler": 5285,
      "Richt": 5286,
      "Rosa": 5287,
      "Sub": 5288,
      "Tim": 5289,
      "Tomaten": 5290,
      "Welt": 5291,
      "Wart": 5292,
      "bock": 5293,
      "burg": 5294,
      "fein": 5295,
      "fre": 5296,
      "fischen": 5297,
      "fischt": 5298,
      "förm": 5299,
      "hist": 5300,
      "kunst": 5301,
      "mischt": 5302,
      "militär": 5303,
      "meisten": 5304,
      "nasser": 5305,
      "namen": 5306,
      "ol": 5307,
      "pra": 5308,
      "rund": 5309,
      "seicht": 5310,
      "tie": 5311,
      "tag": 5312,
      "trif": 5313,
      "vö": 5314,
      "wen": 5315,
      "Ärm": 5316,
      "Öffent": 5317,
      "Übung": 5318,
      "##een": 5319,
      "##ebe": 5320,
      "##ii": 5321,
      "##ide": 5322,
      "##iften": 5323,
      "##beln": 5324,
      "##bürste": 5325,
      "##app": 5326,
      "##uten": 5327,
      "##ry": 5328,
      "##roren": 5329,
      "##part": 5330,
      "##packt": 5331,
      "##zw": 5332,
      "##zelt": 5333,
      "##garten": 5334,
      "##gitter": 5335,
      "##gläsern": 5336,
      "##ker": 5337,
      "##kann": 5338,
      "##digen": 5339,
      "##dig": 5340,
      "##heben": 5341,
      "##hause": 5342,
      "##fig": 5343,
      "##feuert": 5344,
      "##front": 5345,
      "##ünd": 5346,
      "##ücke": 5347,
      "##äte": 5348,
      "##ämm": 5349,
      "##wol": 5350,
      "##wür": 5351,
      "##wander": 5352,
      "##jacken": 5353,
      "##int": 5354,
      "##iniert": 5355,
      "##erfen": 5356,
      "einf": 5357,
      "##eiter": 5358,
      "##auten": 5359,
      "##anad": 5360,
      "##elzen": 5361,
      "##uff": 5362,
      "##arfe": 5363,
      "##espiel": 5364,
      "##esse": 5365,
      "##unifor": 5366,
      "##onnen": 5367,
      "##schung": 5368,
      "##schiff": 5369,
      "##schlagen": 5370,
      "##schüssel": 5371,
      "##asken": 5372,
      "##llig": 5373,
      "##stellen": 5374,
      "##steiger": 5375,
      "deren": 5376,
      "Stöcken": 5377,
      "Stelzen": 5378,
      "Schaum": 5379,
      "Scheinw": 5380,
      "Schutt": 5381,
      "##gef": 5382,
      "zugu": 5383,
      "##ierung": 5384,
      "##reicht": 5385,
      "##nerischen": 5386,
      "##deten": 5387,
      "##achten": 5388,
      "##ischem": 5389,
      "Hunder": 5390,
      "##rube": 5391,
      "##endem": 5392,
      "schwarzhaarige": 5393,
      "##rib": 5394,
      "überall": 5395,
      "Menschenansammlung": 5396,
      "sprü": 5397,
      "##mmern": 5398,
      "##pfleg": 5399,
      "##becher": 5400,
      "ung": 5401,
      "##isse": 5402,
      "##äumten": 5403,
      "Handschuhe": 5404,
      "##lafen": 5405,
      "unterrichtet": 5406,
      "##spielzeug": 5407,
      "##bäumen": 5408,
      "##gelegt": 5409,
      "sto": 5410,
      "stolz": 5411,
      "strecken": 5412,
      "Fahrradhelm": 5413,
      "Skil": 5414,
      "erhält": 5415,
      "Strands": 5416,
      "##siv": 5417,
      "##blickt": 5418,
      "Kopfschmuck": 5419,
      "hochzu": 5420,
      "##ausstellung": 5421,
      "Flip": 5422,
      "Fußballmannschaft": 5423,
      "blocken": 5424,
      "Gitarris": 5425,
      "ließt": 5426,
      "Pull": 5427,
      "Puppen": 5428,
      "Motorhaube": 5429,
      "##ssaal": 5430,
      "abges": 5431,
      "abgestellt": 5432,
      "Essensstand": 5433,
      "trot": 5434,
      "Holzboden": 5435,
      "Holzzaun": 5436,
      "Unfall": 5437,
      "Reis": 5438,
      "kurze": 5439,
      "Bildern": 5440,
      "Bootes": 5441,
      "Aufzug": 5442,
      "##iene": 5443,
      "schneit": 5444,
      "##bedeckte": 5445,
      "Bergsteiger": 5446,
      "##eichten": 5447,
      "spärlich": 5448,
      "Sprüh": 5449,
      "Somm": 5450,
      "Vorrichtung": 5451,
      "##iven": 5452,
      "Schutzkleidung": 5453,
      "Schutzausrüstung": 5454,
      "##odie": 5455,
      "Kostüme": 5456,
      "gefolgt": 5457,
      "##skl": 5458,
      "##taschen": 5459,
      "##show": 5460,
      "gesehen": 5461,
      "Turm": 5462,
      "lächelnden": 5463,
      "Landstraße": 5464,
      "Rode": 5465,
      "Tracht": 5466,
      "männliches": 5467,
      "festgebunden": 5468,
      "Schaulust": 5469,
      "##paratur": 5470,
      "Toil": 5471,
      "Gericht": 5472,
      "Unterwäsche": 5473,
      "Sieg": 5474,
      "Mülleimer": 5475,
      "Halskette": 5476,
      "liegenden": 5477,
      "schminkt": 5478,
      "College": 5479,
      "Ziegelwand": 5480,
      "Parcours": 5481,
      "außer": 5482,
      "rutschen": 5483,
      "Herrn": 5484,
      "##konzert": 5485,
      "kurzem": 5486,
      "Partie": 5487,
      "Obdach": 5488,
      "verwenden": 5489,
      "##rieb": 5490,
      "Schmetter": 5491,
      "streichen": 5492,
      "jüngerer": 5493,
      "Pflanze": 5494,
      "afrikanischen": 5495,
      "##tainer": 5496,
      "Overalls": 5497,
      "##ips": 5498,
      "Ente": 5499,
      "Schlauchboot": 5500,
      "formt": 5501,
      "Schulkinder": 5502,
      "##fernung": 5503,
      "Säule": 5504,
      "##alerie": 5505,
      "Festival": 5506,
      "Ziellinie": 5507,
      "brünett": 5508,
      "Gleich": 5509,
      "Gleisen": 5510,
      "eng": 5511,
      "fliegenden": 5512,
      "wunderschöne": 5513,
      "Boxer": 5514,
      "Erdhügel": 5515,
      "amüsiert": 5516,
      "Lagerfeuer": 5517,
      "Küchent": 5518,
      "fröhlich": 5519,
      "jeder": 5520,
      "jeweil": 5521,
      "##viertel": 5522,
      "Drink": 5523,
      "regnerischen": 5524,
      "##saal": 5525,
      "Banjo": 5526,
      "elektron": 5527,
      "Frieden": 5528,
      "niedrigen": 5529,
      "erklimmen": 5530,
      "Freizeitpark": 5531,
      "Gummi": 5532,
      "kauert": 5533,
      "Rücksitz": 5534,
      "Rückseite": 5535,
      "Entfernung": 5536,
      "Körben": 5537,
      "verbunden": 5538,
      "Stromschn": 5539,
      "löschen": 5540,
      "##zeichnung": 5541,
      "Demonst": 5542,
      "Klappstuhl": 5543,
      "Schneeschuhen": 5544,
      "ungewöhnlichen": 5545,
      "fremden": 5546,
      "medizin": 5547,
      "oberen": 5548,
      "##beinen": 5549,
      "angebracht": 5550,
      "übergewichtiger": 5551,
      "heruntergekommen": 5552,
      "filmt": 5553,
      "##rosse": 5554,
      "Ziegelsteinen": 5555,
      "Laternen": 5556,
      "ebenfalls": 5557,
      "eingeschlafen": 5558,
      "gemuster": 5559,
      "größeren": 5560,
      "Lacrosse": 5561,
      "##kräfte": 5562,
      "##robat": 5563,
      "staubigen": 5564,
      "aufgereiht": 5565,
      "Lasso": 5566,
      "Verteid": 5567,
      "Zylinder": 5568,
      "kratzt": 5569,
      "##ynch": 5570,
      "unordentlichen": 5571,
      "vergnügt": 5572,
      "abgebildet": 5573,
      "Erzeugnisse": 5574,
      "##kostümen": 5575,
      "Felsvorsprung": 5576,
      "Staubsauger": 5577,
      "Leggings": 5578,
      "Herkunft": 5579,
      "Richtungen": 5580,
      "burgunder": 5581,
      "histor": 5582,
      "namens": 5583,
      "trifft": 5584,
      "Öffentlichkeit": 5585,
      "##uniformen": 5586,
      "Gitarristen": 5587,
      "Aqu": 5588,
      "Bur": 5589,
      "Bla": 5590,
      "Bär": 5591,
      "Brillen": 5592,
      "Busses": 5593,
      "Des": 5594,
      "Darbietung": 5595,
      "Fische": 5596,
      "Grau": 5597,
      "Gabel": 5598,
      "Hor": 5599,
      "Hambur": 5600,
      "Hallow": 5601,
      "Inder": 5602,
      "Lade": 5603,
      "Lokal": 5604,
      "Mün": 5605,
      "Mön": 5606,
      "Morgen": 5607,
      "Osten": 5608,
      "Pop": 5609,
      "Ra": 5610,
      "Stern": 5611,
      "Sessel": 5612,
      "Sattel": 5613,
      "Zus": 5614,
      "Zeich": 5615,
      "au": 5616,
      "bür": 5617,
      "buck": 5618,
      "bindet": 5619,
      "bzw": 5620,
      "drib": 5621,
      "fe": 5622,
      "fasst": 5623,
      "füllen": 5624,
      "holen": 5625,
      "iP": 5626,
      "kastanien": 5627,
      "lau": 5628,
      "loh": 5629,
      "mü": 5630,
      "mäht": 5631,
      "park": 5632,
      "platz": 5633,
      "seichten": 5634,
      "wahr": 5635,
      "wett": 5636,
      "würde": 5637,
      "wissenschaft": 5638,
      "##lampe": 5639,
      "##lops": 5640,
      "##iö": 5641,
      "##iers": 5642,
      "##iesch": 5643,
      "##bet": 5644,
      "##appt": 5645,
      "##uhr": 5646,
      "##uert": 5647,
      "##rier": 5648,
      "##por": 5649,
      "##pla": 5650,
      "##sol": 5651,
      "##süber": 5652,
      "##mo": 5653,
      "##mor": 5654,
      "##mmen": 5655,
      "##mittag": 5656,
      "##maler": 5657,
      "##mützen": 5658,
      "##gaben": 5659,
      "##grün": 5660,
      "##ochen": 5661,
      "##ocken": 5662,
      "##kas": 5663,
      "##keln": 5664,
      "##kreuz": 5665,
      "##hirt": 5666,
      "##hack": 5667,
      "##con": 5668,
      "##cre": 5669,
      "##frü": 5670,
      "##fält": 5671,
      "##flaschen": 5672,
      "##üten": 5673,
      "##üge": 5674,
      "##ült": 5675,
      "##äg": 5676,
      "##äufern": 5677,
      "##yer": 5678,
      "##enen": 5679,
      "##chsen": 5680,
      "##eist": 5681,
      "##auber": 5682,
      "##aupt": 5683,
      "##elte": 5684,
      "##elfer": 5685,
      "aufzu": 5686,
      "##arte": 5687,
      "##stö": 5688,
      "Stil": 5689,
      "Stre": 5690,
      "Studio": 5691,
      "Staffel": 5692,
      "##genen": 5693,
      "##pielt": 5694,
      "##pielzeug": 5695,
      "angesch": 5696,
      "Schok": 5697,
      "Schaf": 5698,
      "##indigkeit": 5699,
      "##gehöri": 5700,
      "##erspe": 5701,
      "##reide": 5702,
      "vorführt": 5703,
      "klaren": 5704,
      "##ata": 5705,
      "##urz": 5706,
      "sicht": 5707,
      "##alte": 5708,
      "##aldeten": 5709,
      "##rochen": 5710,
      "##rosa": 5711,
      "##uth": 5712,
      "##utscht": 5713,
      "##ossen": 5714,
      "##estand": 5715,
      "spring": 5716,
      "##mmelt": 5717,
      "beh": 5718,
      "##adung": 5719,
      "Wasserbecken": 5720,
      "Wasserfläche": 5721,
      "##iss": 5722,
      "##ish": 5723,
      "verbr": 5724,
      "vergn": 5725,
      "Fahrg": 5726,
      "Fahrzeuge": 5727,
      "gelangen": 5728,
      "Oberfläche": 5729,
      "unteren": 5730,
      "##teilen": 5731,
      "Blasen": 5732,
      "Blech": 5733,
      "hervor": 5734,
      "stri": 5735,
      "stürzt": 5736,
      "##ump": 5737,
      "Hinterbeinen": 5738,
      "erreichen": 5739,
      "erhobenen": 5740,
      "Bauwerk": 5741,
      "##ollen": 5742,
      "Kleidungs": 5743,
      "Schwer": 5744,
      "Speer": 5745,
      "##ände": 5746,
      "Flipf": 5747,
      "Fußballtrikot": 5748,
      "orangefarbenes": 5749,
      "##anken": 5750,
      "##erkleid": 5751,
      "Pullo": 5752,
      "Straßenarbeiter": 5753,
      "Straßenfest": 5754,
      "Straßenseite": 5755,
      "Pferder": 5756,
      "warmen": 5757,
      "##objekt": 5758,
      "##ärmen": 5759,
      "Skateboards": 5760,
      "Text": 5761,
      "heller": 5762,
      "Schwimmflü": 5763,
      "##izont": 5764,
      "Holzkonstruktion": 5765,
      "wieder": 5766,
      "betreten": 5767,
      "darin": 5768,
      "daran": 5769,
      "Hüpf": 5770,
      "Bildes": 5771,
      "Aufnahme": 5772,
      "##rachter": 5773,
      "Tennisplatz": 5774,
      "Hosenträger": 5775,
      "Musikgruppe": 5776,
      "Kühl": 5777,
      "Steintreppe": 5778,
      "hohes": 5779,
      "Footballspiel": 5780,
      "Eiswagen": 5781,
      "Fenstern": 5782,
      "##kohol": 5783,
      "Regenbogen": 5784,
      "Regenmantel": 5785,
      "Zeitschriften": 5786,
      "Karohemd": 5787,
      "##rängt": 5788,
      "##ränkten": 5789,
      "Flusses": 5790,
      "Flussufer": 5791,
      "Rennens": 5792,
      "Einkäufer": 5793,
      "Betrachter": 5794,
      "umged": 5795,
      "gefangen": 5796,
      "Konstruktion": 5797,
      "##shorts": 5798,
      "gesenkt": 5799,
      "Zauns": 5800,
      "schneebedeckte": 5801,
      "Familien": 5802,
      "freien": 5803,
      "rudern": 5804,
      "Einkaufstüten": 5805,
      "sonnen": 5806,
      "spaziert": 5807,
      "angehalten": 5808,
      "aussehendes": 5809,
      "Feuerwerk": 5810,
      "Rasenfläche": 5811,
      "Felsbrocken": 5812,
      "##udd": 5813,
      "Tanzfläche": 5814,
      "Kraft": 5815,
      "bespr": 5816,
      "besucht": 5817,
      "nächt": 5818,
      "Schürzen": 5819,
      "Akten": 5820,
      "diesen": 5821,
      "schützen": 5822,
      "schützt": 5823,
      "bewaldeten": 5824,
      "Brautjung": 5825,
      "Knie": 5826,
      "heraushängen": 5827,
      "##druckt": 5828,
      "weiteren": 5829,
      "Hoodie": 5830,
      "Kampfsportler": 5831,
      "##schluss": 5832,
      "##verkehr": 5833,
      "beleuchtet": 5834,
      "##handschuh": 5835,
      "Laufbahn": 5836,
      "dritter": 5837,
      "getroffen": 5838,
      "##dachten": 5839,
      "Geländefahrzeug": 5840,
      "##äcker": 5841,
      "schaukeln": 5842,
      "Flugzeugs": 5843,
      "##armon": 5844,
      "bedienen": 5845,
      "angezogener": 5846,
      "Plate": 5847,
      "Großer": 5848,
      "Bruder": 5849,
      "Begeister": 5850,
      "Nachrichten": 5851,
      "Verkaufsstand": 5852,
      "Platte": 5853,
      "orientalisch": 5854,
      "Amer": 5855,
      "ärmellos": 5856,
      "Student": 5857,
      "Flügeln": 5858,
      "Außenbereich": 5859,
      "Kapuzenpullover": 5860,
      "Badem": 5861,
      "entfernen": 5862,
      "Speise": 5863,
      "Sicherheitsweste": 5864,
      "steile": 5865,
      "Kartons": 5866,
      "bestellen": 5867,
      "hübschen": 5868,
      "hübsche": 5869,
      "passiert": 5870,
      "anhaben": 5871,
      "langärml": 5872,
      "##scheinlich": 5873,
      "Dunkel": 5874,
      "Mitglied": 5875,
      "Rugbyspieler": 5876,
      "überprüfen": 5877,
      "##pferd": 5878,
      "Figuren": 5879,
      "Notiz": 5880,
      "Smart": 5881,
      "Wildwasser": 5882,
      "elektrischen": 5883,
      "tätowierte": 5884,
      "ausgezogen": 5885,
      "verzierten": 5886,
      "Musikinstrumente": 5887,
      "Segelboot": 5888,
      "formeller": 5889,
      "Passagiere": 5890,
      "boxen": 5891,
      "ähnlich": 5892,
      "gespannt": 5893,
      "Tüten": 5894,
      "##ähnlichen": 5895,
      "Schachtel": 5896,
      "Bauernmarkt": 5897,
      "##großen": 5898,
      "##gabe": 5899,
      "Fernseher": 5900,
      "akust": 5901,
      "moder": 5902,
      "protestiert": 5903,
      "befahrenen": 5904,
      "Straßenmusiker": 5905,
      "Reklametafel": 5906,
      "schlendert": 5907,
      "erleuchteten": 5908,
      "Camping": 5909,
      "Fackel": 5910,
      "##rennfahrer": 5911,
      "##club": 5912,
      "China": 5913,
      "schlammigen": 5914,
      "Patienten": 5915,
      "Irokesenschnitt": 5916,
      "Ampel": 5917,
      "Wakeboard": 5918,
      "##trolle": 5919,
      "schlecht": 5920,
      "Stativ": 5921,
      "angemalt": 5922,
      "dahinter": 5923,
      "Imbiss": 5924,
      "Cello": 5925,
      "Neugeborenes": 5926,
      "Wolken": 5927,
      "##putzer": 5928,
      "##äbchen": 5929,
      "schneebedecktes": 5930,
      "Fischernetz": 5931,
      "Kneipe": 5932,
      "Röhre": 5933,
      "##eligiö": 5934,
      "bedruckten": 5935,
      "umringt": 5936,
      "Geschwindigkeit": 5937,
      "Nachbarschaft": 5938,
      "attraktive": 5939,
      "Pizza": 5940,
      "Plüschtier": 5941,
      "tagsüber": 5942,
      "völlig": 5943,
      "##ündet": 5944,
      "Scheinwerfer": 5945,
      "unglück": 5946,
      "Pullunder": 5947,
      "jeweils": 5948,
      "Friedens": 5949,
      "Stromschnellen": 5950,
      "heruntergekommenen": 5951,
      "Verteidiger": 5952,
      "##ynchron": 5953,
      "Hamburger": 5954,
      "Halloween": 5955,
      "Münz": 5956,
      "Zusammen": 5957,
      "dribbelt": 5958,
      "Schokol": 5959,
      "vergnügen": 5960,
      "Flipflops": 5961,
      "Begeisterung": 5962,
      "10": 5963,
      "All": 5964,
      "Air": 5965,
      "Best": 5966,
      "Bark": 5967,
      "Bäcker": 5968,
      "Coll": 5969,
      "Du": 5970,
      "Dis": 5971,
      "Dig": 5972,
      "Dose": 5973,
      "End": 5974,
      "Europ": 5975,
      "Fang": 5976,
      "Gest": 5977,
      "Gurt": 5978,
      "Gipfel": 5979,
      "Halb": 5980,
      "Hub": 5981,
      "Hause": 5982,
      "Halle": 5983,
      "Ich": 5984,
      "Jet": 5985,
      "Lig": 5986,
      "Leit": 5987,
      "Mini": 5988,
      "Neben": 5989,
      "Nad": 5990,
      "Nud": 5991,
      "OP": 5992,
      "Rosen": 5993,
      "Squ": 5994,
      "Tem": 5995,
      "Tut": 5996,
      "Them": 5997,
      "Volk": 5998,
      "Wir": 5999,
      "Wanne": 6000,
      "Xyl": 6001,
      "Zer": 6002,
      "Zelten": 6003,
      "bast": 6004,
      "brechen": 6005,
      "dicken": 6006,
      "ex": 6007,
      "ess": 6008,
      "fas": 6009,
      "fal": 6010,
      "fern": 6011,
      "folgen": 6012,
      "kap": 6013,
      "krab": 6014,
      "kanad": 6015,
      "los": 6016,
      "lack": 6017,
      "men": 6018,
      "muss": 6019,
      "meiß": 6020,
      "of": 6021,
      "prä": 6022,
      "passt": 6023,
      "räu": 6024,
      "raus": 6025,
      "rührt": 6026,
      "richten": 6027,
      "ska": 6028,
      "tun": 6029,
      "the": 6030,
      "wel": 6031,
      "wür": 6032,
      "zahl": 6033,
      "##lose": 6034,
      "##losen": 6035,
      "##nier": 6036,
      "##nungen": 6037,
      "##ba": 6038,
      "##bie": 6039,
      "##bten": 6040,
      "##bällen": 6041,
      "##ail": 6042,
      "##rein": 6043,
      "##risch": 6044,
      "##pos": 6045,
      "##paar": 6046,
      "##punkt": 6047,
      "##perspe": 6048,
      "##zone": 6049,
      "##zeichnet": 6050,
      "##thn": 6051,
      "##teln": 6052,
      "##sem": 6053,
      "##set": 6054,
      "##seil": 6055,
      "##szug": 6056,
      "##mat": 6057,
      "##mart": 6058,
      "##mpfer": 6059,
      "##gst": 6060,
      "##ging": 6061,
      "##gibt": 6062,
      "##girl": 6063,
      "##oter": 6064,
      "##onder": 6065,
      "##kle": 6066,
      "##krem": 6067,
      "##ddy": 6068,
      "##hte": 6069,
      "##hoch": 6070,
      "##halb": 6071,
      "##horn": 6072,
      "##ca": 6073,
      "##vern": 6074,
      "##fol": 6075,
      "##fuß": 6076,
      "##flie": 6077,
      "##farbe": 6078,
      "##fession": 6079,
      "##ühlen": 6080,
      "##äcke": 6081,
      "##ähe": 6082,
      "##ämmen": 6083,
      "##was": 6084,
      "##werfen": 6085,
      "##öser": 6086,
      "##inz": 6087,
      "##inner": 6088,
      "##erzen": 6089,
      "einiger": 6090,
      "eingew": 6091,
      "einheim": 6092,
      "##chor": 6093,
      "Einrichtung": 6094,
      "##eisen": 6095,
      "##eife": 6096,
      "##itu": 6097,
      "##arin": 6098,
      "##ieh": 6099,
      "##hren": 6100,
      "##rauber": 6101,
      "##onne": 6102,
      "##schieden": 6103,
      "##schrauber": 6104,
      "##rahmen": 6105,
      "##orch": 6106,
      "##orte": 6107,
      "##orten": 6108,
      "##stä": 6109,
      "##stem": 6110,
      "##stab": 6111,
      "##staben": 6112,
      "##striert": 6113,
      "##strauß": 6114,
      "schlei": 6115,
      "schlie": 6116,
      "Stru": 6117,
      "Stiefel": 6118,
      "ansehen": 6119,
      "##geben": 6120,
      "zuhört": 6121,
      "geg": 6122,
      "##ierc": 6123,
      "##ierend": 6124,
      "blü": 6125,
      "vorsicht": 6126,
      "##athlet": 6127,
      "schwenken": 6128,
      "##pper": 6129,
      "##ppel": 6130,
      "##rug": 6131,
      "##osau": 6132,
      "##denk": 6133,
      "##gert": 6134,
      "##geräten": 6135,
      "beißen": 6136,
      "##rümp": 6137,
      "##ilien": 6138,
      "ausgeschnitten": 6139,
      "ausländ": 6140,
      "##oly": 6141,
      "##olster": 6142,
      "spritzen": 6143,
      "##mmun": 6144,
      "beten": 6145,
      "betet": 6146,
      "##pfahl": 6147,
      "##pfosten": 6148,
      "##bewegung": 6149,
      "##bewegungen": 6150,
      "uns": 6151,
      "unge": 6152,
      "##egelt": 6153,
      "##hed": 6154,
      "##hebt": 6155,
      "Fahrzeugen": 6156,
      "Bag": 6157,
      "Blas": 6158,
      "Blask": 6159,
      "Felskl": 6160,
      "stür": 6161,
      "stap": 6162,
      "##fahrrad": 6163,
      "erle": 6164,
      "rothaariger": 6165,
      "##bluse": 6166,
      "##blase": 6167,
      "Kopfstein": 6168,
      "hochhack": 6169,
      "Flops": 6170,
      "Bündel": 6171,
      "albern": 6172,
      "blockt": 6173,
      "##apier": 6174,
      "##ammert": 6175,
      "##ucher": 6176,
      "Gehstock": 6177,
      "##opoly": 6178,
      "Feldhockey": 6179,
      "graues": 6180,
      "Pul": 6181,
      "Sonnenlicht": 6182,
      "Stadtpark": 6183,
      "Straßenrennen": 6184,
      "Straßenszene": 6185,
      "##lex": 6186,
      "##ionen": 6187,
      "Sandhügel": 6188,
      "Sandburg": 6189,
      "regen": 6190,
      "Teddy": 6191,
      "hellgrünen": 6192,
      "hellrosa": 6193,
      "Reparatur": 6194,
      "Univers": 6195,
      "Baseballfeld": 6196,
      "beteil": 6197,
      "darüber": 6198,
      "gestreifte": 6199,
      "Hüfte": 6200,
      "Pfanne": 6201,
      "##imer": 6202,
      "verschränkten": 6203,
      "##häus": 6204,
      "Schlucht": 6205,
      "schnüffelt": 6206,
      "schnappt": 6207,
      "##aschinen": 6208,
      "Spielerin": 6209,
      "Bahnstation": 6210,
      "Food": 6211,
      "Küsten": 6212,
      "Tages": 6213,
      "Steinbank": 6214,
      "hohem": 6215,
      "##struktur": 6216,
      "späht": 6217,
      "##aken": 6218,
      "Basketballfeld": 6219,
      "##schul": 6220,
      "Polohemd": 6221,
      "Feuerstelle": 6222,
      "Spielzeugauto": 6223,
      "Rollers": 6224,
      "Arbeitern": 6225,
      "Sommert": 6226,
      "Verw": 6227,
      "Verschieden": 6228,
      "Vorführung": 6229,
      "Sporthalle": 6230,
      "Buchstaben": 6231,
      "Handys": 6232,
      "Metallstange": 6233,
      "Dekorat": 6234,
      "##rennt": 6235,
      "##ummern": 6236,
      "Mitspieler": 6237,
      "Papiert": 6238,
      "gefär": 6239,
      "gefallen": 6240,
      "gefloch": 6241,
      "gefroren": 6242,
      "Auslage": 6243,
      "Konf": 6244,
      "gespielt": 6245,
      "Betonmauer": 6246,
      "Betonplat": 6247,
      "umgebenen": 6248,
      "##flip": 6249,
      "##parcours": 6250,
      "##springer": 6251,
      "##dtimer": 6252,
      "##hörer": 6253,
      "kämpft": 6254,
      "Teenagern": 6255,
      "Rockband": 6256,
      "Rasenmäher": 6257,
      "Kopfbedeckungen": 6258,
      "Unterhemd": 6259,
      "Unterhaltung": 6260,
      "Absatz": 6261,
      "lachende": 6262,
      "Hochstuhl": 6263,
      "Müllcon": 6264,
      "Marmor": 6265,
      "schmalen": 6266,
      "Fischmarkt": 6267,
      "Mopp": 6268,
      "Trock": 6269,
      "Ziegelgebäude": 6270,
      "Ziegelbau": 6271,
      "schöner": 6272,
      "Volleyballspiel": 6273,
      "Paras": 6274,
      "gewinnen": 6275,
      "dieselbe": 6276,
      "Kniesch": 6277,
      "indian": 6278,
      "##hunde": 6279,
      "Weißer": 6280,
      "Geldautomaten": 6281,
      "Chef": 6282,
      "Läuferin": 6283,
      "Taube": 6284,
      "##vorrichtung": 6285,
      "weiterer": 6286,
      "Turnier": 6287,
      "Kajakfahrer": 6288,
      "Randstein": 6289,
      "Anzahl": 6290,
      "##führer": 6291,
      "Spiegelbild": 6292,
      "silberne": 6293,
      "Seifenblase": 6294,
      "##verkauf": 6295,
      "dekorat": 6296,
      "Laufband": 6297,
      "dritten": 6298,
      "##gnis": 6299,
      "##gematte": 6300,
      "Tourist": 6301,
      "Backsteinmauer": 6302,
      "Waschmaschine": 6303,
      "##karren": 6304,
      "gepflasterte": 6305,
      "soeben": 6306,
      "Baumstumpf": 6307,
      "angezogene": 6308,
      "Training": 6309,
      "chinesische": 6310,
      "Schneem": 6311,
      "öffnen": 6312,
      "geschmückt": 6313,
      "kompletter": 6314,
      "frischem": 6315,
      "Platten": 6316,
      "afroamerikanisches": 6317,
      "orientalischer": 6318,
      "Amb": 6319,
      "ruhig": 6320,
      "Schlafzimmer": 6321,
      "##enkmal": 6322,
      "gelegenen": 6323,
      "Gesichtsaus": 6324,
      "Sicherheitswesten": 6325,
      "##emonie": 6326,
      "##ospieler": 6327,
      "Projektor": 6328,
      "Form": 6329,
      "Forscher": 6330,
      "Kartoff": 6331,
      "schaufeln": 6332,
      "bestehend": 6333,
      "Indien": 6334,
      "Papp": 6335,
      "Trink": 6336,
      "aufblasbare": 6337,
      "verteid": 6338,
      "Oldtimer": 6339,
      "saugt": 6340,
      "Fußgängerübergang": 6341,
      "Grünfläche": 6342,
      "Kabine": 6343,
      "Monopoly": 6344,
      "möchte": 6345,
      "Kameram": 6346,
      "muskul": 6347,
      "Spielsachen": 6348,
      "Fliege": 6349,
      "Produkt": 6350,
      "Besitz": 6351,
      "Jockeys": 6352,
      "Vögeln": 6353,
      "Wildnis": 6354,
      "breiten": 6355,
      "Hängematte": 6356,
      "Jogger": 6357,
      "Jogging": 6358,
      "Elmo": 6359,
      "Ozeans": 6360,
      "Zahnbürste": 6361,
      "erklimmt": 6362,
      "irgendeinem": 6363,
      "mehrfarbigen": 6364,
      "lernen": 6365,
      "##gestellten": 6366,
      "Piraten": 6367,
      "brennende": 6368,
      "Stabhoch": 6369,
      "mittelalter": 6370,
      "Schachteln": 6371,
      "trockenen": 6372,
      "Windhunde": 6373,
      "Batman": 6374,
      "##zusehen": 6375,
      "##liegenden": 6376,
      "Supermarkt": 6377,
      "Fächer": 6378,
      "Garage": 6379,
      "Nagel": 6380,
      "Walmart": 6381,
      "##uropä": 6382,
      "##formationen": 6383,
      "dekoriert": 6384,
      "altmodischen": 6385,
      "Ziegen": 6386,
      "##chnik": 6387,
      "Schieß": 6388,
      "##leitung": 6389,
      "Olympischen": 6390,
      "faulenzen": 6391,
      "Billard": 6392,
      "Peace": 6393,
      "Transpor": 6394,
      "Wachmann": 6395,
      "uniformierter": 6396,
      "rosaroten": 6397,
      "legerer": 6398,
      "probiert": 6399,
      "Pelz": 6400,
      "Pilot": 6401,
      "sägt": 6402,
      "Ältere": 6403,
      "Bohrmaschine": 6404,
      "Glatze": 6405,
      "##ydranten": 6406,
      "vorderen": 6407,
      "Anweisungen": 6408,
      "begeistert": 6409,
      "Grund": 6410,
      "Wollmütze": 6411,
      "Strumpfhose": 6412,
      "rostigen": 6413,
      "Telefonzelle": 6414,
      "Wassersprenger": 6415,
      "Smoking": 6416,
      "Esstisch": 6417,
      "Fontäne": 6418,
      "Kaufhaus": 6419,
      "Logo": 6420,
      "Times": 6421,
      "bockenden": 6422,
      "##wolke": 6423,
      "sprüht": 6424,
      "Sommerkleid": 6425,
      "Gleichgewicht": 6426,
      "elektronischen": 6427,
      "Demonstranten": 6428,
      "Horizont": 6429,
      "Ladefläche": 6430,
      "bürstet": 6431,
      "wettei": 6432,
      "Street": 6433,
      "Hosenträgern": 6434,
      "heraushängender": 6435,
      "##armonika": 6436,
      "Dunkelheit": 6437,
      "Smartphon": 6438,
      "Europa": 6439,
      "Temp": 6440,
      "Xylophon": 6441,
      "Zeremonie": 6442,
      "fasz": 6443,
      "meißelt": 6444,
      "skatet": 6445,
      "##perspektive": 6446,
      "eingewickelt": 6447,
      "vorsichtig": 6448,
      "##rümpfen": 6449,
      "Blaskapelle": 6450,
      "Teddybär": 6451,
      "Sommertag": 6452,
      "geflochten": 6453,
      "muskulöser": 6454,
      "\".": 6455,
      "Abst": 6456,
      "BH": 6457,
      "Bong": 6458,
      "Beutel": 6459,
      "Dom": 6460,
      "Draußen": 6461,
      "Dosen": 6462,
      "Deut": 6463,
      "Dschung": 6464,
      "Erei": 6465,
      "Fu": 6466,
      "Fan": 6467,
      "Fir": 6468,
      "Führ": 6469,
      "Fangen": 6470,
      "Gok": 6471,
      "Hasen": 6472,
      "Ihr": 6473,
      "Jen": 6474,
      "Kuss": 6475,
      "Kinn": 6476,
      "Kasten": 6477,
      "Können": 6478,
      "Laut": 6479,
      "Live": 6480,
      "Latz": 6481,
      "Lenk": 6482,
      "Mal": 6483,
      "Mag": 6484,
      "Milit": 6485,
      "Nik": 6486,
      "Nummern": 6487,
      "Offiz": 6488,
      "Ochsen": 6489,
      "Pri": 6490,
      "Ping": 6491,
      "Pistole": 6492,
      "Ri": 6493,
      "Rast": 6494,
      "Ser": 6495,
      "Sal": 6496,
      "Sim": 6497,
      "Säge": 6498,
      "Transport": 6499,
      "Uf": 6500,
      "Wä": 6501,
      "Wer": 6502,
      "Wetter": 6503,
      "Wippe": 6504,
      "Waffel": 6505,
      "Wissenschaft": 6506,
      "Zit": 6507,
      "Zut": 6508,
      "Zent": 6509,
      "binden": 6510,
      "creme": 6511,
      "eigen": 6512,
      "europä": 6513,
      "ganzen": 6514,
      "heim": 6515,
      "hackt": 6516,
      "kein": 6517,
      "krie": 6518,
      "leben": 6519,
      "leitet": 6520,
      "lust": 6521,
      "mex": 6522,
      "pus": 6523,
      "pat": 6524,
      "richt": 6525,
      "reicht": 6526,
      "religiö": 6527,
      "segelt": 6528,
      "teilt": 6529,
      "tippt": 6530,
      "wenn": 6531,
      "wilden": 6532,
      "Är": 6533,
      "Öl": 6534,
      "##if": 6535,
      "##nach": 6536,
      "##nummer": 6537,
      "##bter": 6538,
      "##beutel": 6539,
      "##bläser": 6540,
      "##ull": 6541,
      "##upf": 6542,
      "##rten": 6543,
      "##rieren": 6544,
      "##plan": 6545,
      "##zur": 6546,
      "##tänzer": 6547,
      "##treifen": 6548,
      "##mö": 6549,
      "##mitarbeiter": 6550,
      "##grau": 6551,
      "##gruppen": 6552,
      "##grube": 6553,
      "##galerie": 6554,
      "##ora": 6555,
      "##out": 6556,
      "##ood": 6557,
      "##kn": 6558,
      "##kan": 6559,
      "##kater": 6560,
      "##katen": 6561,
      "##karten": 6562,
      "##krö": 6563,
      "##kunft": 6564,
      "##kante": 6565,
      "##di": 6566,
      "##dose": 6567,
      "##hat": 6568,
      "##how": 6569,
      "##hängt": 6570,
      "##hütte": 6571,
      "##café": 6572,
      "##frau": 6573,
      "##fass": 6574,
      "##üte": 6575,
      "##ügt": 6576,
      "##üster": 6577,
      "##äran": 6578,
      "##wirt": 6579,
      "##will": 6580,
      "##CE": 6581,
      "##öv": 6582,
      "##MS": 6583,
      "##inchen": 6584,
      "##inge": 6585,
      "##enzt": 6586,
      "Einzel": 6587,
      "##eis": 6588,
      "##eidet": 6589,
      "##ndes": 6590,
      "##ital": 6591,
      "##itischen": 6592,
      "##itäten": 6593,
      "##elll": 6594,
      "aufeinander": 6595,
      "aufgenommen": 6596,
      "##arium": 6597,
      "##hrt": 6598,
      "##rauf": 6599,
      "##schü": 6600,
      "##schie": 6601,
      "##school": 6602,
      "##schienen": 6603,
      "##ungsk": 6604,
      "##einfahrt": 6605,
      "##ragt": 6606,
      "##ore": 6607,
      "##orgt": 6608,
      "##oreiter": 6609,
      "##stiefeln": 6610,
      "##stöcken": 6611,
      "##storte": 6612,
      "schenkt": 6613,
      "##ichert": 6614,
      "##ichteten": 6615,
      "##iellen": 6616,
      "Män": 6617,
      "anzug": 6618,
      "anzusehen": 6619,
      "Schrau": 6620,
      "Schritt": 6621,
      "##etscher": 6622,
      "##gegend": 6623,
      "zurecht": 6624,
      "zuhause": 6625,
      "steuert": 6626,
      "voran": 6627,
      "##allt": 6628,
      "spielenden": 6629,
      "##alien": 6630,
      "##alteten": 6631,
      "schwere": 6632,
      "##ruch": 6633,
      "##oskop": 6634,
      "##rid": 6635,
      "##riges": 6636,
      "denkt": 6637,
      "##ney": 6638,
      "Ged": 6639,
      "auszu": 6640,
      "##ellern": 6641,
      "##ürzten": 6642,
      "beein": 6643,
      "umzäunten": 6644,
      "lädt": 6645,
      "anderem": 6646,
      "Wasserstraße": 6647,
      "##ispan": 6648,
      "##egte": 6649,
      "entwe": 6650,
      "Handwerker": 6651,
      "Handtaschen": 6652,
      "##boxen": 6653,
      "Spielers": 6654,
      "Spielern": 6655,
      "##later": 6656,
      "Boote": 6657,
      "Body": 6658,
      "##chtathlet": 6659,
      "Kok": 6660,
      "zweite": 6661,
      "##anzt": 6662,
      "##spielern": 6663,
      "Blut": 6664,
      "Block": 6665,
      "##gelegten": 6666,
      "still": 6667,
      "Fahrradrennen": 6668,
      "Skim": 6669,
      "sieben": 6670,
      "etwa": 6671,
      "hinweg": 6672,
      "##unterricht": 6673,
      "ern": 6674,
      "erziel": 6675,
      "Kamm": 6676,
      "##änzern": 6677,
      "##ollt": 6678,
      "Basken": 6679,
      "##etti": 6680,
      "rotwei": 6681,
      "hinteren": 6682,
      "##blatt": 6683,
      "##blauer": 6684,
      "##omp": 6685,
      "Schwebe": 6686,
      "##rastreifen": 6687,
      "Spitz": 6688,
      "Spinn": 6689,
      "##ütz": 6690,
      "##ützern": 6691,
      "Flammen": 6692,
      "Ansicht": 6693,
      "Schneeball": 6694,
      "Fußballteam": 6695,
      "##stücken": 6696,
      "##ansicht": 6697,
      "##inke": 6698,
      "Pult": 6699,
      "Stadtszene": 6700,
      "blondhaariger": 6701,
      "Gesellschaft": 6702,
      "abgest": 6703,
      "##spur": 6704,
      "Jeansshorts": 6705,
      "Inter": 6706,
      "Holzbrett": 6707,
      "##abteil": 6708,
      "Wandmaler": 6709,
      "Reihen": 6710,
      "Pfeife": 6711,
      "##ketten": 6712,
      "##imon": 6713,
      "Aufnah": 6714,
      "Aufkle": 6715,
      "verschm": 6716,
      "Gesichtsm": 6717,
      "braunhaariges": 6718,
      "Pferdes": 6719,
      "Berglandschaft": 6720,
      "Kunstgalerie": 6721,
      "hocken": 6722,
      "Basketballkorb": 6723,
      "Felsens": 6724,
      "Footballfeld": 6725,
      "##etzter": 6726,
      "Eisschn": 6727,
      "##gramm": 6728,
      "Badehosen": 6729,
      "Badekappe": 6730,
      "##zeria": 6731,
      "##brot": 6732,
      "##bricht": 6733,
      "##pult": 6734,
      "##puppe": 6735,
      "##kost": 6736,
      "Soon": 6737,
      "Sommer": 6738,
      "Vorstellung": 6739,
      "Herzen": 6740,
      "Zeitungen": 6741,
      "##gestürzten": 6742,
      "genau": 6743,
      "##autos": 6744,
      "##aterial": 6745,
      "##smittel": 6746,
      "geschlagen": 6747,
      "geschrieben": 6748,
      "##stration": 6749,
      "Papa": 6750,
      "Schnorch": 6751,
      "Graben": 6752,
      "Ausflug": 6753,
      "lilafarbener": 6754,
      "Kontrolle": 6755,
      "##hemden": 6756,
      "Landung": 6757,
      "karierter": 6758,
      "##ogie": 6759,
      "langes": 6760,
      "Betonstufen": 6761,
      "frischen": 6762,
      "frische": 6763,
      "Getreide": 6764,
      "##ulisse": 6765,
      "telefonieren": 6766,
      "Schülern": 6767,
      "angefeuert": 6768,
      "Torbogen": 6769,
      "kümmern": 6770,
      "##klettert": 6771,
      "##lings": 6772,
      "Leop": 6773,
      "##eeper": 6774,
      "Glastür": 6775,
      "Schals": 6776,
      "Kanus": 6777,
      "Kaninchen": 6778,
      "Zigarre": 6779,
      "Winterjacke": 6780,
      "Wintertag": 6781,
      "hüpfen": 6782,
      "neon": 6783,
      "Coach": 6784,
      "Coca": 6785,
      "##hüpfen": 6786,
      "beginnen": 6787,
      "besprü": 6788,
      "violetter": 6789,
      "##hohen": 6790,
      "##holt": 6791,
      "Leichtathlet": 6792,
      "dieses": 6793,
      "aller": 6794,
      "unbekann": 6795,
      "Knien": 6796,
      "Mannschafts": 6797,
      "Ladens": 6798,
      "verwir": 6799,
      "Tauziehen": 6800,
      "Fahrzeugs": 6801,
      "Lebensmittelmarkt": 6802,
      "##affeln": 6803,
      "Vogelperspektive": 6804,
      "Kajaks": 6805,
      "gebaut": 6806,
      "traditionelle": 6807,
      "##schwimmer": 6808,
      "weiblichen": 6809,
      "gepolster": 6810,
      "##instrumente": 6811,
      "Huhn": 6812,
      "Fernsehen": 6813,
      "Backsteinstraße": 6814,
      "getragen": 6815,
      "linke": 6816,
      "gegnerische": 6817,
      "glückliche": 6818,
      "neuen": 6819,
      "##bewohner": 6820,
      "Baumstämmen": 6821,
      "Enten": 6822,
      "Labrad": 6823,
      "profession": 6824,
      "Großstadt": 6825,
      "Innenhof": 6826,
      "Innenraum": 6827,
      "Beginn": 6828,
      "Begriff": 6829,
      "Nachmittag": 6830,
      "##promenade": 6831,
      "Cheerleaderin": 6832,
      "gießen": 6833,
      "##wärtss": 6834,
      "Alkohol": 6835,
      "Bades": 6836,
      "Gleis": 6837,
      "##bühne": 6838,
      "##kisen": 6839,
      "beschn": 6840,
      "beschm": 6841,
      "Softballspieler": 6842,
      "einsamen": 6843,
      "interagieren": 6844,
      "intervie": 6845,
      "Bücherreg": 6846,
      "gesäumte": 6847,
      "Käfig": 6848,
      "dirigiert": 6849,
      "Dinosau": 6850,
      "Indust": 6851,
      "Indian": 6852,
      "hübsch": 6853,
      "Position": 6854,
      "##seligkeiten": 6855,
      "fröhliche": 6856,
      "Möwen": 6857,
      "Palme": 6858,
      "pflanzen": 6859,
      "Geldbeutel": 6860,
      "Dress": 6861,
      "Filz": 6862,
      "Kabel": 6863,
      "Perücke": 6864,
      "regelt": 6865,
      "regnet": 6866,
      "Kartenspiel": 6867,
      "schlafend": 6868,
      "schlafendes": 6869,
      "barfüßiger": 6870,
      "Urlaub": 6871,
      "Fliegen": 6872,
      "Ringkampf": 6873,
      "Violett": 6874,
      "breit": 6875,
      "khakifarbener": 6876,
      "türkisen": 6877,
      "##zuführen": 6878,
      "aufgeblasen": 6879,
      "Hundespielzeug": 6880,
      "Musikinstrument": 6881,
      "Musikinstrumenten": 6882,
      "Motocrossfahrer": 6883,
      "Versuch": 6884,
      "nassem": 6885,
      "##holfen": 6886,
      "Hochzeitskleid": 6887,
      "irgendeiner": 6888,
      "Häuser": 6889,
      "größer": 6890,
      "Passagieren": 6891,
      "Videokamera": 6892,
      "Fassade": 6893,
      "Warnweste": 6894,
      "brennenden": 6895,
      "##askott": 6896,
      "Hawa": 6897,
      "Pizzeria": 6898,
      "Plüsch": 6899,
      "##wohl": 6900,
      "Startlinie": 6901,
      "Ruderboot": 6902,
      "Einkaufstaschen": 6903,
      "##fallenen": 6904,
      "Demonstration": 6905,
      "Elektro": 6906,
      "Pinsel": 6907,
      "Schlittschuhen": 6908,
      "Schlittschuh": 6909,
      "Nahen": 6910,
      "dünnen": 6911,
      "##wettkampf": 6912,
      "Absperrung": 6913,
      "Fernseh": 6914,
      "Highschool": 6915,
      "Afrikaner": 6916,
      "Gletscher": 6917,
      "Waffen": 6918,
      "Ziege": 6919,
      "##uscheln": 6920,
      "Backflip": 6921,
      "strahl": 6922,
      "faulenzt": 6923,
      "ausgebreitet": 6924,
      "ausgebreiteten": 6925,
      "säubert": 6926,
      "Stofftier": 6927,
      "bleiben": 6928,
      "bleibt": 6929,
      "Fitnes": 6930,
      "Pyj": 6931,
      "Tankstelle": 6932,
      "sortiert": 6933,
      "erhöh": 6934,
      "Pony": 6935,
      "trüben": 6936,
      "zielt": 6937,
      "##körben": 6938,
      "versteckt": 6939,
      "Pflasterstraße": 6940,
      "Cheerleadern": 6941,
      "tropischen": 6942,
      "McDonalds": 6943,
      "Wassermelonen": 6944,
      "Apple": 6945,
      "Seni": 6946,
      "verschwommen": 6947,
      "gefleckter": 6948,
      "Objekte": 6949,
      "Bananen": 6950,
      "Stammeskleidung": 6951,
      "Zebrastreifen": 6952,
      "reflektierenden": 6953,
      "Kaffeetasse": 6954,
      "Habseligkeiten": 6955,
      "Subway": 6956,
      "Wartungs": 6957,
      "seichtem": 6958,
      "einfachen": 6959,
      "hochzuklettern": 6960,
      "abgesper": 6961,
      "trottet": 6962,
      "Rodeoreiter": 6963,
      "Toiletten": 6964,
      "gemusterten": 6965,
      "burgunderroten": 6966,
      "historischen": 6967,
      "Blazer": 6968,
      "Popc": 6969,
      "buckel": 6970,
      "iPod": 6971,
      "wahrscheinlich": 6972,
      "Staffelei": 6973,
      "Pullovern": 6974,
      "Aktentasche": 6975,
      "Brautjungfern": 6976,
      "Friedenszeichen": 6977,
      "Schokoladen": 6978,
      "Barkeeper": 6979,
      "Digital": 6980,
      "Hubschrauber": 6981,
      "Nadel": 6982,
      "Square": 6983,
      "Volks": 6984,
      "krabbelt": 6985,
      "schleift": 6986,
      "Struktur": 6987,
      "##hedra": 6988,
      "Bagger": 6989,
      "Felsklippe": 6990,
      "Kopfsteinpflaster": 6991,
      "hochhackigen": 6992,
      "Verschiedene": 6993,
      "Müllcontainer": 6994,
      "Gesichtsausdruck": 6995,
      "Kameramann": 6996,
      "Smartphone": 6997,
      "geflochtenen": 6998,
      "Dschungel": 6999,
      "Ereignis": 7000,
      "Gokart": 7001,
      "Jenga": 7002,
      "Militäran": 7003,
      "Sims": 7004,
      "Ufers": 7005,
      "Zutaten": 7006,
      "mexikan": 7007,
      "entweder": 7008,
      "Baskenmütze": 7009,
      "Schwebebalken": 7010,
      "Wandmalerei": 7011,
      "Eisschnelll": 7012,
      "##askottchen": 7013,
      "Militärangehöri": 7014,
      "!“": 7015,
      "11": 7016,
      "Ac": 7017,
      "Ant": 7018,
      "Aktion": 7019,
      "Aktiv": 7020,
      "Blei": 7021,
      "Cam": 7022,
      "Dess": 7023,
      "Eben": 7024,
      "Empf": 7025,
      "Far": 7026,
      "Fro": 7027,
      "Gas": 7028,
      "Gre": 7029,
      "Gän": 7030,
      "Gast": 7031,
      "Halt": 7032,
      "Haut": 7033,
      "Haken": 7034,
      "Hydranten": 7035,
      "Inner": 7036,
      "Jo": 7037,
      "Kau": 7038,
      "Kund": 7039,
      "Kief": 7040,
      "Krie": 7041,
      "Kunde": 7042,
      "Kegeln": 7043,
      "Kimon": 7044,
      "Kulisse": 7045,
      "Lu": 7046,
      "Late": 7047,
      "Mel": 7048,
      "Met": 7049,
      "Mil": 7050,
      "Meg": 7051,
      "Massen": 7052,
      "Open": 7053,
      "Pow": 7054,
      "Pose": 7055,
      "Punkt": 7056,
      "Rein": 7057,
      "Rall": 7058,
      "Ringen": 7059,
      "San": 7060,
      "Sess": 7061,
      "SMS": 7062,
      "Trau": 7063,
      "Tiger": 7064,
      "Tren": 7065,
      "Tauch": 7066,
      "Tinten": 7067,
      "Tänzern": 7068,
      "Ult": 7069,
      "Van": 7070,
      "Wh": 7071,
      "Wund": 7072,
      "Whe": 7073,
      "Warte": 7074,
      "Wände": 7075,
      "Zelte": 7076,
      "and": 7077,
      "bett": 7078,
      "beschä": 7079,
      "cool": 7080,
      "dreck": 7081,
      "eis": 7082,
      "event": 7083,
      "ethn": 7084,
      "frü": 7085,
      "feuert": 7086,
      "glät": 7087,
      "ha": 7088,
      "helle": 7089,
      "hech": 7090,
      "it": 7091,
      "keine": 7092,
      "kont": 7093,
      "kicken": 7094,
      "kehren": 7095,
      "les": 7096,
      "lauf": 7097,
      "leiden": 7098,
      "mobil": 7099,
      "pr": 7100,
      "pf": 7101,
      "par": 7102,
      "ruft": 7103,
      "raufen": 7104,
      "seit": 7105,
      "senk": 7106,
      "sorg": 7107,
      "tackelt": 7108,
      "une": 7109,
      "wolk": 7110,
      "zeich": 7111,
      "zündet": 7112,
      "Öff": 7113,
      "üpp": 7114,
      "##lau": 7115,
      "##lein": 7116,
      "##lim": 7117,
      "##lassen": 7118,
      "##ider": 7119,
      "##izen": 7120,
      "##imp": 7121,
      "##ipe": 7122,
      "##ness": 7123,
      "##bun": 7124,
      "##bälle": 7125,
      "##brechen": 7126,
      "##ugt": 7127,
      "##uell": 7128,
      "##ument": 7129,
      "##rang": 7130,
      "##resen": 7131,
      "##respiel": 7132,
      "##rutscht": 7133,
      "##person": 7134,
      "##pert": 7135,
      "##pistole": 7136,
      "##papier": 7137,
      "##pipe": 7138,
      "##zz": 7139,
      "##topf": 7140,
      "##sur": 7141,
      "##mar": 7142,
      "##mittel": 7143,
      "##meister": 7144,
      "##mobil": 7145,
      "##gier": 7146,
      "##gurt": 7147,
      "##ockt": 7148,
      "##kie": 7149,
      "##kur": 7150,
      "##kelt": 7151,
      "##kapelle": 7152,
      "##hom": 7153,
      "##car": 7154,
      "##fiel": 7155,
      "##fisch": 7156,
      "##fäll": 7157,
      "##übungen": 7158,
      "##äter": 7159,
      "##ye": 7160,
      "##wart": 7161,
      "##wiese": 7162,
      "##wahl": 7163,
      "##werfer": 7164,
      "##waffe": 7165,
      "##wärmen": 7166,
      "##inst": 7167,
      "##inis": 7168,
      "##erie": 7169,
      "eink": 7170,
      "einger": 7171,
      "##chco": 7172,
      "##eiben": 7173,
      "##eide": 7174,
      "##anell": 7175,
      "##anis": 7176,
      "inten": 7177,
      "##ufangen": 7178,
      "aufgeb": 7179,
      "aufrecht": 7180,
      "aufhat": 7181,
      "##arat": 7182,
      "##arden": 7183,
      "##esst": 7184,
      "##teter": 7185,
      "##ieß": 7186,
      "##unktion": 7187,
      "##raut": 7188,
      "##onern": 7189,
      "##schuss": 7190,
      "##tennis": 7191,
      "##ckigen": 7192,
      "##cknet": 7193,
      "##rache": 7194,
      "##order": 7195,
      "##stau": 7196,
      "##stil": 7197,
      "##stap": 7198,
      "schick": 7199,
      "schatt": 7200,
      "schält": 7201,
      "schippt": 7202,
      "Stiel": 7203,
      "Strä": 7204,
      "State": 7205,
      "Stelle": 7206,
      "Staff": 7207,
      "anschaut": 7208,
      "Schrei": 7209,
      "Schlä": 7210,
      "Schle": 7211,
      "Schär": 7212,
      "Schienen": 7213,
      "##etwas": 7214,
      "##inde": 7215,
      "##indesten": 7216,
      "gefahren": 7217,
      "gehoben": 7218,
      "##ierer": 7219,
      "##reit": 7220,
      "##ami": 7221,
      "##nern": 7222,
      "##ache": 7223,
      "##ator": 7224,
      "sicher": 7225,
      "##altet": 7226,
      "schweren": 7227,
      "Hundesch": 7228,
      "##eug": 7229,
      "##ruck": 7230,
      "##endung": 7231,
      "##oshirt": 7232,
      "##assage": 7233,
      "##nev": 7234,
      "##geräte": 7235,
      "##geräumten": 7236,
      "beigen": 7237,
      "überblickt": 7238,
      "überdachten": 7239,
      "##rünen": 7240,
      "##rüpp": 7241,
      "##oliz": 7242,
      "Hemdbluse": 7243,
      "##ikal": 7244,
      "##üren": 7245,
      "beauf": 7246,
      "bequ": 7247,
      "beendet": 7248,
      "umgestürzten": 7249,
      "##pfütze": 7250,
      "unauf": 7251,
      "Wasserball": 7252,
      "Wasserfon": 7253,
      "##isst": 7254,
      "entsch": 7255,
      "verd": 7256,
      "verst": 7257,
      "verär": 7258,
      "verlegt": 7259,
      "Handgel": 7260,
      "##ranz": 7261,
      "##booten": 7262,
      "##boote": 7263,
      "Spielmann": 7264,
      "Spielzeugen": 7265,
      "Spielzeuge": 7266,
      "untergeht": 7267,
      "##immten": 7268,
      "Kom": 7269,
      "##anzeige": 7270,
      "kleinere": 7271,
      "##igten": 7272,
      "##igol": 7273,
      "##twerk": 7274,
      "##aufel": 7275,
      "##aufführung": 7276,
      "Blond": 7277,
      "heran": 7278,
      "herein": 7279,
      "stud": 7280,
      "Skat": 7281,
      "Fußweg": 7282,
      "##lären": 7283,
      "gekü": 7284,
      "erzä": 7285,
      "erreicht": 7286,
      "Kamin": 7287,
      "versehen": 7288,
      "##boarden": 7289,
      "Strandpromenade": 7290,
      "##ettel": 7291,
      "rothaarigen": 7292,
      "##zenerie": 7293,
      "##bligen": 7294,
      "##blumen": 7295,
      "Schwanz": 7296,
      "Spü": 7297,
      "Spar": 7298,
      "Spag": 7299,
      "hochhält": 7300,
      "hochspringt": 7301,
      "Tische": 7302,
      "Tischdecke": 7303,
      "Tischtennis": 7304,
      "Flanell": 7305,
      "##agiert": 7306,
      "Fußballteams": 7307,
      "##stücks": 7308,
      "Gitarrespiel": 7309,
      "##artik": 7310,
      "##sstudio": 7311,
      "##inkante": 7312,
      "beför": 7313,
      "Straßenbahn": 7314,
      "Straßenmarkt": 7315,
      "##leger": 7316,
      "leb": 7317,
      "Geste": 7318,
      "Gesichter": 7319,
      "Sandskulptur": 7320,
      "Motorboot": 7321,
      "abgesch": 7322,
      "##splatz": 7323,
      "##spassage": 7324,
      "fahrenden": 7325,
      "befindlichen": 7326,
      "Inhalt": 7327,
      "Skateboardpark": 7328,
      "Gehwegs": 7329,
      "Arbeiten": 7330,
      "hellblau": 7331,
      "hellgelben": 7332,
      "Schwimmwesten": 7333,
      "##deckten": 7334,
      "Holztisch": 7335,
      "Holzplat": 7336,
      "wiegt": 7337,
      "##absperr": 7338,
      "##offer": 7339,
      "Baums": 7340,
      "Baseballkleidung": 7341,
      "Reise": 7342,
      "Bürste": 7343,
      "Med": 7344,
      "Mex": 7345,
      "Pfannen": 7346,
      "##ford": 7347,
      "##imate": 7348,
      "Aufschlag": 7349,
      "Aufmerksam": 7350,
      "Radrennfahrer": 7351,
      "Seatt": 7352,
      "Motorradfahrern": 7353,
      "haltend": 7354,
      "Schloss": 7355,
      "##schaftlich": 7356,
      "dreiköpfige": 7357,
      "Tennisschuhen": 7358,
      "Bergg": 7359,
      "Musikern": 7360,
      "##üllte": 7361,
      "gelbbrauner": 7362,
      "sport": 7363,
      "spült": 7364,
      "Armband": 7365,
      "verkleideter": 7366,
      "##esteckt": 7367,
      "Spritz": 7368,
      "Rummel": 7369,
      "Eisbahn": 7370,
      "Eislaufen": 7371,
      "Mikrofone": 7372,
      "Mikrofonen": 7373,
      "Polo": 7374,
      "Poloshirt": 7375,
      "Blumenstrauß": 7376,
      "Bedien": 7377,
      "##ückten": 7378,
      "Rollk": 7379,
      "Rollern": 7380,
      "Badekleidung": 7381,
      "##aha": 7382,
      "##steinkante": 7383,
      "Vorles": 7384,
      "Karnev": 7385,
      "Maulkörben": 7386,
      "Polizeibe": 7387,
      "##ränk": 7388,
      "kostüm": 7389,
      "kommun": 7390,
      "nav": 7391,
      "Bron": 7392,
      "Metallzaun": 7393,
      "geschn": 7394,
      "Umhän": 7395,
      "Umhängen": 7396,
      "##essor": 7397,
      "Seilspringen": 7398,
      "knie": 7399,
      "##ässer": 7400,
      "Schnell": 7401,
      "Schnull": 7402,
      "gefl": 7403,
      "Ausschau": 7404,
      "Auswahl": 7405,
      "##skuchen": 7406,
      "Landkarte": 7407,
      "pinken": 7408,
      "pinkfarbene": 7409,
      "Einkaufspassage": 7410,
      "Betonbank": 7411,
      "freut": 7412,
      "gemüt": 7413,
      "Promenade": 7414,
      "Schauspieler": 7415,
      "Gemein": 7416,
      "teilnimmt": 7417,
      "Cowgirl": 7418,
      "geradeaus": 7419,
      "Toten": 7420,
      "offener": 7421,
      "##hörern": 7422,
      "Autositz": 7423,
      "Bikinis": 7424,
      "##klasse": 7425,
      "Teenagerin": 7426,
      "Wanderweg": 7427,
      "Kampfkunst": 7428,
      "Wettlauf": 7429,
      "Mülltüte": 7430,
      "Schale": 7431,
      "##gesicht": 7432,
      "liegende": 7433,
      "hellbraune": 7434,
      "hellbraunem": 7435,
      "schmettert": 7436,
      "##hüte": 7437,
      "##hüten": 7438,
      "besuchen": 7439,
      "##rone": 7440,
      "Fußgängerbrücke": 7441,
      "Weihnachten": 7442,
      "nichts": 7443,
      "Stücke": 7444,
      "Busch": 7445,
      "Bulle": 7446,
      "Chir": 7447,
      "Chines": 7448,
      "Nachtclub": 7449,
      "Saal": 7450,
      "farbenfroh": 7451,
      "surfen": 7452,
      "Gebir": 7453,
      "nacktes": 7454,
      "ausgestopf": 7455,
      "Bikinioberteil": 7456,
      "##köpfigen": 7457,
      "bricht": 7458,
      "Hochzeitskleidung": 7459,
      "Hochzeitstorte": 7460,
      "balgen": 7461,
      "Anzeige": 7462,
      "jüngeres": 7463,
      "Kathedra": 7464,
      "Wohnung": 7465,
      "##schlacht": 7466,
      "##schlange": 7467,
      "durchsucht": 7468,
      "Tänzerinnen": 7469,
      "Schülerin": 7470,
      "Werkzeugen": 7471,
      "wäre": 7472,
      "wählt": 7473,
      "##mädchen": 7474,
      "##ratze": 7475,
      "decken": 7476,
      "##handschuhen": 7477,
      "gegenüberliegenden": 7478,
      "Fernrohr": 7479,
      "Kirchen": 7480,
      "irgendwo": 7481,
      "irgendetwas": 7482,
      "Steg": 7483,
      "##bike": 7484,
      "Fußballspielen": 7485,
      "trommelt": 7486,
      "trocknet": 7487,
      "##farbigen": 7488,
      "einzufangen": 7489,
      "glückliches": 7490,
      "Schaufeln": 7491,
      "Golfplatz": 7492,
      "chinesischer": 7493,
      "Griff": 7494,
      "verfolgen": 7495,
      "schmutziges": 7496,
      "Ord": 7497,
      "erwachsenen": 7498,
      "Begleiter": 7499,
      "obwohl": 7500,
      "Schaufensterfront": 7501,
      "Wüsten": 7502,
      "##produ": 7503,
      "Kopftü": 7504,
      "kompliz": 7505,
      "wunderschön": 7506,
      "##ohmarkt": 7507,
      "Hindernisparcours": 7508,
      "Liebl": 7509,
      "Zähnen": 7510,
      "weinendes": 7511,
      "Meeresfrü": 7512,
      "Karateanzug": 7513,
      "Karateanzügen": 7514,
      "Kek": 7515,
      "ruhigem": 7516,
      "Bullenreiter": 7517,
      "Badmin": 7518,
      "Seitenlinie": 7519,
      "Terrier": 7520,
      "wurden": 7521,
      "geschäftige": 7522,
      "Softballspiel": 7523,
      "##gegenstand": 7524,
      "Käse": 7525,
      "Kämpfer": 7526,
      "bestellt": 7527,
      "##ica": 7528,
      "vorübergehen": 7529,
      "farbige": 7530,
      "buntem": 7531,
      "buntes": 7532,
      "Paket": 7533,
      "Trinken": 7534,
      "plant": 7535,
      "bedeckter": 7536,
      "Gewehren": 7537,
      "##stehenden": 7538,
      "fröhliches": 7539,
      "goldfarbenen": 7540,
      "pflückt": 7541,
      "##oberfläche": 7542,
      "Taucheranzug": 7543,
      "Bordsteinkante": 7544,
      "Dunkeln": 7545,
      "Kabeln": 7546,
      "Montur": 7547,
      "##saft": 7548,
      "##untry": 7549,
      "unterschiedlicher": 7550,
      "gerichtet": 7551,
      "abgedunkelten": 7552,
      "Professor": 7553,
      "verlassenen": 7554,
      "Besuch": 7555,
      "Notizen": 7556,
      "tätowierter": 7557,
      "Schiffs": 7558,
      "Spazierstock": 7559,
      "begutachten": 7560,
      "Früh": 7561,
      "Hänge": 7562,
      "Joggen": 7563,
      "Matro": 7564,
      "Pitch": 7565,
      "füttern": 7566,
      "entgegenges": 7567,
      "Weihnachtsmannkostüm": 7568,
      "Videospiele": 7569,
      "Freizeitkleidung": 7570,
      "mehrfarbige": 7571,
      "kaukas": 7572,
      "##ymb": 7573,
      "##gestellte": 7574,
      "Krankenhausbett": 7575,
      "Gürteln": 7576,
      "Körbe": 7577,
      "Warnwesten": 7578,
      "bohrt": 7579,
      "Essenswagen": 7580,
      "Fingernä": 7581,
      "Modellflugzeug": 7582,
      "Doppel": 7583,
      "nackte": 7584,
      "nackter": 7585,
      "nackten": 7586,
      "##halm": 7587,
      "Batik": 7588,
      "Lippenstift": 7589,
      "Pinata": 7590,
      "org": 7591,
      "servieren": 7592,
      "angelein": 7593,
      "##riebenen": 7594,
      "Klappstühlen": 7595,
      "Schotterweg": 7596,
      "Schotterstraße": 7597,
      "Garagen": 7598,
      "Limon": 7599,
      "Limous": 7600,
      "Rückwärtss": 7601,
      "armen": 7602,
      "##ultur": 7603,
      "##wettbewerb": 7604,
      "Streich": 7605,
      "dekorierten": 7606,
      "geöffnetem": 7607,
      "akrobat": 7608,
      "befahrene": 7609,
      "hochgehoben": 7610,
      "Saiteninstrument": 7611,
      "schlendern": 7612,
      "Khakihose": 7613,
      "Miami": 7614,
      "Minigol": 7615,
      "Punkten": 7616,
      "Sackhüpfen": 7617,
      "inspizieren": 7618,
      "inspiziert": 7619,
      "schwarzweißer": 7620,
      "uniformierte": 7621,
      "probieren": 7622,
      "Hotdogs": 7623,
      "türkisfarbenen": 7624,
      "Fitness": 7625,
      "Pyram": 7626,
      "qual": 7627,
      "rauchend": 7628,
      "##blätter": 7629,
      "##blättern": 7630,
      "Schweiß": 7631,
      "erwischt": 7632,
      "Durchgang": 7633,
      "Bandmitglieder": 7634,
      "Bahngleisen": 7635,
      "Eiswaffeln": 7636,
      "Bulldo": 7637,
      "marineblauen": 7638,
      "geschminkten": 7639,
      "Möbelstück": 7640,
      "gehüllt": 7641,
      "##bereitung": 7642,
      "Zuckerwatte": 7643,
      "Beamte": 7644,
      "Krankenschwestern": 7645,
      "Liegestühlen": 7646,
      "Hörsaal": 7647,
      "kunstvollen": 7648,
      "olymp": 7649,
      "tiefen": 7650,
      "wenig": 7651,
      "##party": 7652,
      "##uffet": 7653,
      "##pflegten": 7654,
      "Schaulustige": 7655,
      "Obdachloser": 7656,
      "Schmetterling": 7657,
      "Küchentresen": 7658,
      "Aquarium": 7659,
      "außen": 7660,
      "lohfarbener": 7661,
      "parken": 7662,
      "platziert": 7663,
      "##crew": 7664,
      "##fältig": 7665,
      "strickt": 7666,
      "Schwertern": 7667,
      "Textnach": 7668,
      "Schwimmflügeln": 7669,
      "Hüpfburg": 7670,
      "umgedre": 7671,
      "gesenktem": 7672,
      "ärmellosem": 7673,
      "Speisekarte": 7674,
      "akustische": 7675,
      "modernen": 7676,
      "Thema": 7677,
      "essend": 7678,
      "mensch": 7679,
      "prächt": 7680,
      "##baby": 7681,
      "##ailing": 7682,
      "##position": 7683,
      "##arinette": 7684,
      "blühenden": 7685,
      "regenbogen": 7686,
      "beteiligt": 7687,
      "Dekorationen": 7688,
      "Konfetti": 7689,
      "Betonplatte": 7690,
      "Parasailing": 7691,
      "dekorativen": 7692,
      "Amboss": 7693,
      "Stabhochsprung": 7694,
      "Tempel": 7695,
      "fasziniert": 7696,
      "Magaz": 7697,
      "Salat": 7698,
      "Wäsch": 7699,
      "##outfit": 7700,
      "##kröte": 7701,
      "Sooners": 7702,
      "Schnorchel": 7703,
      "Leoparden": 7704,
      "verwirrt": 7705,
      "Bücherregal": 7706,
      "Industrie": 7707,
      "Indianer": 7708,
      "Filzhut": 7709,
      "aufgeblasenen": 7710,
      "Hawaii": 7711,
      "Fitnessstudio": 7712,
      "Pyjama": 7713,
      "Senioren": 7714,
      "abgesperrten": 7715,
      "Popcorn": 7716,
      "Digitalkamera": 7717,
      "Nadelstreifen": 7718,
      "Kopfsteinpflasterstraße": 7719,
      "Bleistift": 7720,
      "Empfang": 7721,
      "Kiefern": 7722,
      "Milch": 7723,
      "Rallye": 7724,
      "Trenchco": 7725,
      "Ultimate": 7726,
      "Wunderk": 7727,
      "eventuell": 7728,
      "kontroll": 7729,
      "seitlich": 7730,
      "sorgfältig": 7731,
      "zeichnen": 7732,
      "##bunten": 7733,
      "intensiv": 7734,
      "##indestens": 7735,
      "beaufsicht": 7736,
      "unaufgeräumten": 7737,
      "Wasserfont": 7738,
      "verärgert": 7739,
      "Spielmannszug": 7740,
      "studiert": 7741,
      "Aufmerksamkeit": 7742,
      "Seattle": 7743,
      "Vorlesung": 7744,
      "Polizeibeam": 7745,
      "Umhänget": 7746,
      "Schnuller": 7747,
      "Kathedrale": 7748,
      "Badminton": 7749,
      "Limousine": 7750,
      "Pyramide": 7751,
      "Trenchcoat": 7752,
      ".“": 7753,
      "12": 7754,
      "Acker": 7755,
      "Bö": 7756,
      "Butter": 7757,
      "Beim": 7758,
      "Cro": 7759,
      "Cap": 7760,
      "Cock": 7761,
      "Don": 7762,
      "Dir": 7763,
      "Drä": 7764,
      "Dirt": 7765,
      "Dart": 7766,
      "Dog": 7767,
      "Denkmal": 7768,
      "Eur": 7769,
      "Fund": 7770,
      "Fast": 7771,
      "Front": 7772,
      "Faust": 7773,
      "Gott": 7774,
      "Geiger": 7775,
      "Gäste": 7776,
      "Hüt": 7777,
      "Hart": 7778,
      "Haust": 7779,
      "Harfe": 7780,
      "Haupt": 7781,
      "Is": 7782,
      "Kal": 7783,
      "Kre": 7784,
      "Kirm": 7785,
      "Kutsche": 7786,
      "Kurs": 7787,
      "Krug": 7788,
      "Li": 7789,
      "Lachen": 7790,
      "Lob": 7791,
      "Lichtern": 7792,
      "Läufern": 7793,
      "Ladung": 7794,
      "Misch": 7795,
      "Mast": 7796,
      "Make": 7797,
      "Motiv": 7798,
      "Messe": 7799,
      "Masken": 7800,
      "Material": 7801,
      "Maskottchen": 7802,
      "Nasen": 7803,
      "Prei": 7804,
      "Pend": 7805,
      "Prü": 7806,
      "Pack": 7807,
      "Pian": 7808,
      "Ret": 7809,
      "Rod": 7810,
      "Runde": 7811,
      "Rampen": 7812,
      "Riesen": 7813,
      "Sö": 7814,
      "Sam": 7815,
      "Sol": 7816,
      "Sumpf": 7817,
      "Symb": 7818,
      "Tun": 7819,
      "Trä": 7820,
      "Tab": 7821,
      "Tritt": 7822,
      "Tellern": 7823,
      "Veg": 7824,
      "Vieh": 7825,
      "Wür": 7826,
      "Wort": 7827,
      "Wangen": 7828,
      "Wäl": 7829,
      "Wash": 7830,
      "Zom": 7831,
      "Zehen": 7832,
      "Zauber": 7833,
      "app": 7834,
      "arab": 7835,
      "bumm": 7836,
      "brät": 7837,
      "di": 7838,
      "deu": 7839,
      "dicker": 7840,
      "funktion": 7841,
      "gl": 7842,
      "gä": 7843,
      "gesteckt": 7844,
      "hand": 7845,
      "hal": 7846,
      "harten": 7847,
      "jüd": 7848,
      "kalt": 7849,
      "künst": 7850,
      "künstler": 7851,
      "kosten": 7852,
      "lok": 7853,
      "lenkt": 7854,
      "lehrt": 7855,
      "letzten": 7856,
      "mat": 7857,
      "merk": 7858,
      "metall": 7859,
      "maler": 7860,
      "misst": 7861,
      "mindestens": 7862,
      "nasse": 7863,
      "nippt": 7864,
      "oper": 7865,
      "per": 7866,
      "packen": 7867,
      "rang": 7868,
      "röt": 7869,
      "sa": 7870,
      "san": 7871,
      "sumpf": 7872,
      "synchron": 7873,
      "tau": 7874,
      "up": 7875,
      "we": 7876,
      "waten": 7877,
      "winken": 7878,
      "wadet": 7879,
      "winz": 7880,
      "zuf": 7881,
      "zerk": 7882,
      "zerb": 7883,
      "Übungen": 7884,
      "##lers": 7885,
      "##lungen": 7886,
      "##lingen": 7887,
      "##eckt": 7888,
      "##ib": 7889,
      "##ix": 7890,
      "##iat": 7891,
      "##ios": 7892,
      "##iqu": 7893,
      "##nte": 7894,
      "##bon": 7895,
      "##bas": 7896,
      "##biet": 7897,
      "##affen": 7898,
      "##appen": 7899,
      "##uen": 7900,
      "##uteten": 7901,
      "##rer": 7902,
      "##ringen": 7903,
      "##rasse": 7904,
      "##runken": 7905,
      "##pa": 7906,
      "##pit": 7907,
      "##pern": 7908,
      "##piste": 7909,
      "##pierc": 7910,
      "##zie": 7911,
      "##zchen": 7912,
      "##zieht": 7913,
      "##zahl": 7914,
      "##zettel": 7915,
      "##th": 7916,
      "##tem": 7917,
      "##tack": 7918,
      "##ses": 7919,
      "##sein": 7920,
      "##sitz": 7921,
      "##sänger": 7922,
      "##sgeschäft": 7923,
      "##ms": 7924,
      "##met": 7925,
      "##mischer": 7926,
      "##masten": 7927,
      "##mitte": 7928,
      "##gar": 7929,
      "##gür": 7930,
      "##grill": 7931,
      "##gumm": 7932,
      "##gläser": 7933,
      "##gäste": 7934,
      "##our": 7935,
      "##oos": 7936,
      "##oke": 7937,
      "##kart": 7938,
      "##kissen": 7939,
      "##kiste": 7940,
      "##deln": 7941,
      "##digt": 7942,
      "##drückt": 7943,
      "##ham": 7944,
      "##helmen": 7945,
      "##haf": 7946,
      "##cap": 7947,
      "##völ": 7948,
      "##fchen": 7949,
      "##für": 7950,
      "##fris": 7951,
      "##führen": 7952,
      "##fleisch": 7953,
      "##fälle": 7954,
      "##fpipe": 7955,
      "##üsten": 7956,
      "##ühlt": 7957,
      "##ächt": 7958,
      "##wt": 7959,
      "##ware": 7960,
      "##ös": 7961,
      "##junge": 7962,
      "##jagt": 7963,
      "##0er": 7964,
      "##Bob": 7965,
      "##inamerikan": 7966,
      "##erung": 7967,
      "##ernen": 7968,
      "einsch": 7969,
      "##chan": 7970,
      "Einfahrt": 7971,
      "##itiert": 7972,
      "##anas": 7973,
      "##elie": 7974,
      "##eleine": 7975,
      "inner": 7976,
      "inform": 7977,
      "auft": 7978,
      "##ars": 7979,
      "##ieft": 7980,
      "##iegend": 7981,
      "##unner": 7982,
      "##onge": 7983,
      "##schlä": 7984,
      "##schle": 7985,
      "##schale": 7986,
      "##orb": 7987,
      "##stas": 7988,
      "##start": 7989,
      "##steigt": 7990,
      "##streckt": 7991,
      "##stöcke": 7992,
      "schu": 7993,
      "schrä": 7994,
      "##icher": 7995,
      "Stach": 7996,
      "Städt": 7997,
      "Stoß": 7998,
      "Sturz": 7999,
      "anger": 8000,
      "angest": 8001,
      "antik": 8002,
      "anschein": 8003,
      "angu": 8004,
      "anschauen": 8005,
      "Sche": 8006,
      "School": 8007,
      "Schanze": 8008,
      "##etch": 8009,
      "##gep": 8010,
      "zueinander": 8011,
      "zuzu": 8012,
      "zupft": 8013,
      "zugeht": 8014,
      "zuhören": 8015,
      "gebogen": 8016,
      "geholfen": 8017,
      "gejagt": 8018,
      "stecken": 8019,
      "##ersitz": 8020,
      "##ierigkeiten": 8021,
      "##reich": 8022,
      "sitzend": 8023,
      "sitzendes": 8024,
      "vorbereiten": 8025,
      "##ames": 8026,
      "##ament": 8027,
      "klar": 8028,
      "klass": 8029,
      "##ota": 8030,
      "##attwerk": 8031,
      "##ure": 8032,
      "Straf": 8033,
      "demon": 8034,
      "##eugen": 8035,
      "##utlich": 8036,
      "##ruh": 8037,
      "##osn": 8038,
      "blaugrünen": 8039,
      "blaugrün": 8040,
      "##riot": 8041,
      "##nteil": 8042,
      "##nete": 8043,
      "überkreuz": 8044,
      "##räd": 8045,
      "##ilf": 8046,
      "##ilde": 8047,
      "rollen": 8048,
      "ausget": 8049,
      "##olpert": 8050,
      "##ckepack": 8051,
      "##anges": 8052,
      "##mmeln": 8053,
      "##ellauf": 8054,
      "##iko": 8055,
      "##ikatur": 8056,
      "##ehrs": 8057,
      "beenden": 8058,
      "bevöl": 8059,
      "umkl": 8060,
      "##ington": 8061,
      "##adem": 8062,
      "Wasserfahrzeug": 8063,
      "Wasserlauf": 8064,
      "##isierten": 8065,
      "##äuchen": 8066,
      "weißhaariger": 8067,
      "##ktem": 8068,
      "verdien": 8069,
      "vereisten": 8070,
      "verdunkelten": 8071,
      "verteilen": 8072,
      "Handtü": 8073,
      "Kindergruppe": 8074,
      "##boter": 8075,
      "##book": 8076,
      "Spielzeu": 8077,
      "Spielzug": 8078,
      "Oberhemd": 8079,
      "Boogie": 8080,
      "Kop": 8081,
      "Kond": 8082,
      "Kollegen": 8083,
      "entlanggehen": 8084,
      "zweiter": 8085,
      "zweiten": 8086,
      "Bahnen": 8087,
      "##teiligen": 8088,
      "##igung": 8089,
      "##igner": 8090,
      "##aufgaben": 8091,
      "Blattwerk": 8092,
      "stützt": 8093,
      "stämm": 8094,
      "stolpert": 8095,
      "Fahrradreifen": 8096,
      "Skige": 8097,
      "Skist": 8098,
      "Fußboden": 8099,
      "Fußtritt": 8100,
      "##läufern": 8101,
      "Ballbes": 8102,
      "##fahrzeuge": 8103,
      "##gress": 8104,
      "##umor": 8105,
      "##umgebung": 8106,
      "erf": 8107,
      "erhalten": 8108,
      "Freiheit": 8109,
      "Bauer": 8110,
      "##ängen": 8111,
      "dafür": 8112,
      "##blöcke": 8113,
      "Schwein": 8114,
      "Schwamm": 8115,
      "Schwester": 8116,
      "Schwierigkeiten": 8117,
      "Spur": 8118,
      "Spider": 8119,
      "Sprache": 8120,
      "Sponge": 8121,
      "vorbeifahren": 8122,
      "hochklettert": 8123,
      "Haarschnitt": 8124,
      "##latten": 8125,
      "Fle": 8126,
      "Flohmarkt": 8127,
      "##agg": 8128,
      "Büsche": 8129,
      "Büchern": 8130,
      "Klarinette": 8131,
      "Anlage": 8132,
      "Ansammlung": 8133,
      "Schneehaufen": 8134,
      "##ingham": 8135,
      "Arch": 8136,
      "Artik": 8137,
      "Parks": 8138,
      "##ammung": 8139,
      "##uchten": 8140,
      "beruh": 8141,
      "##sstatue": 8142,
      "##eigung": 8143,
      "##eignis": 8144,
      "befragt": 8145,
      "grauhaarige": 8146,
      "grauhaariger": 8147,
      "Stadtplatz": 8148,
      "Straßencafé": 8149,
      "Straßenlater": 8150,
      "leere": 8151,
      "Autor": 8152,
      "blondhaarige": 8153,
      "blondhaariges": 8154,
      "abgel": 8155,
      "gestützt": 8156,
      "unterhalb": 8157,
      "Informationen": 8158,
      "Skateboardrampe": 8159,
      "Skateboardtrick": 8160,
      "reagieren": 8161,
      "##lastwagen": 8162,
      "Babyschaukel": 8163,
      "Schwimmerin": 8164,
      "Holzstuhl": 8165,
      "Holzboot": 8166,
      "Repor": 8167,
      "betritt": 8168,
      "betrunken": 8169,
      "Reisen": 8170,
      "vollständ": 8171,
      "Meter": 8172,
      "Mehl": 8173,
      "Pfoten": 8174,
      "Kleinigkeit": 8175,
      "Kleinstadt": 8176,
      "##gebot": 8177,
      "##gebrücke": 8178,
      "Aufgabe": 8179,
      "Aufwärmen": 8180,
      "Radio": 8181,
      "Motorradrennen": 8182,
      "Zuhörer": 8183,
      "Tennisspielen": 8184,
      "Berghang": 8185,
      "Bergsteigen": 8186,
      "werd": 8187,
      "##ätte": 8188,
      "##ätzen": 8189,
      "Gewicht": 8190,
      "Kunstausstellung": 8191,
      "Restaurantküche": 8192,
      "##akes": 8193,
      "verkehrt": 8194,
      "verkehrs": 8195,
      "Ruinen": 8196,
      "##angefarbenen": 8197,
      "##angehöri": 8198,
      "großem": 8199,
      "Fensterputzer": 8200,
      "Blumenwiese": 8201,
      "dunkelhaariges": 8202,
      "Rollstühlen": 8203,
      "Geschäftsmann": 8204,
      "##pullover": 8205,
      "Vordach": 8206,
      "##auftritt": 8207,
      "Sportplatz": 8208,
      "Karikatur": 8209,
      "Schutzwesten": 8210,
      "##azz": 8211,
      "springenden": 8212,
      "Rucksäcke": 8213,
      "Brief": 8214,
      "Metallgegenstand": 8215,
      "geschoben": 8216,
      "geschossen": 8217,
      "Surfen": 8218,
      "##istolen": 8219,
      "##ummel": 8220,
      "Seilschaukel": 8221,
      "umgeki": 8222,
      "##attra": 8223,
      "kni": 8224,
      "Auszeichnung": 8225,
      "Marktstand": 8226,
      "##ski": 8227,
      "Kongress": 8228,
      "gespritzt": 8229,
      "gesichert": 8230,
      "Rennbahn": 8231,
      "##iedhof": 8232,
      "Roboter": 8233,
      "rust": 8234,
      "Gegenspieler": 8235,
      "Betonrampe": 8236,
      "gemisch": 8237,
      "gemalt": 8238,
      "##ärtner": 8239,
      "Halfpipe": 8240,
      "Prop": 8241,
      "##uldig": 8242,
      "##fluteten": 8243,
      "Comic": 8244,
      "Toreinfahrt": 8245,
      "Schwarze": 8246,
      "jemandes": 8247,
      "##ünstlern": 8248,
      "gute": 8249,
      "Lehm": 8250,
      "Unterricht": 8251,
      "Abdeck": 8252,
      "Abhang": 8253,
      "Abschluss": 8254,
      "Juwel": 8255,
      "Türeingang": 8256,
      "Felsblock": 8257,
      "vierköpfige": 8258,
      "##werkzeug": 8259,
      "Neon": 8260,
      "Schalter": 8261,
      "Spielplatzgerät": 8262,
      "##geschen": 8263,
      "##gesellschaft": 8264,
      "Halsketten": 8265,
      "Kanal": 8266,
      "Zigaretten": 8267,
      "Wintermantel": 8268,
      "neong": 8269,
      "nebligen": 8270,
      "Freundes": 8271,
      "Freundinnen": 8272,
      "Country": 8273,
      "Krab": 8274,
      "Braun": 8275,
      "##hauses": 8276,
      "näher": 8277,
      "gewonnen": 8278,
      "Korrid": 8279,
      "##afft": 8280,
      "Uferweg": 8281,
      "##linge": 8282,
      "Grills": 8283,
      "Kniest": 8284,
      "Kerze": 8285,
      "Saft": 8286,
      "Gartenstuhl": 8287,
      "##turm": 8288,
      "##turnier": 8289,
      "farbenfrohe": 8290,
      "Partner": 8291,
      "Obama": 8292,
      "manöv": 8293,
      "##schneiden": 8294,
      "##drucken": 8295,
      "##vorstellung": 8296,
      "Seife": 8297,
      "Vaters": 8298,
      "##geschoben": 8299,
      "Schminke": 8300,
      "Brunnens": 8301,
      "Polizistin": 8302,
      "Klettern": 8303,
      "Kletterwand": 8304,
      "##kappen": 8305,
      "gebück": 8306,
      "##reckter": 8307,
      "schreiendes": 8308,
      "Warenkorb": 8309,
      "durchsicht": 8310,
      "traditionell": 8311,
      "##treten": 8312,
      "##schwarm": 8313,
      "Ledermantel": 8314,
      "Golden": 8315,
      "##mänteln": 8316,
      "verliert": 8317,
      "verletzt": 8318,
      "verloren": 8319,
      "Marathonlauf": 8320,
      "deckt": 8321,
      "##handwerk": 8322,
      "##instrumenten": 8323,
      "Huckepack": 8324,
      "##ächlich": 8325,
      "irgendwel": 8326,
      "Backsteinwand": 8327,
      "Steak": 8328,
      "Steuer": 8329,
      "getrock": 8330,
      "einzig": 8331,
      "Drag": 8332,
      "neugeboren": 8333,
      "neugeborenes": 8334,
      "##schildern": 8335,
      "schwimmenden": 8336,
      "eingepackt": 8337,
      "Golfspieler": 8338,
      "Jahre": 8339,
      "probt": 8340,
      "schmutzige": 8341,
      "Weihnachtsgeschen": 8342,
      "Lastwagens": 8343,
      "obdach": 8344,
      "##voller": 8345,
      "Schaufenstern": 8346,
      "geschmückten": 8347,
      "Objektiv": 8348,
      "Federn": 8349,
      "##üsse": 8350,
      "Verkaufs": 8351,
      "Weingläsern": 8352,
      "felsige": 8353,
      "heißt": 8354,
      "Balkonen": 8355,
      "Außenseite": 8356,
      "Als": 8357,
      "Alte": 8358,
      "Militärs": 8359,
      "enge": 8360,
      "##bündel": 8361,
      "##grüner": 8362,
      "Schädel": 8363,
      "befestigen": 8364,
      "Eishockeyspiel": 8365,
      "Day": 8366,
      "steinernen": 8367,
      "Erdboden": 8368,
      "Head": 8369,
      "Hebe": 8370,
      "Paint": 8371,
      "Truth": 8372,
      "##selben": 8373,
      "Blätterhaufen": 8374,
      "streicheln": 8375,
      "einzelne": 8376,
      "vornüber": 8377,
      "schlafenden": 8378,
      "schlafender": 8379,
      "barfüßiges": 8380,
      "unterschiedliche": 8381,
      "Exp": 8382,
      "fertigen": 8383,
      "fertigt": 8384,
      "Flieger": 8385,
      "verlassene": 8386,
      "Plakatwand": 8387,
      "Afroamerikanerin": 8388,
      "attack": 8389,
      "##zufangen": 8390,
      "Schotten": 8391,
      "verzieht": 8392,
      "Friedhof": 8393,
      "Hängebrücke": 8394,
      "Lehrerin": 8395,
      "Matratze": 8396,
      "##holen": 8397,
      "##stattung": 8398,
      "Skulpturen": 8399,
      "Bekleidungsgeschäft": 8400,
      "Hochzeitsfeier": 8401,
      "Hochzeitsgesellschaft": 8402,
      "Elternteil": 8403,
      "Hafengebiet": 8404,
      "stattf": 8405,
      "Werkzeuggür": 8406,
      "klatschen": 8407,
      "bewundern": 8408,
      "Inlineskater": 8409,
      "Athlet": 8410,
      "grins": 8411,
      "halbw": 8412,
      "gedrängt": 8413,
      "gesprei": 8414,
      "Löwen": 8415,
      "Tüte": 8416,
      "##ähnliches": 8417,
      "stöbern": 8418,
      "Freiluftmarkt": 8419,
      "Bauernhof": 8420,
      "beladenen": 8421,
      "flauschigen": 8422,
      "selbstgeb": 8423,
      "ord": 8424,
      "Balletttänzer": 8425,
      "Kamelen": 8426,
      "Konferenzt": 8427,
      "Wasserskifahrer": 8428,
      "Superman": 8429,
      "Heißluftballons": 8430,
      "Operationssaal": 8431,
      "Diadem": 8432,
      "Mais": 8433,
      "dünne": 8434,
      "deutsche": 8435,
      "Absperrband": 8436,
      "Orangensaft": 8437,
      "Afrikanische": 8438,
      "Langarm": 8439,
      "##mpfe": 8440,
      "##chniker": 8441,
      "anzuziehen": 8442,
      "Angriff": 8443,
      "erleuchtet": 8444,
      "Fackeln": 8445,
      "Mix": 8446,
      "zugewandt": 8447,
      "schwarzweißen": 8448,
      "ausgestrecktem": 8449,
      "Patient": 8450,
      "Plane": 8451,
      "Sari": 8452,
      "sortieren": 8453,
      "Älterer": 8454,
      "##figuren": 8455,
      "##wirft": 8456,
      "spanischer": 8457,
      "Japaner": 8458,
      "Ponch": 8459,
      "Regal": 8460,
      "bräunlicher": 8461,
      "drängen": 8462,
      "poliert": 8463,
      "politischen": 8464,
      "##bude": 8465,
      "Schusswaffe": 8466,
      "herrlichen": 8467,
      "Fliesenboden": 8468,
      "Eiswaffel": 8469,
      "Kragenhemd": 8470,
      "flaches": 8471,
      "interessanten": 8472,
      "Wassermelone": 8473,
      "traurig": 8474,
      "##pflanzen": 8475,
      "vermutlich": 8476,
      "##fertigen": 8477,
      "##ließlich": 8478,
      "knallbunten": 8479,
      "verschiedenfarbigen": 8480,
      "Krankenschwester": 8481,
      "geschminktem": 8482,
      "Rednerpult": 8483,
      "Goal": 8484,
      "Kites": 8485,
      "Lappen": 8486,
      "freund": 8487,
      "rundes": 8488,
      "Ärmel": 8489,
      "Ärmeln": 8490,
      "##würd": 8491,
      "Schaumbad": 8492,
      "zuguckt": 8493,
      "zugucken": 8494,
      "stoßen": 8495,
      "Skilift": 8496,
      "außerdem": 8497,
      "brünettes": 8498,
      "verbundenen": 8499,
      "medizinischen": 8500,
      "Bären": 8501,
      "Design": 8502,
      "Mönch": 8503,
      "Zeichnung": 8504,
      "fechten": 8505,
      "kastanienbraunen": 8506,
      "verbringen": 8507,
      "Pferderennen": 8508,
      "nächtlichen": 8509,
      "Bademantel": 8510,
      "langärmligen": 8511,
      "angemaltem": 8512,
      "Scheinwerferlicht": 8513,
      "unglücklich": 8514,
      "Collie": 8515,
      "Disney": 8516,
      "Endzone": 8517,
      "Nudeln": 8518,
      "Tutu": 8519,
      "bastelt": 8520,
      "kaput": 8521,
      "kanadischen": 8522,
      "lackiert": 8523,
      "räumt": 8524,
      "würden": 8525,
      "##kremp": 8526,
      "##flieger": 8527,
      "einheimischer": 8528,
      "erledigen": 8529,
      "Rollerskates": 8530,
      "Schneemann": 8531,
      "verteidigen": 8532,
      "Transporter": 8533,
      "wetteifern": 8534,
      "Abstammung": 8535,
      "Domino": 8536,
      "Führung": 8537,
      "Kastenwagen": 8538,
      "Lautsprecher": 8539,
      "Nike": 8540,
      "Priester": 8541,
      "Pingu": 8542,
      "Riemen": 8543,
      "Werbe": 8544,
      "Wissenschaftler": 8545,
      "Zitronen": 8546,
      "pustet": 8547,
      "richtig": 8548,
      "##plane": 8549,
      "##wirtschaft": 8550,
      "Männ": 8551,
      "anzugreifen": 8552,
      "beeindrucken": 8553,
      "Kokosn": 8554,
      "erzielen": 8555,
      "##omplex": 8556,
      "Mannschaftskollegen": 8557,
      "Labrador": 8558,
      "interviewt": 8559,
      "Dinosaurier": 8560,
      "erhöhten": 8561,
      "buckelnden": 8562,
      "Eisschnellläufer": 8563,
      "Dessert": 8564,
      "Ebene": 8565,
      "Inneren": 8566,
      "Power": 8567,
      "Tauchausrüstung": 8568,
      "Tintenfisch": 8569,
      "Wheelie": 8570,
      "bettelt": 8571,
      "hechtet": 8572,
      "leidenschaftlich": 8573,
      "einkaufen": 8574,
      "schattigen": 8575,
      "Staffellauf": 8576,
      "##olizist": 8577,
      "bequem": 8578,
      "Handgelenk": 8579,
      "Skates": 8580,
      "erzählt": 8581,
      "Medizin": 8582,
      "Bedienung": 8583,
      "navigiert": 8584,
      "geschnitz": 8585,
      "gemütlich": 8586,
      "Gemeinde": 8587,
      "Kopftüchern": 8588,
      "plantscht": 8589,
      "Matrosen": 8590,
      "Garagentor": 8591,
      "Rückwärtssalto": 8592,
      "Minigolf": 8593,
      "Bulldozer": 8594,
      "olympischen": 8595,
      "Textnachricht": 8596,
      "beaufsichtigt": 8597,
      "Dirigen": 8598,
      "Euro": 8599,
      "Kirmes": 8600,
      "Lobby": 8601,
      "deutet": 8602,
      "funktioniert": 8603,
      "zerbrochen": 8604,
      "##frisur": 8605,
      "einschließlich": 8606,
      "##chaniker": 8607,
      "anscheinend": 8608,
      "überkreuzten": 8609,
      "umklammert": 8610,
      "Skigebiet": 8611,
      "Ballbesitz": 8612,
      "SpongeBob": 8613,
      "Artikel": 8614,
      "Korridor": 8615,
      "Truthahn": 8616,
      "Konferenztisch": 8617,
      "19": 8618,
      "30": 8619,
      "Alt": 8620,
      "Aschen": 8621,
      "Alle": 8622,
      "Affen": 8623,
      "Apart": 8624,
      "Bunge": 8625,
      "But": 8626,
      "Brü": 8627,
      "Besch": 8628,
      "Brün": 8629,
      "Benz": 8630,
      "Buffet": 8631,
      "Cy": 8632,
      "Can": 8633,
      "Cas": 8634,
      "Cal": 8635,
      "Cart": 8636,
      "Chem": 8637,
      "Cone": 8638,
      "Cricket": 8639,
      "Dü": 8640,
      "Dar": 8641,
      "Dingen": 8642,
      "Dok": 8643,
      "Disk": 8644,
      "Eich": 8645,
      "Ehem": 8646,
      "Eiern": 8647,
      "Fein": 8648,
      "Fra": 8649,
      "Fähr": 8650,
      "Fal": 8651,
      "Fru": 8652,
      "Farm": 8653,
      "Funken": 8654,
      "Frank": 8655,
      "Gei": 8656,
      "Grö": 8657,
      "Har": 8658,
      "Hus": 8659,
      "Hir": 8660,
      "Hell": 8661,
      "Holl": 8662,
      "Henn": 8663,
      "Hacken": 8664,
      "Harmonika": 8665,
      "Hispan": 8666,
      "Irgend": 8667,
      "Jump": 8668,
      "Jazz": 8669,
      "Ken": 8670,
      "Kie": 8671,
      "Kro": 8672,
      "Kass": 8673,
      "Krü": 8674,
      "Krä": 8675,
      "Kenn": 8676,
      "Keller": 8677,
      "Käl": 8678,
      "Kronen": 8679,
      "Krücken": 8680,
      "Kios": 8681,
      "Lam": 8682,
      "Lot": 8683,
      "Los": 8684,
      "Lesen": 8685,
      "Lok": 8686,
      "Lama": 8687,
      "Lichter": 8688,
      "Mü": 8689,
      "Mich": 8690,
      "Mehr": 8691,
      "Maus": 8692,
      "Müt": 8693,
      "Mart": 8694,
      "Mak": 8695,
      "Metz": 8696,
      "Mess": 8697,
      "Matten": 8698,
      "Mac": 8699,
      "Mama": 8700,
      "No": 8701,
      "NY": 8702,
      "Nation": 8703,
      "Nacken": 8704,
      "Note": 8705,
      "Nonnen": 8706,
      "Oh": 8707,
      "Ox": 8708,
      "Okla": 8709,
      "Pok": 8710,
      "Ped": 8711,
      "Pokal": 8712,
      "Rent": 8713,
      "Rena": 8714,
      "Rängen": 8715,
      "SU": 8716,
      "Ster": 8717,
      "Som": 8718,
      "Singen": 8719,
      "Sak": 8720,
      "Sco": 8721,
      "Synchron": 8722,
      "Sumor": 8723,
      "Ter": 8724,
      "Tassen": 8725,
      "Tub": 8726,
      "Töpfen": 8727,
      "UN": 8728,
      "Wisch": 8729,
      "Wör": 8730,
      "Yam": 8731,
      "Zügen": 8732,
      "Zeige": 8733,
      "Zoo": 8734,
      "bü": 8735,
      "bauf": 8736,
      "bellen": 8737,
      "bess": 8738,
      "baden": 8739,
      "badet": 8740,
      "budd": 8741,
      "dü": 8742,
      "dick": 8743,
      "ed": 8744,
      "eil": 8745,
      "emp": 8746,
      "eleg": 8747,
      "fall": 8748,
      "fru": 8749,
      "flat": 8750,
      "führ": 8751,
      "franz": 8752,
      "gal": 8753,
      "he": 8754,
      "hier": 8755,
      "haus": 8756,
      "haupt": 8757,
      "ign": 8758,
      "idy": 8759,
      "ident": 8760,
      "ju": 8761,
      "jed": 8762,
      "kor": 8763,
      "krei": 8764,
      "kam": 8765,
      "kos": 8766,
      "kaum": 8767,
      "körper": 8768,
      "kreis": 8769,
      "kalte": 8770,
      "lung": 8771,
      "laub": 8772,
      "live": 8773,
      "letzte": 8774,
      "langer": 8775,
      "mi": 8776,
      "mass": 8777,
      "mech": 8778,
      "mask": 8779,
      "nor": 8780,
      "neigt": 8781,
      "pri": 8782,
      "pracht": 8783,
      "rum": 8784,
      "ragt": 8785,
      "sen": 8786,
      "sei": 8787,
      "sod": 8788,
      "süß": 8789,
      "typ": 8790,
      "täg": 8791,
      "tollen": 8792,
      "toter": 8793,
      "ur": 8794,
      "wach": 8795,
      "wischen": 8796,
      "wild": 8797,
      "wasser": 8798,
      "wegen": 8799,
      "änder": 8800,
      "“,": 8801,
      "##lu": 8802,
      "##liest": 8803,
      "##eo": 8804,
      "##ehnt": 8805,
      "##nä": 8806,
      "##nchen": 8807,
      "##bag": 8808,
      "##bab": 8809,
      "##baut": 8810,
      "##bill": 8811,
      "##busses": 8812,
      "##bkost": 8813,
      "##aj": 8814,
      "##aften": 8815,
      "##aktiv": 8816,
      "##ura": 8817,
      "##ucks": 8818,
      "##ulären": 8819,
      "##rine": 8820,
      "##restaurant": 8821,
      "##ritte": 8822,
      "##pra": 8823,
      "##phen": 8824,
      "##pur": 8825,
      "##pass": 8826,
      "##port": 8827,
      "##pod": 8828,
      "##passt": 8829,
      "##pistolen": 8830,
      "##zü": 8831,
      "##zte": 8832,
      "##zut": 8833,
      "##zlich": 8834,
      "##zimm": 8835,
      "##ziegel": 8836,
      "##zession": 8837,
      "##tunnel": 8838,
      "##ssch": 8839,
      "##sich": 8840,
      "##sgebäude": 8841,
      "##silien": 8842,
      "##sätzen": 8843,
      "##sächlich": 8844,
      "##mer": 8845,
      "##mon": 8846,
      "##mark": 8847,
      "##mast": 8848,
      "##motiv": 8849,
      "##maschinen": 8850,
      "##griff": 8851,
      "##ofen": 8852,
      "##olle": 8853,
      "##ohl": 8854,
      "##ook": 8855,
      "##oamerikan": 8856,
      "##ohren": 8857,
      "##ky": 8858,
      "##kus": 8859,
      "##kol": 8860,
      "##koll": 8861,
      "##kate": 8862,
      "##keiten": 8863,
      "##kisten": 8864,
      "##krie": 8865,
      "##kegel": 8866,
      "##kanne": 8867,
      "##kreis": 8868,
      "##komplex": 8869,
      "##dil": 8870,
      "##durch": 8871,
      "##delt": 8872,
      "##dämmerung": 8873,
[...]
