{
  "version": "1.0",
  "truncation": null,
  "padding": null,
  "added_tokens": [
    {
      "id": 0,
      "content": "[PAD]",
      "single_word": false,
      "lstrip": false,
      "rstrip": false,
      "normalized": false,
      "special": true
    },
    {
      "id": 1,
      "content": "[UNK]",
      "single_word": false,
      "lstrip": false,
      "rstrip": false,
      "normalized": false,
      "special": true
    },
    {
      "id": 2,
      "content": "[BOS]",
      "single_word": false,
      "lstrip": false,
      "rstrip": false,
      "normalized": false,
      "special": true
    },
    {
      "id": 3,
      "content": "[EOS]",
      "single_word": false,
      "lstrip": false,
      "rstrip": false,
      "normalized": false,
      "special": true
    }
  ],
  "normalizer": null,
  "pre_tokenizer": {
    "type": "Whitespace"
  },
  "post_processor": null,
  "decoder": null,
  "model": {
    "type": "WordPiece",
    "unk_token": "[UNK]",
    "continuing_subword_prefix": "##",
    "max_input_chars_per_word": 100,
    "vocab": {
      "[PAD]": 0,
      "[UNK]": 1,
      "[BOS]": 2,
      "[EOS]": 3,
      "!": 4,
      "\"": 5,
      "#": 6,
      "$": 7,
      "%": 8,
      "&": 9,
      "'": 10,
      "(": 11,
      ")": 12,
      ",": 13,
      "-": 14,
      ".": 15,
      "0": 16,
      "1": 17,
      "2": 18,
      "3": 19,
      "4": 20,
      "5": 21,
      "6": 22,
      "7": 23,
      "8": 24,
      "9": 25,
      ":": 26,
      ";": 27,
      "=": 28,
      "?": 29,
      "A": 30,
      "B": 31,
      "C": 32,
      "D": 33,
      "E": 34,
      "F": 35,
      "G": 36,
      "H": 37,
      "I": 38,
      "J": 39,
      "K": 40,
      "L": 41,
      "M": 42,
      "N": 43,
      "O": 44,
      "P": 45,
      "Q": 46,
      "R": 47,
      "S": 48,
      "T": 49,
      "U": 50,
      "V": 51,
      "W": 52,
      "X": 53,
      "Y": 54,
      "Z": 55,
      "`": 56,
      "a": 57,
      "b": 58,
      "c": 59,
      "d": 60,
      "e": 61,
      "f": 62,
      "g": 63,
      "h": 64,
      "i": 65,
      "j": 66,
      "k": 67,
      "l": 68,
      "m": 69,
      "n": 70,
      "o": 71,
      "p": 72,
      "q": 73,
      "r": 74,
      "s": 75,
      "t": 76,
      "u": 77,
      "v": 78,
      "w": 79,
      "x": 80,
      "y": 81,
      "z": 82,
      "##a": 83,
      "##m": 84,
      "##e": 85,
      "##f": 86,
      "##c": 87,
      "##t": 88,
      "##d": 89,
      "##p": 90,
      "##l": 91,
      "##s": 92,
      "##o": 93,
      "##u": 94,
      "##r": 95,
      "##y": 96,
      "##h": 97,
      "##n": 98,
      "##b": 99,
      "##g": 100,
      "##i": 101,
      "##k": 102,
      "##v": 103,
      "##w": 104,
      "##x": 105,
      "##z": 106,
      "##W": 107,
      "##A": 108,
      "##T": 109,
      "##C": 110,
      "##H": 111,
      "##K": 112,
      "##q": 113,
      "##P": 114,
      "##3": 115,
      "##Y": 116,
      "##S": 117,
      "##U": 118,
      "##5": 119,
      "##j": 120,
      "##O": 121,
      "##R": 122,
      "##G": 123,
      "##L": 124,
      "##I": 125,
      "##N": 126,
      "##.": 127,
      "##V": 128,
      "##F": 129,
      "##E": 130,
      "##1": 131,
      "##\"": 132,
      "##B": 133,
      "##8": 134,
      "##2": 135,
      "##9": 136,
      "##0": 137,
      "##`": 138,
      "##7": 139,
      "##4": 140,
      "##M": 141,
      "##D": 142,
      "##X": 143,
      "##J": 144,
      "##6": 145,
      "##,": 146,
      "##Q": 147,
      "##in": 148,
      "##ing": 149,
      "##an": 150,
      "##er": 151,
      "in": 152,
      "##it": 153,
      "##he": 154,
      "##re": 155,
      "##le": 156,
      "the": 157,
      "##ar": 158,
      "##nd": 159,
      "##ro": 160,
      "on": 161,
      "##al": 162,
      "##at": 163,
      "##ir": 164,
      "##en": 165,
      "is": 166,
      "man": 167,
      "of": 168,
      "and": 169,
      "##om": 170,
      "##la": 171,
      "st": 172,
      "##ck": 173,
      "##or": 174,
      "##ith": 175,
      "with": 176,
      "##ed": 177,
      "##ld": 178,
      "##et": 179,
      "##es": 180,
      "##ou": 181,
      "##on": 182,
      "##ow": 183,
      "wom": 184,
      "##id": 185,
      "wh": 186,
      "##op": 187,
      "sh": 188,
      "##is": 189,
      "##oo": 190,
      "##and": 191,
      "##king": 192,
      "##rou": 193,
      "are": 194,
      "to": 195,
      "##wo": 196,
      "##ear": 197,
      "woman": 198,
      "##ss": 199,
      "pla": 200,
      "##ic": 201,
      "##all": 202,
      "at": 203,
      "##ts": 204,
      "##eop": 205,
      "##eople": 206,
      "Two": 207,
      "##ch": 208,
      "play": 209,
      "##ers": 210,
      "##ting": 211,
      "##oun": 212,
      "##irt": 213,
      "##ra": 214,
      "bo": 215,
      "do": 216,
      "wear": 217,
      "##ea": 218,
      "##ll": 219,
      "an": 220,
      "wearing": 221,
      "sit": 222,
      "stand": 223,
      "bl": 224,
      "people": 225,
      "##ide": 226,
      "##ge": 227,
      "shirt": 228,
      "##her": 229,
      "##ild": 230,
      "##oung": 231,
      "##ite": 232,
      "##ile": 233,
      "##gh": 234,
      "ch": 235,
      "ba": 236,
      "white": 237,
      "##irl": 238,
      "##st": 239,
      "young": 240,
      "##ot": 241,
      "wal": 242,
      "##ue": 243,
      "girl": 244,
      "##un": 245,
      "dog": 246,
      "##lack": 247,
      "fro": 248,
      "ou": 249,
      "black": 250,
      "his": 251,
      "boy": 252,
      "##ce": 253,
      "while": 254,
      "##um": 255,
      "ho": 256,
      "wat": 257,
      "blue": 258,
      "th": 259,
      "##ver": 260,
      "red": 261,
      "##ri": 262,
      "grou": 263,
      "##row": 264,
      "sitting": 265,
      "##ur": 266,
      "##ad": 267,
      "men": 268,
      "hold": 269,
      "standing": 270,
      "##own": 271,
      "##am": 272,
      "playing": 273,
      "stre": 274,
      "child": 275,
      "bu": 276,
      "loo": 277,
      "##ard": 278,
      "group": 279,
      "street": 280,
      "ha": 281,
      "down": 282,
      "##se": 283,
      "##nt": 284,
      "co": 285,
      "##il": 286,
      "##ree": 287,
      "walking": 288,
      "##im": 289,
      "be": 290,
      "ro": 291,
      "sm": 292,
      "##round": 293,
      "her": 294,
      "front": 295,
      "ta": 296,
      "holding": 297,
      "##ks": 298,
      "##ell": 299,
      "##ress": 300,
      "##ain": 301,
      "##ay": 302,
      "##ke": 303,
      "##ent": 304,
      "##el": 305,
      "gra": 306,
      "water": 307,
      "##ct": 308,
      "##ion": 309,
      "out": 310,
      "car": 311,
      "##ie": 312,
      "dress": 313,
      "The": 314,
      "cl": 315,
      "by": 316,
      "##tle": 317,
      "up": 318,
      "po": 319,
      "##ump": 320,
      "for": 321,
      "som": 322,
      "Th": 323,
      "as": 324,
      "##ack": 325,
      "##reen": 326,
      "##hing": 327,
      "run": 328,
      "##igh": 329,
      "##ead": 330,
      "##ood": 331,
      "back": 332,
      "wor": 333,
      "##ve": 334,
      "##ark": 335,
      "##one": 336,
      "jump": 337,
      "ne": 338,
      "##uit": 339,
      "green": 340,
      "An": 341,
      "women": 342,
      "one": 343,
      "##ittle": 344,
      "ma": 345,
      "sk": 346,
      "sw": 347,
      "##ying": 348,
      "##for": 349,
      "outs": 350,
      "looking": 351,
      "##bo": 352,
      "ball": 353,
      "hat": 354,
      "sn": 355,
      "outside": 356,
      "rid": 357,
      "##form": 358,
      "##ble": 359,
      "Three": 360,
      "##to": 361,
      "##ind": 362,
      "bi": 363,
      "##arge": 364,
      "little": 365,
      "side": 366,
      "##em": 367,
      "##rown": 368,
      "large": 369,
      "##ore": 370,
      "##ren": 371,
      "##rough": 372,
      "fl": 373,
      "through": 374,
      "##ong": 375,
      "ot": 376,
      "##ball": 377,
      "##ul": 378,
      "##ellow": 379,
      "##ap": 380,
      "or": 381,
      "snow": 382,
      "brown": 383,
      "yellow": 384,
      "two": 385,
      "##erson": 386,
      "sp": 387,
      "over": 388,
      "##ure": 389,
      "tra": 390,
      "##lass": 391,
      "ra": 392,
      "##yc": 393,
      "##ter": 394,
      "##ian": 395,
      "from": 396,
      "their": 397,
      "##che": 398,
      "into": 399,
      "##us": 400,
      "##ning": 401,
      "person": 402,
      "##xt": 403,
      "hand": 404,
      "##ire": 405,
      "##our": 406,
      "build": 407,
      "con": 408,
      "building": 409,
      "##ink": 410,
      "wa": 411,
      "##alk": 412,
      "##lder": 413,
      "children": 414,
      "##ly": 415,
      "##ate": 416,
      "##acket": 417,
      "next": 418,
      "##ple": 419,
      "other": 420,
      "bea": 421,
      "##air": 422,
      "small": 423,
      "##ig": 424,
      "##rowd": 425,
      "near": 426,
      "dressed": 427,
      "##other": 428,
      "some": 429,
      "crowd": 430,
      "jacket": 431,
      "##ep": 432,
      "grass": 433,
      "##ving": 434,
      "##ight": 435,
      "##board": 436,
      "##ground": 437,
      "so": 438,
      "##sing": 439,
      "##walk": 440,
      "riding": 441,
      "running": 442,
      "##age": 443,
      "People": 444,
      "##eat": 445,
      "##ph": 446,
      "##ange": 447,
      "off": 448,
      "another": 449,
      "around": 450,
      "##ield": 451,
      "sc": 452,
      "##pp": 453,
      "##est": 454,
      "##ycle": 455,
      "al": 456,
      "pa": 457,
      "##ut": 458,
      "##out": 459,
      "##cer": 460,
      "field": 461,
      "##ching": 462,
      "##ru": 463,
      "table": 464,
      "##ick": 465,
      "sidewalk": 466,
      "fa": 467,
      "Man": 468,
      "lad": 469,
      "##lasses": 470,
      "cam": 471,
      "##ff": 472,
      "##ity": 473,
      "orange": 474,
      "beach": 475,
      "air": 476,
      "##oor": 477,
      "##rying": 478,
      "##ross": 479,
      "##ine": 480,
      "ar": 481,
      "go": 482,
      "hair": 483,
      "stands": 484,
      "pink": 485,
      "per": 486,
      "##ist": 487,
      "##ount": 488,
      "sits": 489,
      "jumping": 490,
      "beh": 491,
      "behind": 492,
      "##ture": 493,
      "work": 494,
      "sun": 495,
      "la": 496,
      "##iling": 497,
      "##ool": 498,
      "perform": 499,
      "pic": 500,
      "un": 501,
      "background": 502,
      "##get": 503,
      "##ean": 504,
      "com": 505,
      "##way": 506,
      "park": 507,
      "top": 508,
      "##ating": 509,
      "head": 510,
      "##by": 511,
      "tal": 512,
      "bike": 513,
      "blo": 514,
      "rock": 515,
      "wall": 516,
      "read": 517,
      "city": 518,
      "##cing": 519,
      "col": 520,
      "##oot": 521,
      "player": 522,
      "picture": 523,
      "girls": 524,
      "##ves": 525,
      "dr": 526,
      "camer": 527,
      "bic": 528,
      "looks": 529,
      "##ame": 530,
      "shor": 531,
      "##uitar": 532,
      "sur": 533,
      "camera": 534,
      "##ever": 535,
      "guitar": 536,
      "that": 537,
      "##everal": 538,
      "dan": 539,
      "par": 540,
      "##ud": 541,
      "bus": 542,
      "##ountain": 543,
      "dogs": 544,
      "##ches": 545,
      "##ip": 546,
      "clot": 547,
      "cou": 548,
      "##ub": 549,
      "##dle": 550,
      "gu": 551,
      "wood": 552,
      "it": 553,
      "somet": 554,
      "talking": 555,
      "ac": 556,
      "##ant": 557,
      "something": 558,
      "##ccer": 559,
      "##as": 560,
      "mid": 561,
      "older": 562,
      "ph": 563,
      "##ale": 564,
      "along": 565,
      "walk": 566,
      "walks": 567,
      "##ants": 568,
      "bri": 569,
      "lady": 570,
      "##ive": 571,
      "toget": 572,
      "soccer": 573,
      "##phone": 574,
      "together": 575,
      "##ach": 576,
      "working": 577,
      "blond": 578,
      "food": 579,
      "hel": 580,
      "##ol": 581,
      "##ect": 582,
      "skate": 583,
      "ad": 584,
      "boys": 585,
      "gray": 586,
      "As": 587,
      "##sk": 588,
      "ben": 589,
      "hor": 590,
      "##end": 591,
      "bicycle": 592,
      "li": 593,
      "smiling": 594,
      "him": 595,
      "##kes": 596,
      "##ign": 597,
      "uni": 598,
      "##gg": 599,
      "game": 600,
      "##ne": 601,
      "##ill": 602,
      "has": 603,
      "##door": 604,
      "them": 605,
      "Asian": 606,
      "##ull": 607,
      "guy": 608,
      "plays": 609,
      "road": 610,
      "uniform": 611,
      "holds": 612,
      "##imb": 613,
      "##ation": 614,
      "pre": 615,
      "sand": 616,
      "##are": 617,
      "##nder": 618,
      "##sh": 619,
      "Four": 620,
      "che": 621,
      "climb": 622,
      "swim": 623,
      "skateboard": 624,
      "bench": 625,
      "tea": 626,
      "glasses": 627,
      "pants": 628,
      "br": 629,
      "kid": 630,
      "under": 631,
      "##eans": 632,
      "stage": 633,
      "##ction": 634,
      "shorts": 635,
      "pain": 636,
      "re": 637,
      "##mer": 638,
      "pur": 639,
      "suit": 640,
      "carrying": 641,
      "couple": 642,
      "dirt": 643,
      "##gs": 644,
      "##les": 645,
      "get": 646,
      "pro": 647,
      "##rip": 648,
      "##ful": 649,
      "##emale": 650,
      "baby": 651,
      "mountain": 652,
      "tree": 653,
      "##ath": 654,
      "face": 655,
      "##ee": 656,
      "base": 657,
      "outdoor": 658,
      "wait": 659,
      "ag": 660,
      "sing": 661,
      "female": 662,
      "mot": 663,
      "##hes": 664,
      "tan": 665,
      "##ses": 666,
      "##ather": 667,
      "##ook": 668,
      "Several": 669,
      "en": 670,
      "##qu": 671,
      "he": 672,
      "lea": 673,
      "##ice": 674,
      "att": 675,
      "comp": 676,
      "old": 677,
      "pool": 678,
      "sl": 679,
      "##led": 680,
      "foot": 681,
      "long": 682,
      "##ey": 683,
      "##een": 684,
      "jumps": 685,
      "boat": 686,
      "taking": 687,
      "sign": 688,
      "##ies": 689,
      "##here": 690,
      "each": 691,
      "tow": 692,
      "bask": 693,
      "race": 694,
      "##ling": 695,
      "basket": 696,
      "mic": 697,
      "##ping": 698,
      "##te": 699,
      "##ican": 700,
      "chair": 701,
      "shop": 702,
      "doing": 703,
      "dark": 704,
      "coat": 705,
      "micro": 706,
      "##ence": 707,
      "##oto": 708,
      "watching": 709,
      "across": 710,
      "jeans": 711,
      "strip": 712,
      "area": 713,
      "cat": 714,
      "team": 715,
      "##ery": 716,
      "male": 717,
      "##outh": 718,
      "middle": 719,
      "day": 720,
      "photo": 721,
      "tri": 722,
      "hands": 723,
      "pl": 724,
      "##met": 725,
      "band": 726,
      "store": 727,
      "helmet": 728,
      "lo": 729,
      "ground": 730,
      "cover": 731,
      "##ft": 732,
      "who": 733,
      "horse": 734,
      "motor": 735,
      "wind": 736,
      "room": 737,
      "##ment": 738,
      "bar": 739,
      "mus": 740,
      "swing": 741,
      "performing": 742,
      "##ome": 743,
      "toy": 744,
      "##ght": 745,
      "##ust": 746,
      "surf": 747,
      "##side": 748,
      "##stru": 749,
      "eating": 750,
      "sweat": 751,
      "##ired": 752,
      "de": 753,
      "mar": 754,
      "being": 755,
      "op": 756,
      "##uring": 757,
      "baseball": 758,
      "mo": 759,
      "color": 760,
      "mouth": 761,
      "##jo": 762,
      "ex": 763,
      "music": 764,
      "using": 765,
      "##mb": 766,
      "##ry": 767,
      "striped": 768,
      "Wom": 769,
      "football": 770,
      "Ch": 771,
      "gather": 772,
      "rest": 773,
      "ca": 774,
      "set": 775,
      "ten": 776,
      "watch": 777,
      "she": 778,
      "sho": 779,
      "arm": 780,
      "purple": 781,
      "sle": 782,
      "##glasses": 783,
      "##ards": 784,
      "##dy": 785,
      "fis": 786,
      "##nis": 787,
      "##ope": 788,
      "look": 789,
      "##irts": 790,
      "haired": 791,
      "prep": 792,
      "##ming": 793,
      "##cks": 794,
      "cross": 795,
      "##ess": 796,
      "##aper": 797,
      "##lo": 798,
      "runs": 799,
      "train": 800,
      "enjo": 801,
      "window": 802,
      "adul": 803,
      "##struction": 804,
      "Young": 805,
      "le": 806,
      "tre": 807,
      "##rel": 808,
      "##iv": 809,
      "past": 810,
      "lay": 811,
      "ob": 812,
      "##ner": 813,
      "tennis": 814,
      "sunglasses": 815,
      "reading": 816,
      "##ty": 817,
      "bot": 818,
      "clothing": 819,
      "players": 820,
      "three": 821,
      "microphone": 822,
      "can": 823,
      "##ents": 824,
      "##cean": 825,
      "There": 826,
      "##aur": 827,
      "its": 828,
      "flow": 829,
      "covered": 830,
      "##aring": 831,
      "basketball": 832,
      "cap": 833,
      "ocean": 834,
      "##ade": 835,
      "dri": 836,
      "##ance": 837,
      "dis": 838,
      "##up": 839,
      "show": 840,
      "watches": 841,
      "during": 842,
      "climbing": 843,
      "motorc": 844,
      "fore": 845,
      "##mp": 846,
      "outf": 847,
      "pass": 848,
      "bright": 849,
      "kids": 850,
      "restaur": 851,
      "ri": 852,
      "##ainst": 853,
      "##lderly": 854,
      "ab": 855,
      "restaurant": 856,
      "##ored": 857,
      "mark": 858,
      "##ix": 859,
      "against": 860,
      "outfit": 861,
      "##ley": 862,
      "stick": 863,
      "fla": 864,
      "fire": 865,
      "sa": 866,
      "umb": 867,
      "##ak": 868,
      "dancing": 869,
      "##rella": 870,
      "umbrella": 871,
      "high": 872,
      "hill": 873,
      "bow": 874,
      "##man": 875,
      "##ugh": 876,
      "smile": 877,
      "rides": 878,
      "open": 879,
      "elderly": 880,
      "##ces": 881,
      "shirts": 882,
      "##str": 883,
      "throw": 884,
      "app": 885,
      "##ort": 886,
      "bag": 887,
      "##ging": 888,
      "##ouse": 889,
      "One": 890,
      "bal": 891,
      "des": 892,
      "posing": 893,
      "wooden": 894,
      "trees": 895,
      "all": 896,
      "having": 897,
      "about": 898,
      "##sc": 899,
      "floor": 900,
      "##ew": 901,
      "cell": 902,
      "they": 903,
      "bear": 904,
      "drin": 905,
      "waiting": 906,
      "market": 907,
      "##sp": 908,
      "swimming": 909,
      "##ag": 910,
      "##vel": 911,
      "##stum": 912,
      "##ruck": 913,
      "getting": 914,
      "ve": 915,
      "##ron": 916,
      "##ors": 917,
      "costum": 918,
      "##utting": 919,
      "##ycl": 920,
      "trying": 921,
      "construction": 922,
      "workers": 923,
      "##ily": 924,
      "cart": 925,
      "motorcycle": 926,
      "hu": 927,
      "very": 928,
      "mat": 929,
      "##ted": 930,
      "cle": 931,
      "##hers": 932,
      "##ial": 933,
      "busy": 934,
      "colorful": 935,
      "ice": 936,
      "night": 937,
      "##ber": 938,
      "singing": 939,
      "fence": 940,
      "kit": 941,
      "##vers": 942,
      "pol": 943,
      "instr": 944,
      "new": 945,
      "Woman": 946,
      "instrum": 947,
      "book": 948,
      "met": 949,
      "This": 950,
      "##oon": 951,
      "##ier": 952,
      "##iff": 953,
      "##eps": 954,
      "path": 955,
      "##ition": 956,
      "te": 957,
      "##ject": 958,
      "bat": 959,
      "light": 960,
      "##ler": 961,
      "stair": 962,
      "compet": 963,
      "line": 964,
      "##ous": 965,
      "ev": 966,
      "han": 967,
      "pie": 968,
      "##less": 969,
      "Some": 970,
      "truck": 971,
      "##chen": 972,
      "laying": 973,
      "Men": 974,
      "paper": 975,
      "ride": 976,
      "body": 977,
      "hats": 978,
      "clothes": 979,
      "beard": 980,
      "##ast": 981,
      "##pack": 982,
      "inside": 983,
      "others": 984,
      "kitchen": 985,
      "kick": 986,
      "##eping": 987,
      "grassy": 988,
      "cellphone": 989,
      "cour": 990,
      "whe": 991,
      "making": 992,
      "surround": 993,
      "##dd": 994,
      "river": 995,
      "full": 996,
      "pus": 997,
      "backpack": 998,
      "brick": 999,
      "track": 1000,
      "sell": 1001,
      "##gra": 1002,
      "##room": 1003,
      "board": 1004,
      "takes": 1005,
      "bik": 1006,
      "art": 1007,
      "laugh": 1008,
      "metal": 1009,
      "big": 1010,
      "towards": 1011,
      "cre": 1012,
      "##ckey": 1013,
      "enjoying": 1014,
      "##ec": 1015,
      "##als": 1016,
      "cow": 1017,
      "roll": 1018,
      "mach": 1019,
      "colored": 1020,
      "af": 1021,
      "##iz": 1022,
      "##ny": 1023,
      "##br": 1024,
      "ready": 1025,
      "cor": 1026,
      "hard": 1027,
      "##fe": 1028,
      "##amp": 1029,
      "tank": 1030,
      "##able": 1031,
      "##ines": 1032,
      "piece": 1033,
      "##tic": 1034,
      "##ooking": 1035,
      "##raw": 1036,
      "##iew": 1037,
      "painting": 1038,
      "Five": 1039,
      "seat": 1040,
      "##cor": 1041,
      "##der": 1042,
      "drum": 1043,
      "##merican": 1044,
      "##ding": 1045,
      "sweater": 1046,
      "Child": 1047,
      "fo": 1048,
      "pull": 1049,
      "sub": 1050,
      "tr": 1051,
      "##rican": 1052,
      "##ates": 1053,
      "lake": 1054,
      "trick": 1055,
      "wheel": 1056,
      "ap": 1057,
      "abo": 1058,
      "several": 1059,
      "photogra": 1060,
      "above": 1061,
      "##ps": 1062,
      "##iving": 1063,
      "##ound": 1064,
      "going": 1065,
      "##ird": 1066,
      "box": 1067,
      "like": 1068,
      "catch": 1069,
      "bes": 1070,
      "class": 1071,
      "hi": 1072,
      "many": 1073,
      "stone": 1074,
      "snowy": 1075,
      "dance": 1076,
      "am": 1077,
      "kne": 1078,
      "vest": 1079,
      "##ved": 1080,
      "clo": 1081,
      "wave": 1082,
      "brid": 1083,
      "shopping": 1084,
      "clean": 1085,
      "##pla": 1086,
      "##ym": 1087,
      "##ium": 1088,
      "##ere": 1089,
      "onto": 1090,
      "##riend": 1091,
      "uniforms": 1092,
      "surrounded": 1093,
      "tur": 1094,
      "##ones": 1095,
      "##ched": 1096,
      "worker": 1097,
      "fr": 1098,
      "##ets": 1099,
      "snowboard": 1100,
      "stud": 1101,
      "crowded": 1102,
      "smiles": 1103,
      "pra": 1104,
      "##ank": 1105,
      "sha": 1106,
      "outdoors": 1107,
      "beside": 1108,
      "bre": 1109,
      "gear": 1110,
      "lean": 1111,
      "##ists": 1112,
      "todd": 1113,
      "pole": 1114,
      "##emp": 1115,
      "convers": 1116,
      "adults": 1117,
      "house": 1118,
      "phone": 1119,
      "drinking": 1120,
      "Af": 1121,
      "jo": 1122,
      "##ork": 1123,
      "##amily": 1124,
      "poin": 1125,
      "teen": 1126,
      "after": 1127,
      "rain": 1128,
      "view": 1129,
      "##ary": 1130,
      "fountain": 1131,
      "gri": 1132,
      "##ich": 1133,
      "door": 1134,
      "##stic": 1135,
      "buck": 1136,
      "##uti": 1137,
      "gathered": 1138,
      "boo": 1139,
      "hit": 1140,
      "lap": 1141,
      "event": 1142,
      "hanging": 1143,
      "ele": 1144,
      "##ated": 1145,
      "spea": 1146,
      "prepare": 1147,
      "subway": 1148,
      "bridge": 1149,
      "African": 1150,
      "away": 1151,
      "ey": 1152,
      "friend": 1153,
      "family": 1154,
      "gym": 1155,
      "##ys": 1156,
      "##ening": 1157,
      "smo": 1158,
      "carri": 1159,
      "##ffit": 1160,
      "##gging": 1161,
      "arms": 1162,
      "flowers": 1163,
      "##utiful": 1164,
      "me": 1165,
      "no": 1166,
      "graffit": 1167,
      "ski": 1168,
      "preparing": 1169,
      "American": 1170,
      "lot": 1171,
      "##ane": 1172,
      "##owing": 1173,
      "##unch": 1174,
      "hockey": 1175,
      "balloon": 1176,
      "object": 1177,
      "costume": 1178,
      "leaning": 1179,
      "toddler": 1180,
      "cra": 1181,
      "##bble": 1182,
      "steps": 1183,
      "take": 1184,
      "cont": 1185,
      "offic": 1186,
      "Many": 1187,
      "short": 1188,
      "attemp": 1189,
      "sleeping": 1190,
      "fishing": 1191,
      "forest": 1192,
      "num": 1193,
      "does": 1194,
      "##ime": 1195,
      "make": 1196,
      "trail": 1197,
      "guys": 1198,
      "appear": 1199,
      "graffiti": 1200,
      "pat": 1201,
      "rope": 1202,
      "##ish": 1203,
      "plaid": 1204,
      "shoes": 1205,
      "machine": 1206,
      "Children": 1207,
      "pu": 1208,
      "vol": 1209,
      "beautiful": 1210,
      "four": 1211,
      "##ase": 1212,
      "stro": 1213,
      "##ests": 1214,
      "asian": 1215,
      "adult": 1216,
      "equ": 1217,
      "win": 1218,
      "##ac": 1219,
      "##lic": 1220,
      "##art": 1221,
      "conc": 1222,
      "police": 1223,
      "stairs": 1224,
      "##entle": 1225,
      "grill": 1226,
      "pub": 1227,
      "##ious": 1228,
      "##ersey": 1229,
      "shirtless": 1230,
      "selling": 1231,
      "pract": 1232,
      "fil": 1233,
      "glass": 1234,
      "jersey": 1235,
      "tall": 1236,
      "##ans": 1237,
      "##arf": 1238,
      "##ops": 1239,
      "shou": 1240,
      "sky": 1241,
      "sunny": 1242,
      "setting": 1243,
      "rocks": 1244,
      "##yclist": 1245,
      "bet": 1246,
      "opp": 1247,
      "rea": 1248,
      "##bee": 1249,
      "##iting": 1250,
      "stat": 1251,
      "pose": 1252,
      "racing": 1253,
      "gentle": 1254,
      "list": 1255,
      "putting": 1256,
      "##shing": 1257,
      "chairs": 1258,
      "both": 1259,
      "cowbo": 1260,
      "corner": 1261,
      "volley": 1262,
      "stroll": 1263,
      "cur": 1264,
      "##lf": 1265,
      "##isbee": 1266,
      "throwing": 1267,
      "pushing": 1268,
      "cup": 1269,
      "dist": 1270,
      "ramp": 1271,
      "##uter": 1272,
      "##hic": 1273,
      "##ween": 1274,
      "have": 1275,
      "drink": 1276,
      "parade": 1277,
      "slide": 1278,
      "sweatsh": 1279,
      "public": 1280,
      "between": 1281,
      "volleyball": 1282,
      "fe": 1283,
      "kis": 1284,
      "ladies": 1285,
      "laughing": 1286,
      "equip": 1287,
      "pick": 1288,
      "##ring": 1289,
      "##ined": 1290,
      "works": 1291,
      "someone": 1292,
      "computer": 1293,
      "flag": 1294,
      "instruments": 1295,
      "fruit": 1296,
      "equipment": 1297,
      "ent": 1298,
      "hot": 1299,
      "squ": 1300,
      "vend": 1301,
      "##chool": 1302,
      "rail": 1303,
      "scen": 1304,
      "pictures": 1305,
      "couch": 1306,
      "check": 1307,
      "fish": 1308,
      "displa": 1309,
      "vehic": 1310,
      "bed": 1311,
      "gar": 1312,
      "glo": 1313,
      "wr": 1314,
      "##ons": 1315,
      "plastic": 1316,
      "woods": 1317,
      "bottle": 1318,
      "hood": 1319,
      "pad": 1320,
      "##rete": 1321,
      "which": 1322,
      "playground": 1323,
      "poses": 1324,
      "party": 1325,
      "aged": 1326,
      "concrete": 1327,
      "sweatshirt": 1328,
      "bird": 1329,
      "cig": 1330,
      "pit": 1331,
      "stru": 1332,
      "dock": 1333,
      "but": 1334,
      "gold": 1335,
      "number": 1336,
      "statue": 1337,
      "Bo": 1338,
      "yard": 1339,
      "##de": 1340,
      "##os": 1341,
      "##hed": 1342,
      "##iding": 1343,
      "##ally": 1344,
      "##ems": 1345,
      "##ement": 1346,
      "##phones": 1347,
      "midair": 1348,
      "flower": 1349,
      "winter": 1350,
      "St": 1351,
      "##cl": 1352,
      "##dge": 1353,
      "##ggles": 1354,
      "shovel": 1355,
      "##wn": 1356,
      "skirt": 1357,
      "bikes": 1358,
      "cowboy": 1359,
      "se": 1360,
      "##ience": 1361,
      "##ining": 1362,
      "##ering": 1363,
      "##ators": 1364,
      "shore": 1365,
      "##ical": 1366,
      "prot": 1367,
      "veget": 1368,
      "distance": 1369,
      "emp": 1370,
      "fall": 1371,
      "just": 1372,
      "roo": 1373,
      "sil": 1374,
      "tat": 1375,
      "##rest": 1376,
      "anim": 1377,
      "bel": 1378,
      "reads": 1379,
      "attire": 1380,
      "toward": 1381,
      "seated": 1382,
      "apron": 1383,
      "home": 1384,
      "ser": 1385,
      "##bor": 1386,
      "##ert": 1387,
      "what": 1388,
      "spor": 1389,
      "left": 1390,
      "cream": 1391,
      "Fr": 1392,
      "aud": 1393,
      "cutting": 1394,
      "cooking": 1395,
      "vi": 1396,
      "vests": 1397,
      "##az": 1398,
      "ind": 1399,
      "stop": 1400,
      "blank": 1401,
      "happ": 1402,
      "beer": 1403,
      "##ctor": 1404,
      "ref": 1405,
      "kneel": 1406,
      "ear": 1407,
      "lined": 1408,
      "school": 1409,
      "##oc": 1410,
      "##ned": 1411,
      "##ini": 1412,
      "##ens": 1413,
      "##ows": 1414,
      "bags": 1415,
      "cliff": 1416,
      "buildings": 1417,
      "##eather": 1418,
      "newsp": 1419,
      "pulling": 1420,
      "filled": 1421,
      "Little": 1422,
      "draw": 1423,
      "tent": 1424,
      "##fet": 1425,
      "##too": 1426,
      "station": 1427,
      "where": 1428,
      "##cture": 1429,
      "rider": 1430,
      "##aret": 1431,
      "cigaret": 1432,
      "Girl": 1433,
      "var": 1434,
      "we": 1435,
      "wrest": 1436,
      "##aw": 1437,
      "##ric": 1438,
      "inf": 1439,
      "bare": 1440,
      "bowl": 1441,
      "close": 1442,
      "appears": 1443,
      "practic": 1444,
      "vegetable": 1445,
      "tattoo": 1446,
      "edge": 1447,
      "##ug": 1448,
      "##uff": 1449,
      "##head": 1450,
      "##ony": 1451,
      "##ights": 1452,
      "##ectators": 1453,
      "paint": 1454,
      "mountains": 1455,
      "crossing": 1456,
      "showing": 1457,
      "instrument": 1458,
      "court": 1459,
      "Grou": 1460,
      "Ind": 1461,
      "land": 1462,
      "res": 1463,
      "sea": 1464,
      "##ings": 1465,
      "##arm": 1466,
      "scarf": 1467,
      "structure": 1468,
      "right": 1469,
      "##hle": 1470,
      "##ins": 1471,
      "##ats": 1472,
      "bubble": 1473,
      "nearby": 1474,
      "##ountry": 1475,
      "performs": 1476,
      "horses": 1477,
      "Women": 1478,
      "elect": 1479,
      "fix": 1480,
      "few": 1481,
      "pile": 1482,
      "##ti": 1483,
      "##look": 1484,
      "##io": 1485,
      "##lding": 1486,
      "##cert": 1487,
      "rela": 1488,
      "mart": 1489,
      "musician": 1490,
      "driving": 1491,
      "##yclists": 1492,
      "carries": 1493,
      "Frisbee": 1494,
      "mul": 1495,
      "##und": 1496,
      "flo": 1497,
      "flip": 1498,
      "##ffee": 1499,
      "goal": 1500,
      "leaves": 1501,
      "bowling": 1502,
      "break": 1503,
      "friends": 1504,
      "ce": 1505,
      "##ail": 1506,
      "##ser": 1507,
      "##ven": 1508,
      "cars": 1509,
      "form": 1510,
      "##pping": 1511,
      "parked": 1512,
      "boots": 1513,
      "cigarette": 1514,
      "Person": 1515,
      "net": 1516,
      "##du": 1517,
      "##ives": 1518,
      "rob": 1519,
      "railing": 1520,
      "goggles": 1521,
      "swims": 1522,
      "painted": 1523,
      "exp": 1524,
      "slee": 1525,
      "##ival": 1526,
      "photograph": 1527,
      "snowboarder": 1528,
      "vendor": 1529,
      "display": 1530,
      "kn": 1531,
      "mud": 1532,
      "athle": 1533,
      "dresses": 1534,
      "flying": 1535,
      "talks": 1536,
      "skateboarder": 1537,
      "drums": 1538,
      "smoking": 1539,
      "vehicle": 1540,
      "martial": 1541,
      "dire": 1542,
      "diff": 1543,
      "gr": 1544,
      "lit": 1545,
      "lying": 1546,
      "time": 1547,
      "##men": 1548,
      "##pe": 1549,
      "shot": 1550,
      "coffee": 1551,
      "spla": 1552,
      "concert": 1553,
      "alley": 1554,
      "rocky": 1555,
      "##ivid": 1556,
      "bathing": 1557,
      "roller": 1558,
      "eyes": 1559,
      "mother": 1560,
      "##set": 1561,
      "##ban": 1562,
      "##ater": 1563,
      "##cher": 1564,
      "younger": 1565,
      "bull": 1566,
      "##ighting": 1567,
      "waves": 1568,
      "jackets": 1569,
      "arts": 1570,
      "swinging": 1571,
      "flags": 1572,
      "safet": 1573,
      "kicking": 1574,
      "conversation": 1575,
      "prepares": 1576,
      "##deo": 1577,
      "roof": 1578,
      "newspaper": 1579,
      "Group": 1580,
      "relax": 1581,
      "safety": 1582,
      "cla": 1583,
      "country": 1584,
      "pot": 1585,
      "rep": 1586,
      "##eep": 1587,
      "##pher": 1588,
      "##ugg": 1589,
      "##ker": 1590,
      "##erent": 1591,
      "inter": 1592,
      "##itary": 1593,
      "post": 1594,
      "spectators": 1595,
      "parking": 1596,
      "costumes": 1597,
      "bucket": 1598,
      "gymn": 1599,
      "gentleman": 1600,
      "gloves": 1601,
      "practicing": 1602,
      "bunch": 1603,
      "dig": 1604,
      "fun": 1605,
      "qu": 1606,
      "uses": 1607,
      "##og": 1608,
      "##use": 1609,
      "##na": 1610,
      "##ige": 1611,
      "onlook": 1612,
      "##ise": 1613,
      "this": 1614,
      "##ush": 1615,
      "##pped": 1616,
      "ladder": 1617,
      "pres": 1618,
      "competition": 1619,
      "bearded": 1620,
      "cleaning": 1621,
      "listening": 1622,
      "Boy": 1623,
      "different": 1624,
      "mon": 1625,
      "say": 1626,
      "there": 1627,
      "##asing": 1628,
      "staring": 1629,
      "coll": 1630,
      "mask": 1631,
      "spra": 1632,
      "items": 1633,
      "skateboarding": 1634,
      "scene": 1635,
      "blanket": 1636,
      "ban": 1637,
      "coun": 1638,
      "giving": 1639,
      "mil": 1640,
      "##ette": 1641,
      "##ids": 1642,
      "##ural": 1643,
      "lawn": 1644,
      "bicycles": 1645,
      "plat": 1646,
      "surfer": 1647,
      "surfboard": 1648,
      "disc": 1649,
      "desk": 1650,
      "bikini": 1651,
      "meal": 1652,
      "empty": 1653,
      "audience": 1654,
      "various": 1655,
      "##ividu": 1656,
      "Con": 1657,
      "wet": 1658,
      "##bb": 1659,
      "##eng": 1660,
      "rodeo": 1661,
      "leaps": 1662,
      "drinks": 1663,
      "Someone": 1664,
      "##ized": 1665,
      "##cord": 1666,
      "among": 1667,
      "Indian": 1668,
      "onlookers": 1669,
      "ham": 1670,
      "not": 1671,
      "tro": 1672,
      "tub": 1673,
      "wed": 1674,
      "##ton": 1675,
      "##nic": 1676,
      "##alm": 1677,
      "##irc": 1678,
      "##enc": 1679,
      "neck": 1680,
      "##ooth": 1681,
      "sliding": 1682,
      "gathering": 1683,
      "cake": 1684,
      "pointing": 1685,
      "silver": 1686,
      "viol": 1687,
      "vegetables": 1688,
      "platform": 1689,
      "cement": 1690,
      "kay": 1691,
      "mem": 1692,
      "##ace": 1693,
      "##fore": 1694,
      "##top": 1695,
      "##oe": 1696,
      "##rin": 1697,
      "##kers": 1698,
      "##iness": 1699,
      "streets": 1700,
      "swe": 1701,
      "##ulp": 1702,
      "sold": 1703,
      "screen": 1704,
      "facing": 1705,
      "suits": 1706,
      "obser": 1707,
      "teenag": 1708,
      "feet": 1709,
      "sports": 1710,
      "counter": 1711,
      "bath": 1712,
      "cut": 1713,
      "circ": 1714,
      "##ped": 1715,
      "##nel": 1716,
      "waters": 1717,
      "before": 1718,
      "##ely": 1719,
      "rais": 1720,
      "helmets": 1721,
      "competing": 1722,
      "biker": 1723,
      "speaking": 1724,
      "individu": 1725,
      "wedding": 1726,
      "Six": 1727,
      "fing": 1728,
      "med": 1729,
      "tie": 1730,
      "##cers": 1731,
      "##dition": 1732,
      "##sed": 1733,
      "##uss": 1734,
      "##ken": 1735,
      "##vy": 1736,
      "int": 1737,
      "incl": 1738,
      "tradition": 1739,
      "sculp": 1740,
      "coming": 1741,
      "gets": 1742,
      "teams": 1743,
      "huge": 1744,
      "match": 1745,
      "classroom": 1746,
      "din": 1747,
      "fighting": 1748,
      "##rist": 1749,
      "##bs": 1750,
      "##read": 1751,
      "##ram": 1752,
      "business": 1753,
      "climbs": 1754,
      "purse": 1755,
      "produ": 1756,
      "##athon": 1757,
      "sings": 1758,
      "tries": 1759,
      "loc": 1760,
      "surfing": 1761,
      "students": 1762,
      "garb": 1763,
      "traditional": 1764,
      "crou": 1765,
      "cas": 1766,
      "mir": 1767,
      "talk": 1768,
      "##mas": 1769,
      "##bers": 1770,
      "shad": 1771,
      "chasing": 1772,
      "clown": 1773,
      "##eath": 1774,
      "airp": 1775,
      "bride": 1776,
      "kissing": 1777,
      "animal": 1778,
      "military": 1779,
      "violin": 1780,
      "mirro": 1781,
      "da": 1782,
      "same": 1783,
      "sled": 1784,
      "ty": 1785,
      "way": 1786,
      "##co": 1787,
      "##case": 1788,
      "##th": 1789,
      "skating": 1790,
      "walkway": 1791,
      "chef": 1792,
      "cheer": 1793,
      "decor": 1794,
      "trun": 1795,
      "stroller": 1796,
      "writing": 1797,
      "gun": 1798,
      "sort": 1799,
      "ur": 1800,
      "vide": 1801,
      "##foot": 1802,
      "##ns": 1803,
      "##ars": 1804,
      "##ator": 1805,
      "sto": 1806,
      "##ower": 1807,
      "##ooter": 1808,
      "##els": 1809,
      "skier": 1810,
      "overl": 1811,
      "sunset": 1812,
      "waits": 1813,
      "females": 1814,
      "##ustom": 1815,
      "exam": 1816,
      "artist": 1817,
      "##ticip": 1818,
      "shoulder": 1819,
      "kneeling": 1820,
      "cand": 1821,
      "end": 1822,
      "pea": 1823,
      "row": 1824,
      "tou": 1825,
      "tun": 1826,
      "tire": 1827,
      "wra": 1828,
      "##tis": 1829,
      "indoor": 1830,
      "##ides": 1831,
      "place": 1832,
      "##allow": 1833,
      "runner": 1834,
      "waving": 1835,
      "scooter": 1836,
      "golf": 1837,
      "project": 1838,
      "##ession": 1839,
      "attempting": 1840,
      "barefoot": 1841,
      "##ristmas": 1842,
      "mirror": 1843,
      "cr": 1844,
      "seen": 1845,
      "##if": 1846,
      "##red": 1847,
      "##lead": 1848,
      "##alle": 1849,
      "clou": 1850,
      "makes": 1851,
      "life": 1852,
      "signs": 1853,
      "marathon": 1854,
      "enjoy": 1855,
      "outfits": 1856,
      "balan": 1857,
      "electric": 1858,
      "In": 1859,
      "bro": 1860,
      "five": 1861,
      "gard": 1862,
      "son": 1863,
      "##aff": 1864,
      "##ib": 1865,
      "##lebr": 1866,
      "blowing": 1867,
      "chain": 1868,
      "hole": 1869,
      "##vertis": 1870,
      "##iant": 1871,
      "tables": 1872,
      "lab": 1873,
      "particip": 1874,
      "advertis": 1875,
      "oper": 1876,
      "leg": 1877,
      "bald": 1878,
      "course": 1879,
      "##inese": 1880,
      "##ticol": 1881,
      "officer": 1882,
      "bubbles": 1883,
      "multicol": 1884,
      "celebr": 1885,
      "says": 1886,
      "overlooking": 1887,
      "Sm": 1888,
      "Sp": 1889,
      "Work": 1890,
      "father": 1891,
      "har": 1892,
      "hea": 1893,
      "leans": 1894,
      "lights": 1895,
      "meat": 1896,
      "pier": 1897,
      "stun": 1898,
      "block": 1899,
      "foll": 1900,
      "balloons": 1901,
      "happy": 1902,
      "fixing": 1903,
      "gymnast": 1904,
      "urban": 1905,
      "lead": 1906,
      "leather": 1907,
      "made": 1908,
      "tool": 1909,
      "##unette": 1910,
      "mag": 1911,
      "##ape": 1912,
      "alone": 1913,
      "faces": 1914,
      "helping": 1915,
      "microsc": 1916,
      "foreground": 1917,
      "brightly": 1918,
      "umbrellas": 1919,
      "musicians": 1920,
      "collar": 1921,
      "discuss": 1922,
      "Construction": 1923,
      "Wh": 1924,
      "gro": 1925,
      "good": 1926,
      "giant": 1927,
      "ped": 1928,
      "##ners": 1929,
      "##ward": 1930,
      "##za": 1931,
      "##leep": 1932,
      "##arate": 1933,
      "##ative": 1934,
      "stad": 1935,
      "##lders": 1936,
      "##chair": 1937,
      "site": 1938,
      "waterf": 1939,
      "asleep": 1940,
      "headphones": 1941,
      "##ully": 1942,
      "plate": 1943,
      "legs": 1944,
      "canoe": 1945,
      "sculpture": 1946,
      "custom": 1947,
      "dra": 1948,
      "diving": 1949,
      "gre": 1950,
      "round": 1951,
      "tour": 1952,
      "well": 1953,
      "##fully": 1954,
      "##uck": 1955,
      "##vice": 1956,
      "##lage": 1957,
      "star": 1958,
      "##ough": 1959,
      "wears": 1960,
      "chur": 1961,
      "##ung": 1962,
      "trash": 1963,
      "washing": 1964,
      "office": 1965,
      "##ips": 1966,
      "sandals": 1967,
      "swings": 1968,
      "passing": 1969,
      "sticks": 1970,
      "doorway": 1971,
      "falling": 1972,
      "repair": 1973,
      "grocer": 1974,
      "stadium": 1975,
      "bra": 1976,
      "im": 1977,
      "##ia": 1978,
      "insp": 1979,
      "string": 1980,
      "stuff": 1981,
      "##ese": 1982,
      "##oph": 1983,
      "##estri": 1984,
      "##ffic": 1985,
      "heads": 1986,
      "##uddle": 1987,
      "accord": 1988,
      "##lesc": 1989,
      "toys": 1990,
      "musical": 1991,
      "skiing": 1992,
      "officers": 1993,
      "video": 1994,
      "multicolored": 1995,
      "accordion": 1996,
      "bur": 1997,
      "booth": 1998,
      "card": 1999,
      "hall": 2000,
      "mix": 2001,
      "pe": 2002,
      "prin": 2003,
      "sus": 2004,
      "sec": 2005,
      "##ab": 2006,
      "##ached": 2007,
      "##cting": 2008,
      "##ds": 2009,
      "##ges": 2010,
      "##que": 2011,
      "##alf": 2012,
      "performance": 2013,
      "comple": 2014,
      "part": 2015,
      "##ases": 2016,
      "dirty": 2017,
      "prof": 2018,
      "eng": 2019,
      "leash": 2020,
      "##ughter": 2021,
      "throws": 2022,
      "photographer": 2023,
      "teenage": 2024,
      "laptop": 2025,
      "reaching": 2026,
      "picking": 2027,
      "drawing": 2028,
      "includ": 2029,
      "church": 2030,
      "susp": 2031,
      "ass": 2032,
      "eat": 2033,
      "fin": 2034,
      "fur": 2035,
      "pack": 2036,
      "sew": 2037,
      "vis": 2038,
      "##lves": 2039,
      "##hak": 2040,
      "straw": 2041,
      "##orch": 2042,
      "##eth": 2043,
      "shallow": 2044,
      "pond": 2045,
      "males": 2046,
      "traffic": 2047,
      "laund": 2048,
      "hiking": 2049,
      "protect": 2050,
      "below": 2051,
      "digging": 2052,
      "present": 2053,
      "act": 2054,
      "gives": 2055,
      "khak": 2056,
      "mom": 2057,
      "nap": 2058,
      "van": 2059,
      "##fts": 2060,
      "##ond": 2061,
      "##osing": 2062,
      "##ied": 2063,
      "##zz": 2064,
      "stra": 2065,
      "##ics": 2066,
      "##alls": 2067,
      "atop": 2068,
      "bend": 2069,
      "tack": 2070,
      "upside": 2071,
      "soft": 2072,
      "cloth": 2073,
      "lift": 2074,
      "catching": 2075,
      "catches": 2076,
      "log": 2077,
      "move": 2078,
      "passes": 2079,
      "hugging": 2080,
      "##aster": 2081,
      "direction": 2082,
      "relaxing": 2083,
      "tunnel": 2084,
      "microscope": 2085,
      "Gu": 2086,
      "dun": 2087,
      "fre": 2088,
      "key": 2089,
      "mu": 2090,
      "pin": 2091,
      "pul": 2092,
      "pour": 2093,
      "##mo": 2094,
      "##eed": 2095,
      "##ness": 2096,
      "##back": 2097,
      "##ike": 2098,
      "##stand": 2099,
      "beige": 2100,
      "balls": 2101,
      "##ures": 2102,
      "dancers": 2103,
      "brunette": 2104,
      "leaping": 2105,
      "deep": 2106,
      "Christmas": 2107,
      "Chinese": 2108,
      "shoe": 2109,
      "sleeps": 2110,
      "shows": 2111,
      "eye": 2112,
      "sweeping": 2113,
      "##allen": 2114,
      "garden": 2115,
      "stunt": 2116,
      "Black": 2117,
      "fan": 2118,
      "fest": 2119,
      "fram": 2120,
      "pill": 2121,
      "##light": 2122,
      "##ered": 2123,
      "sty": 2124,
      "hose": 2125,
      "##ried": 2126,
      "##ading": 2127,
      "stret": 2128,
      "stream": 2129,
      "##ental": 2130,
      "skin": 2131,
      "flies": 2132,
      "tracks": 2133,
      "scaff": 2134,
      "##ection": 2135,
      "singer": 2136,
      "coats": 2137,
      "cafe": 2138,
      "appro": 2139,
      "desert": 2140,
      "telesc": 2141,
      "teeth": 2142,
      "conversing": 2143,
      "pupp": 2144,
      "hoodie": 2145,
      "resting": 2146,
      "swimsuit": 2147,
      "hammer": 2148,
      "daughter": 2149,
      "trunks": 2150,
      "scaffo": 2151,
      "fair": 2152,
      "how": 2153,
      "hur": 2154,
      "karate": 2155,
      "pet": 2156,
      "racket": 2157,
      "town": 2158,
      "##lers": 2159,
      "##neath": 2160,
      "##iers": 2161,
      "##ient": 2162,
      "##wards": 2163,
      "##work": 2164,
      "stack": 2165,
      "hoop": 2166,
      "cold": 2167,
      "was": 2168,
      "underneath": 2169,
      "held": 2170,
      "plants": 2171,
      "deck": 2172,
      "balc": 2173,
      "##ages": 2174,
      "jogging": 2175,
      "points": 2176,
      "contain": 2177,
      "square": 2178,
      "wrestling": 2179,
      "sleeve": 2180,
      "splashing": 2181,
      "suspend": 2182,
      "telescope": 2183,
      "Kids": 2184,
      "cent": 2185,
      "hear": 2186,
      "must": 2187,
      "su": 2188,
      "##oes": 2189,
      "##nival": 2190,
      "##its": 2191,
      "##arrow": 2192,
      "##ront": 2193,
      "step": 2194,
      "without": 2195,
      "##opes": 2196,
      "##selves": 2197,
      "##key": 2198,
      "colle": 2199,
      "help": 2200,
      "##oline": 2201,
      "themselves": 2202,
      "underw": 2203,
      "moving": 2204,
      "exc": 2205,
      "cane": 2206,
      "passeng": 2207,
      "sax": 2208,
      "##scape": 2209,
      "hula": 2210,
      "books": 2211,
      "shoulders": 2212,
      "curly": 2213,
      "padd": 2214,
      "spray": 2215,
      "magaz": 2216,
      "##ophone": 2217,
      "including": 2218,
      "Old": 2219,
      "crying": 2220,
      "cyclist": 2221,
      "kind": 2222,
      "mess": 2223,
      "mural": 2224,
      "ret": 2225,
      "tong": 2226,
      "wire": 2227,
      "wine": 2228,
      "wets": 2229,
      "##fting": 2230,
      "##cy": 2231,
      "##ife": 2232,
      "##ina": 2233,
      "##erman": 2234,
      "shoo": 2235,
      "taken": 2236,
      "carnival": 2237,
      "tramp": 2238,
      "paved": 2239,
      "##ute": 2240,
      "bicyclist": 2241,
      "wooded": 2242,
      "tricks": 2243,
      "barb": 2244,
      "crosswalk": 2245,
      "matching": 2246,
      "hiker": 2247,
      "makeup": 2248,
      "opposing": 2249,
      "kayak": 2250,
      "circle": 2251,
      "individuals": 2252,
      "dinner": 2253,
      "produce": 2254,
      "Small": 2255,
      "Workers": 2256,
      "pulled": 2257,
      "wetsuit": 2258,
      "trampoline": 2259,
      "fig": 2260,
      "fight": 2261,
      "lone": 2262,
      "ter": 2263,
      "wea": 2264,
      "##line": 2265,
      "##ual": 2266,
      "##ught": 2267,
      "spot": 2268,
      "performer": 2269,
      "picnic": 2270,
      "dances": 2271,
      "##ending": 2272,
      "brus": 2273,
      "rece": 2274,
      "surface": 2275,
      "rolling": 2276,
      "wheelchair": 2277,
      "knee": 2278,
      "closed": 2279,
      "nose": 2280,
      "attempts": 2281,
      "refle": 2282,
      "infl": 2283,
      "infant": 2284,
      "formal": 2285,
      "members": 2286,
      "cheerlead": 2287,
      "stuffed": 2288,
      "profession": 2289,
      "sewing": 2290,
      "cu": 2291,
      "cri": 2292,
      "led": 2293,
      "na": 2294,
      "ring": 2295,
      "rug": 2296,
      "sale": 2297,
      "war": 2298,
      "##tom": 2299,
      "##ital": 2300,
      "##let": 2301,
      "##ara": 2302,
      "##ature": 2303,
      "##icycle": 2304,
      "blouse": 2305,
      "##ster": 2306,
      "third": 2307,
      "##riental": 2308,
      "##self": 2309,
      "bever": 2310,
      "These": 2311,
      "pos": 2312,
      "##ular": 2313,
      "speed": 2314,
      "goes": 2315,
      "himself": 2316,
      "slope": 2317,
      "lays": 2318,
      "bottom": 2319,
      "opening": 2320,
      "pushes": 2321,
      "##ects": 2322,
      "turn": 2323,
      "button": 2324,
      "##estrians": 2325,
      "softball": 2326,
      "balcony": 2327,
      "center": 2328,
      "bent": 2329,
      "gest": 2330,
      "jugg": 2331,
      "lunch": 2332,
      "mop": 2333,
      "put": 2334,
      "rub": 2335,
      "see": 2336,
      "tile": 2337,
      "##od": 2338,
      "##rink": 2339,
      "##yard": 2340,
      "##band": 2341,
      "##ger": 2342,
      "##rop": 2343,
      "chases": 2344,
      "cond": 2345,
      "skis": 2346,
      "sprink": 2347,
      "cons": 2348,
      "dry": 2349,
      "##ipe": 2350,
      "sandy": 2351,
      "device": 2352,
      "most": 2353,
      "staircase": 2354,
      "pulls": 2355,
      "boxes": 2356,
      "speaks": 2357,
      "puts": 2358,
      "##artment": 2359,
      "athlete": 2360,
      "cook": 2361,
      "fallen": 2362,
      "gaz": 2363,
      "puddle": 2364,
      "##dium": 2365,
      "##lane": 2366,
      "##bla": 2367,
      "##ipping": 2368,
      "##road": 2369,
      "##atting": 2370,
      "ste": 2371,
      "stare": 2372,
      "##esting": 2373,
      "podium": 2374,
      "##emon": 2375,
      "overalls": 2376,
      "travel": 2377,
      "camp": 2378,
      "covering": 2379,
      "enjoys": 2380,
      "drives": 2381,
      "design": 2382,
      "tele": 2383,
      "##place": 2384,
      "shaking": 2385,
      "robe": 2386,
      "grocery": 2387,
      "Guy": 2388,
      "fresh": 2389,
      "keyboard": 2390,
      "festival": 2391,
      "At": 2392,
      "New": 2393,
      "Older": 2394,
      "Se": 2395,
      "bin": 2396,
      "bou": 2397,
      "den": 2398,
      "farm": 2399,
      "fenc": 2400,
      "gate": 2401,
      "jean": 2402,
      "mound": 2403,
      "nice": 2404,
      "pan": 2405,
      "pian": 2406,
      "porch": 2407,
      "rem": 2408,
      "tw": 2409,
      "##ced": 2410,
      "##uc": 2411,
      "##gon": 2412,
      "##ang": 2413,
      "inv": 2414,
      "##ited": 2415,
      "stool": 2416,
      "steep": 2417,
      "##icem": 2418,
      "chalk": 2419,
      "##ctive": 2420,
      "##vement": 2421,
      "##apan": 2422,
      "##apers": 2423,
      "bicyclists": 2424,
      "dancer": 2425,
      "guard": 2426,
      "marching": 2427,
      "sheet": 2428,
      "windows": 2429,
      "driver": 2430,
      "kicks": 2431,
      "hikers": 2432,
      "shaving": 2433,
      "gentlemen": 2434,
      "curb": 2435,
      "paddle": 2436,
      "birds": 2437,
      "pitcher": 2438,
      "##ails": 2439,
      "robes": 2440,
      "grind": 2441,
      "teenagers": 2442,
      "fingers": 2443,
      "type": 2444,
      "cloudy": 2445,
      "heavy": 2446,
      "waterfall": 2447,
      "customers": 2448,
      "laundry": 2449,
      "pouring": 2450,
      "AT": 2451,
      "Here": 2452,
      "don": 2453,
      "dust": 2454,
      "gl": 2455,
      "groom": 2456,
      "low": 2457,
      "mer": 2458,
      "oriental": 2459,
      "palm": 2460,
      "##ex": 2461,
      "##ca": 2462,
      "##com": 2463,
      "##cial": 2464,
      "##pt": 2465,
      "##ls": 2466,
      "##suit": 2467,
      "##range": 2468,
      "##ift": 2469,
      "##cket": 2470,
      "shap": 2471,
      "arena": 2472,
      "carp": 2473,
      "poles": 2474,
      "polo": 2475,
      "backyard": 2476,
      "fash": 2477,
      "blocks": 2478,
      "lies": 2479,
      "attached": 2480,
      "lots": 2481,
      "colors": 2482,
      "sheep": 2483,
      "foreign": 2484,
      "evening": 2485,
      "hangs": 2486,
      "oppos": 2487,
      "reaches": 2488,
      "checking": 2489,
      "golden": 2490,
      "shoveling": 2491,
      "##uggage": 2492,
      "teenager": 2493,
      "local": 2494,
      "airplane": 2495,
      "wrapped": 2496,
      "protective": 2497,
      "khaki": 2498,
      "hurdle": 2499,
      "paddling": 2500,
      "shooting": 2501,
      "barbec": 2502,
      "ledge": 2503,
      "piano": 2504,
      "fashion": 2505,
      "opposite": 2506,
      "\".": 2507,
      "Japan": 2508,
      "esc": 2509,
      "luggage": 2510,
      "pair": 2511,
      "port": 2512,
      "vac": 2513,
      "##fer": 2514,
      "##flage": 2515,
      "##py": 2516,
      "##pan": 2517,
      "##be": 2518,
      "##bat": 2519,
      "##jam": 2520,
      "##inning": 2521,
      "##itor": 2522,
      "##ret": 2523,
      "##atable": 2524,
      "##ord": 2525,
      "##ouflage": 2526,
      "ship": 2527,
      "##ersk": 2528,
      "doll": 2529,
      "poss": 2530,
      "skirts": 2531,
      "raft": 2532,
      "##tered": 2533,
      "cones": 2534,
      "pavement": 2535,
      "pajam": 2536,
      "fabr": 2537,
      "camouflage": 2538,
      "##anta": 2539,
      "adj": 2540,
      "chest": 2541,
      "bran": 2542,
      "jumpsuit": 2543,
      "bandan": 2544,
      "def": 2545,
      "##aged": 2546,
      "clear": 2547,
      "policem": 2548,
      "oppon": 2549,
      "feed": 2550,
      "poster": 2551,
      "balancing": 2552,
      "approa": 2553,
      "saxophone": 2554,
      "tongue": 2555,
      "inflatable": 2556,
      "position": 2557,
      "denim": 2558,
      "fenced": 2559,
      "cool": 2560,
      "di": 2561,
      "eats": 2562,
      "far": 2563,
      "feat": 2564,
      "sum": 2565,
      "sup": 2566,
      "wild": 2567,
      "##tes": 2568,
      "##time": 2569,
      "##ka": 2570,
      "buying": 2571,
      "##elf": 2572,
      "##oney": 2573,
      "flor": 2574,
      "flight": 2575,
      "orn": 2576,
      "tractor": 2577,
      "beam": 2578,
      "headsc": 2579,
      "walls": 2580,
      "pret": 2581,
      "married": 2582,
      "##tyard": 2583,
      "motorcycles": 2584,
      "courtyard": 2585,
      "laughs": 2586,
      "kiss": 2587,
      "railroad": 2588,
      "##ertain": 2589,
      "refer": 2590,
      "floating": 2591,
      "goalie": 2592,
      "image": 2593,
      "frame": 2594,
      "skinned": 2595,
      "professional": 2596,
      "juggling": 2597,
      "escal": 2598,
      "fabric": 2599,
      "Dog": 2600,
      "Male": 2601,
      "Santa": 2602,
      "aw": 2603,
      "american": 2604,
      "eith": 2605,
      "fill": 2606,
      "ju": 2607,
      "pig": 2608,
      "rout": 2609,
      "sim": 2610,
      "six": 2611,
      "trip": 2612,
      "##ten": 2613,
      "##day": 2614,
      "##land": 2615,
      "##shes": 2616,
      "##oustic": 2617,
      "shown": 2618,
      "toss": 2619,
      "##elling": 2620,
      "club": 2621,
      "backwards": 2622,
      "riders": 2623,
      "socks": 2624,
      "tops": 2625,
      "acoustic": 2626,
      "cheering": 2627,
      "boats": 2628,
      "towel": 2629,
      "mod": 2630,
      "moves": 2631,
      "firef": 2632,
      "sail": 2633,
      "marketplace": 2634,
      "rollersk": 2635,
      "bread": 2636,
      "bucking": 2637,
      "carriage": 2638,
      "meet": 2639,
      "jerseys": 2640,
      "entertain": 2641,
      "happily": 2642,
      "##tiple": 2643,
      "soldier": 2644,
      "soldiers": 2645,
      "garbage": 2646,
      "touching": 2647,
      "tools": 2648,
      "goods": 2649,
      "scaffolding": 2650,
      "suspended": 2651,
      "carpet": 2652,
      "pajamas": 2653,
      "bandanna": 2654,
      "floral": 2655,
      "either": 2656,
      "Che": 2657,
      "German": 2658,
      "Ro": 2659,
      "So": 2660,
      "boun": 2661,
      "broom": 2662,
      "dining": 2663,
      "egg": 2664,
      "emer": 2665,
      "fans": 2666,
      "tar": 2667,
      "##ma": 2668,
      "##cts": 2669,
      "##vis": 2670,
      "stor": 2671,
      "##oping": 2672,
      "shade": 2673,
      "plaza": 2674,
      "chop": 2675,
      "##stra": 2676,
      "##stac": 2677,
      "thum": 2678,
      "hay": 2679,
      "##ention": 2680,
      "snack": 2681,
      "fly": 2682,
      "rac": 2683,
      "##lymp": 2684,
      "parach": 2685,
      "##ipes": 2686,
      "##asian": 2687,
      "living": 2688,
      "##ations": 2689,
      "paints": 2690,
      "teamm": 2691,
      "plant": 2692,
      "barrel": 2693,
      "caught": 2694,
      "obstac": 2695,
      "backpacks": 2696,
      "hooded": 2697,
      "animals": 2698,
      "serving": 2699,
      "kneels": 2700,
      "welding": 2701,
      "landscape": 2702,
      "float": 2703,
      "sleeved": 2704,
      "athletic": 2705,
      "raised": 2706,
      "airport": 2707,
      "stove": 2708,
      "peace": 2709,
      "advertisement": 2710,
      "White": 2711,
      "style": 2712,
      "supp": 2713,
      "underwater": 2714,
      "magazine": 2715,
      "rugby": 2716,
      "Seven": 2717,
      "##ucasian": 2718,
      "invol": 2719,
      "escalator": 2720,
      "model": 2721,
      ".\"": 2722,
      "Ar": 2723,
      "Ca": 2724,
      "York": 2725,
      "action": 2726,
      "cer": 2727,
      "dread": 2728,
      "money": 2729,
      "pony": 2730,
      "pige": 2731,
      "pipe": 2732,
      "use": 2733,
      "##mers": 2734,
      "##tor": 2735,
      "##oh": 2736,
      "##hood": 2737,
      "##bile": 2738,
      "##ible": 2739,
      "##erc": 2740,
      "##erby": 2741,
      "##res": 2742,
      "##rol": 2743,
      "##ister": 2744,
      "##ooks": 2745,
      "thrown": 2746,
      "##ently": 2747,
      "gravel": 2748,
      "runners": 2749,
      "neon": 2750,
      "##tery": 2751,
      "##chestra": 2752,
      "##used": 2753,
      "fast": 2754,
      "hairc": 2755,
      "liqu": 2756,
      "climber": 2757,
      "plane": 2758,
      "storef": 2759,
      "drive": 2760,
      "saw": 2761,
      "polka": 2762,
      "foc": 2763,
      "trump": 2764,
      "amuse": 2765,
      "student": 2766,
      "jockey": 2767,
      "grilling": 2768,
      "checkered": 2769,
      "seems": 2770,
      "rollerbla": 2771,
      "tube": 2772,
      "neckla": 2773,
      "kaya": 2774,
      "finger": 2775,
      "decorated": 2776,
      "examining": 2777,
      "participating": 2778,
      "operating": 2779,
      "harness": 2780,
      "bending": 2781,
      "brushing": 2782,
      "shaped": 2783,
      "referee": 2784,
      "obstacle": 2785,
      "amusement": 2786,
      "Blo": 2787,
      "Sh": 2788,
      "Sk": 2789,
      "bla": 2790,
      "cone": 2791,
      "care": 2792,
      "cyclists": 2793,
      "dump": 2794,
      "emb": 2795,
      "fir": 2796,
      "fen": 2797,
      "half": 2798,
      "jung": 2799,
      "ropes": 2800,
      "try": 2801,
      "wide": 2802,
      "warm": 2803,
      "youth": 2804,
      "##med": 2805,
      "##hound": 2806,
      "stri": 2807,
      "sharing": 2808,
      "thin": 2809,
      "things": 2810,
      "redhead": 2811,
      "##ilt": 2812,
      "beg": 2813,
      "map": 2814,
      "outst": 2815,
      "orchestra": 2816,
      "sport": 2817,
      "spread": 2818,
      "wagon": 2819,
      "##ighters": 2820,
      "adm": 2821,
      "benches": 2822,
      "sandw": 2823,
      "teacher": 2824,
      "heels": 2825,
      "motorb": 2826,
      "exh": 2827,
      "exerc": 2828,
      "cast": 2829,
      "sets": 2830,
      "ribb": 2831,
      "sticking": 2832,
      "##ewel": 2833,
      "compete": 2834,
      "frisbee": 2835,
      "studio": 2836,
      "hitting": 2837,
      "attempt": 2838,
      "patter": 2839,
      "practice": 2840,
      "vehicles": 2841,
      "pitch": 2842,
      "protest": 2843,
      "photographs": 2844,
      "knit": 2845,
      "muddy": 2846,
      "bathroom": 2847,
      "individual": 2848,
      "crouches": 2849,
      "candy": 2850,
      "pedestrians": 2851,
      "hallway": 2852,
      "print": 2853,
      "presentation": 2854,
      "activ": 2855,
      "heart": 2856,
      "musta": 2857,
      "Japanese": 2858,
      "opponent": 2859,
      "summer": 2860,
      "headscarf": 2861,
      "haircut": 2862,
      "jungle": 2863,
      "Brown": 2864,
      "Olymp": 2865,
      "amp": 2866,
      "ble": 2867,
      "free": 2868,
      "jewel": 2869,
      "lan": 2870,
      "native": 2871,
      "rowing": 2872,
      "rests": 2873,
      "sack": 2874,
      "sink": 2875,
      "sized": 2876,
      "you": 2877,
      "##cc": 2878,
      "##dress": 2879,
      "##so": 2880,
      "##yhound": 2881,
      "##bow": 2882,
      "##iet": 2883,
      "##ky": 2884,
      "##zer": 2885,
      "##iny": 2886,
      "##inery": 2887,
      "##erial": 2888,
      "only": 2889,
      "start": 2890,
      "##etra": 2891,
      "##iddle": 2892,
      "shoot": 2893,
      "##isting": 2894,
      "##unk": 2895,
      "##cend": 2896,
      "##umn": 2897,
      "##ility": 2898,
      "##cted": 2899,
      "neigh": 2900,
      "sword": 2901,
      "bill": 2902,
      "##rench": 2903,
      "order": 2904,
      "spee": 2905,
      "##ured": 2906,
      "racer": 2907,
      "##ycling": 2908,
      "also": 2909,
      "arch": 2910,
      "guitars": 2911,
      "##ggy": 2912,
      "skateboards": 2913,
      "motoc": 2914,
      "leaf": 2915,
      "slides": 2916,
      "dish": 2917,
      "appl": 2918,
      "machinery": 2919,
      "drummer": 2920,
      "cleans": 2921,
      "snowboarding": 2922,
      "eleph": 2923,
      "patio": 2924,
      "fruits": 2925,
      "entr": 2926,
      "garage": 2927,
      "sporting": 2928,
      "ears": 2929,
      "ceiling": 2930,
      "##thnic": 2931,
      "##ibly": 2932,
      "muzz": 2933,
      "excited": 2934,
      "passengers": 2935,
      "figure": 2936,
      "barbecue": 2937,
      "adjus": 2938,
      "policeman": 2939,
      "feeding": 2940,
      "racetra": 2941,
      "mustache": 2942,
      "speech": 2943,
      "motocross": 2944,
      "racetrack": 2945,
      "Br": 2946,
      "BM": 2947,
      "Co": 2948,
      "Crowd": 2949,
      "Lad": 2950,
      "On": 2951,
      "She": 2952,
      "aqu": 2953,
      "dim": 2954,
      "ext": 2955,
      "hou": 2956,
      "hers": 2957,
      "lane": 2958,
      "main": 2959,
      "muse": 2960,
      "narrow": 2961,
      "rough": 2962,
      "sy": 2963,
      "sal": 2964,
      "song": 2965,
      "tu": 2966,
      "##jects": 2967,
      "##int": 2968,
      "##ica": 2969,
      "##ersection": 2970,
      "##irth": 2971,
      "blow": 2972,
      "hosp": 2973,
      "##rier": 2974,
      "coach": 2975,
      "tag": 2976,
      "##ult": 2977,
      "##uters": 2978,
      "headband": 2979,
      "surg": 2980,
      "bushes": 2981,
      "##uba": 2982,
      "brush": 2983,
      "rec": 2984,
      "leaving": 2985,
      "baskets": 2986,
      "load": 2987,
      "horseback": 2988,
      "drill": 2989,
      "hillside": 2990,
      "sells": 2991,
      "boardwalk": 2992,
      "bikers": 2993,
      "african": 2994,
      "tran": 2995,
      "apple": 2996,
      "photograp": 2997,
      "puck": 2998,
      "##borhood": 2999,
      "stopped": 3000,
      "electron": 3001,
      "observe": 3002,
      "intersection": 3003,
      "discussion": 3004,
      "##astern": 3005,
      "dune": 3006,
      "petting": 3007,
      "beverage": 3008,
      "ATV": 3009,
      "##ption": 3010,
      "possibly": 3011,
      "routine": 3012,
      "trumpet": 3013,
      "Blond": 3014,
      "sandwich": 3015,
      "exhib": 3016,
      "entrance": 3017,
      "herself": 3018,
      "museum": 3019,
      "hospital": 3020,
      "Fire": 3021,
      "Large": 3022,
      "Mus": 3023,
      "aut": 3024,
      "ahead": 3025,
      "brow": 3026,
      "cal": 3027,
      "dep": 3028,
      "duck": 3029,
      "loung": 3030,
      "mall": 3031,
      "nur": 3032,
      "pen": 3033,
      "rust": 3034,
      "tight": 3035,
      "vil": 3036,
      "##oir": 3037,
      "##hou": 3038,
      "##house": 3039,
      "##gan": 3040,
      "##ior": 3041,
      "##aters": 3042,
      "stones": 3043,
      "dot": 3044,
      "chase": 3045,
      "hoops": 3046,
      "cobble": 3047,
      "tax": 3048,
      "skates": 3049,
      "##boat": 3050,
      "handstand": 3051,
      "scre": 3052,
      "comm": 3053,
      "helps": 3054,
      "##gged": 3055,
      "microphones": 3056,
      "plan": 3057,
      "maroon": 3058,
      "cab": 3059,
      "##loy": 3060,
      "##locks": 3061,
      "##ivers": 3062,
      "dishes": 3063,
      "motorcyclist": 3064,
      "firet": 3065,
      "##aked": 3066,
      "##ecting": 3067,
      "seats": 3068,
      "folding": 3069,
      "buckets": 3070,
      "smoke": 3071,
      "patient": 3072,
      "squatting": 3073,
      "bottles": 3074,
      "silhou": 3075,
      "##awk": 3076,
      "tattooed": 3077,
      "clay": 3078,
      "##pherd": 3079,
      "indoors": 3080,
      "chains": 3081,
      "celebrating": 3082,
      "cardboard": 3083,
      "mixing": 3084,
      "finis": 3085,
      "fancy": 3086,
      "puppy": 3087,
      "container": 3088,
      "terra": 3089,
      "navy": 3090,
      "rubber": 3091,
      "mostly": 3092,
      "##retched": 3093,
      "super": 3094,
      "ornate": 3095,
      "##vision": 3096,
      "fencing": 3097,
      "outstretched": 3098,
      "neighborhood": 3099,
      "Lady": 3100,
      "##irthday": 3101,
      "transp": 3102,
      "Do": 3103,
      "It": 3104,
      "Mar": 3105,
      "cro": 3106,
      "cong": 3107,
      "calf": 3108,
      "dro": 3109,
      "del": 3110,
      "ethnic": 3111,
      "gall": 3112,
      "got": 3113,
      "gas": 3114,
      "hum": 3115,
      "kite": 3116,
      "lamp": 3117,
      "lines": 3118,
      "odd": 3119,
      "pump": 3120,
      "pee": 3121,
      "rink": 3122,
      "rural": 3123,
      "wife": 3124,
      "##ai": 3125,
      "##eb": 3126,
      "##fa": 3127,
      "##cess": 3128,
      "##des": 3129,
      "##per": 3130,
      "##pical": 3131,
      "##uum": 3132,
      "##nit": 3133,
      "##genc": 3134,
      "##reet": 3135,
      "##lded": 3136,
      "##ident": 3137,
      "##ically": 3138,
      "doctor": 3139,
      "blows": 3140,
      "##herman": 3141,
      "choir": 3142,
      "##stick": 3143,
      "##ames": 3144,
      "buy": 3145,
      "##ilar": 3146,
      "bean": 3147,
      "##ions": 3148,
      "carving": 3149,
      "baller": 3150,
      "flops": 3151,
      "flipping": 3152,
      "spar": 3153,
      "spoon": 3154,
      "spinning": 3155,
      "scuba": 3156,
      "guitarist": 3157,
      "paras": 3158,
      "item": 3159,
      "##ends": 3160,
      "##illy": 3161,
      "uniformed": 3162,
      "chee": 3163,
      "swimmer": 3164,
      "##quet": 3165,
      "stripes": 3166,
      "bars": 3167,
      "coloring": 3168,
      "bagp": 3169,
      "balance": 3170,
      "hugs": 3171,
      "newly": 3172,
      "pieces": 3173,
      "crew": 3174,
      "##brary": 3175,
      "apartment": 3176,
      "boxing": 3177,
      "amid": 3178,
      "turning": 3179,
      "smokes": 3180,
      "crafts": 3181,
      "control": 3182,
      "hotd": 3183,
      "scenery": 3184,
      "Stud": 3185,
      "Street": 3186,
      "belt": 3187,
      "bowls": 3188,
      "tattoos": 3189,
      "grand": 3190,
      "funny": 3191,
      "spraying": 3192,
      "member": 3193,
      "medical": 3194,
      "crouching": 3195,
      "leading": 3196,
      "great": 3197,
      "inspecting": 3198,
      "burg": 3199,
      "finish": 3200,
      "moment": 3201,
      "stretching": 3202,
      "sleeveless": 3203,
      "reflective": 3204,
      "cheerleaders": 3205,
      "cricket": 3206,
      "condu": 3207,
      "stares": 3208,
      "##emonstr": 3209,
      "grinding": 3210,
      "merch": 3211,
      "vacuum": 3212,
      "##ference": 3213,
      "dreadlocks": 3214,
      "storefront": 3215,
      "embra": 3216,
      "first": 3217,
      "firetruck": 3218,
      "##niture": 3219,
      "##gency": 3220,
      "Middle": 3221,
      "Run": 3222,
      "bun": 3223,
      "birthday": 3224,
      "calm": 3225,
      "dead": 3226,
      "derby": 3227,
      "demonstr": 3228,
      "fle": 3229,
      "let": 3230,
      "live": 3231,
      "name": 3232,
      "naked": 3233,
      "pop": 3234,
      "pri": 3235,
      "rel": 3236,
      "rap": 3237,
      "tied": 3238,
      "##eled": 3239,
      "##tails": 3240,
      "##son": 3241,
      "##ots": 3242,
      "##ues": 3243,
      "##ral": 3244,
      "##ked": 3245,
      "##we": 3246,
      "##ites": 3247,
      "##reg": 3248,
      "##iring": 3249,
      "stom": 3250,
      "##ider": 3251,
      "share": 3252,
      "doors": 3253,
      "ange": 3254,
      "chick": 3255,
      "bass": 3256,
      "bund": 3257,
      "##ilts": 3258,
      "##ighter": 3259,
      "backs": 3260,
      "##rents": 3261,
      "fluff": 3262,
      "##ians": 3263,
      "conference": 3264,
      "sofa": 3265,
      "unicycle": 3266,
      "comfor": 3267,
      "parti": 3268,
      "##asium": 3269,
      "##ender": 3270,
      "library": 3271,
      "chew": 3272,
      "reg": 3273,
      "##athers": 3274,
      "compan": 3275,
      "computers": 3276,
      "dec": 3277,
      "moder": 3278,
      "objects": 3279,
      "balding": 3280,
      "material": 3281,
      "nighttime": 3282,
      "batter": 3283,
      "stairway": 3284,
      "surrounding": 3285,
      "##izza": 3286,
      "corn": 3287,
      "wheels": 3288,
      "rainy": 3289,
      "viewing": 3290,
      "reach": 3291,
      "listens": 3292,
      "seem": 3293,
      "##ctory": 3294,
      "Girls": 3295,
      "gymnasium": 3296,
      "banner": 3297,
      "raises": 3298,
      "intently": 3299,
      "candles": 3300,
      "crane": 3301,
      "balances": 3302,
      "broken": 3303,
      "following": 3304,
      "discussing": 3305,
      "greyhound": 3306,
      "furniture": 3307,
      "cuts": 3308,
      "moped": 3309,
      "approaching": 3310,
      "similar": 3311,
      "pigeons": 3312,
      "motorbike": 3313,
      "BMX": 3314,
      "dimly": 3315,
      "houses": 3316,
      "fluffy": 3317,
      "partially": 3318,
      "20": 3319,
      "Ad": 3320,
      "Eu": 3321,
      "US": 3322,
      "cop": 3323,
      "fet": 3324,
      "keep": 3325,
      "lear": 3326,
      "lick": 3327,
      "lect": 3328,
      "more": 3329,
      "nets": 3330,
      "nature": 3331,
      "pine": 3332,
      "power": 3333,
      "papers": 3334,
      "sad": 3335,
      "tick": 3336,
      "weather": 3337,
      "##town": 3338,
      "##tops": 3339,
      "##da": 3340,
      "##view": 3341,
      "##inis": 3342,
      "##erous": 3343,
      "theater": 3344,
      "##orts": 3345,
      "##iss": 3346,
      "##stone": 3347,
      "##urity": 3348,
      "groups": 3349,
      "carry": 3350,
      "clut": 3351,
      "forward": 3352,
      "organ": 3353,
      "space": 3354,
      "smaller": 3355,
      "##boarder": 3356,
      "sco": 3357,
      "##rucks": 3358,
      "##ways": 3359,
      "beneath": 3360,
      "horn": 3361,
      "lifting": 3362,
      "record": 3363,
      "slight": 3364,
      "photos": 3365,
      "plates": 3366,
      "barber": 3367,
      "mobile": 3368,
      "crosses": 3369,
      "training": 3370,
      "fireman": 3371,
      "hang": 3372,
      "push": 3373,
      "catcher": 3374,
      "turns": 3375,
      "shaved": 3376,
      "rainbow": 3377,
      "hits": 3378,
      "official": 3379,
      "trailer": 3380,
      "flowered": 3381,
      "shovels": 3382,
      "##born": 3383,
      "wrestle": 3384,
      "exper": 3385,
      "clad": 3386,
      "interac": 3387,
      "amongst": 3388,
      "observing": 3389,
      "raising": 3390,
      "shades": 3391,
      "participate": 3392,
      "advertising": 3393,
      "heav": 3394,
      "follows": 3395,
      "While": 3396,
      "starting": 3397,
      "security": 3398,
      "engaged": 3399,
      "directions": 3400,
      "college": 3401,
      "retur": 3402,
      "television": 3403,
      "binoc": 3404,
      "remo": 3405,
      "branch": 3406,
      "teammate": 3407,
      "liquid": 3408,
      "necklace": 3409,
      "castle": 3410,
      "ribbon": 3411,
      "jewelry": 3412,
      "billboard": 3413,
      "elephant": 3414,
      "electronic": 3415,
      "called": 3416,
      "lounging": 3417,
      "village": 3418,
      "taxi": 3419,
      "stomach": 3420,
      "modern": 3421,
      "City": 3422,
      "Ho": 3423,
      "Lond": 3424,
      "Pol": 3425,
      "Red": 3426,
      "ais": 3427,
      "cree": 3428,
      "dus": 3429,
      "dough": 3430,
      "feather": 3431,
      "gown": 3432,
      "gift": 3433,
      "id": 3434,
      "iron": 3435,
      "mit": 3436,
      "mini": 3437,
      "occ": 3438,
      "press": 3439,
      "sem": 3440,
      "silly": 3441,
      "tee": 3442,
      "wo": 3443,
      "wig": 3444,
      "wading": 3445,
      "##min": 3446,
      "##mat": 3447,
      "##ef": 3448,
      "##eu": 3449,
      "##cade": 3450,
      "##pers": 3451,
      "##lish": 3452,
      "##shed": 3453,
      "##ucks": 3454,
      "##hap": 3455,
      "##hus": 3456,
      "##barrow": 3457,
      "##inger": 3458,
      "##erlead": 3459,
      "##itors": 3460,
      "##arves": 3461,
      "##ato": 3462,
      "##ately": 3463,
      "##orting": 3464,
      "##eds": 3465,
      "##eter": 3466,
      "##outs": 3467,
      "whil": 3468,
      "shining": 3469,
      "##ices": 3470,
      "##ounge": 3471,
      "##eakers": 3472,
      "ang": 3473,
      "chara": 3474,
      "##very": 3475,
      "bul": 3476,
      "downtown": 3477,
      "bystand": 3478,
      "upon": 3479,
      "poor": 3480,
      "skill": 3481,
      "biking": 3482,
      "##ulars": 3483,
      "snowsh": 3484,
      "snowsuit": 3485,
      "spec": 3486,
      "races": 3487,
      "sol": 3488,
      "fake": 3489,
      "factory": 3490,
      "camel": 3491,
      "airbor": 3492,
      "cameras": 3493,
      "shops": 3494,
      "loading": 3495,
      "tents": 3496,
      "fisherman": 3497,
      "##ively": 3498,
      "cape": 3499,
      "caps": 3500,
      "desc": 3501,
      "##vely": 3502,
      "newborn": 3503,
      "tech": 3504,
      "machines": 3505,
      "##izing": 3506,
      "trans": 3507,
      "tricycle": 3508,
      "wheelbarrow": 3509,
      "shakes": 3510,
      "job": 3511,
      "cray": 3512,
      "glove": 3513,
      "protesting": 3514,
      "employ": 3515,
      "closeup": 3516,
      "splashes": 3517,
      "pottery": 3518,
      "quick": 3519,
      "watersk": 3520,
      "casual": 3521,
      "##coat": 3522,
      "chefs": 3523,
      "trunk": 3524,
      "guns": 3525,
      "follow": 3526,
      "leads": 3527,
      "tourists": 3528,
      "repairs": 3529,
      "peering": 3530,
      "engine": 3531,
      "straight": 3532,
      "pillow": 3533,
      "passenger": 3534,
      "weaving": 3535,
      "receiving": 3536,
      "sprinkler": 3537,
      "steel": 3538,
      "donkey": 3539,
      "Cheerlead": 3540,
      "Soccer": 3541,
      "target": 3542,
      "Caucasian": 3543,
      "redheaded": 3544,
      "admiring": 3545,
      "bleach": 3546,
      "photographed": 3547,
      "cobblestone": 3548,
      "scream": 3549,
      "terrain": 3550,
      "transport": 3551,
      "congreg": 3552,
      "ballerina": 3553,
      "Students": 3554,
      "angel": 3555,
      "slightly": 3556,
      "interacting": 3557,
      "binoculars": 3558,
      "London": 3559,
      "aisle": 3560,
      "##husi": 3561,
      "whilst": 3562,
      "charact": 3563,
      "airborne": 3564,
      "Cheerleaders": 3565,
      "Mc": 3566,
      "Mul": 3567,
      "Pla": 3568,
      "Sc": 3569,
      "Tour": 3570,
      "bound": 3571,
      "craw": 3572,
      "imp": 3573,
      "jet": 3574,
      "lounge": 3575,
      "mis": 3576,
      "may": 3577,
      "own": 3578,
      "oven": 3579,
      "pr": 3580,
      "pay": 3581,
      "pizza": 3582,
      "rick": 3583,
      "tom": 3584,
      "tor": 3585,
      "ump": 3586,
      "wings": 3587,
      "##act": 3588,
      "##ms": 3589,
      "##eg": 3590,
      "##can": 3591,
      "##cross": 3592,
      "##tain": 3593,
      "##dan": 3594,
      "##lor": 3595,
      "##lley": 3596,
      "##uts": 3597,
      "##ually": 3598,
      "##yl": 3599,
      "##hill": 3600,
      "##nam": 3601,
      "##bby": 3602,
      "##bling": 3603,
      "##ipp": 3604,
      "##kin": 3605,
      "##val": 3606,
      "##vie": 3607,
      "##vig": 3608,
      "##wor": 3609,
      "##wood": 3610,
      "##ze": 3611,
      "##zen": 3612,
      "##ino": 3613,
      "instru": 3614,
      "##onal": 3615,
      "##oned": 3616,
      "##ument": 3617,
      "coaster": 3618,
      "##iment": 3619,
      "waterway": 3620,
      "carts": 3621,
      "##box": 3622,
      "sniff": 3623,
      "sneakers": 3624,
      "##emony": 3625,
      "flute": 3626,
      "spi": 3627,
      "overhead": 3628,
      "handle": 3629,
      "social": 3630,
      "scru": 3631,
      "come": 3632,
      "headed": 3633,
      "##shaw": 3634,
      "checks": 3635,
      "swimmers": 3636,
      "teaching": 3637,
      "attention": 3638,
      "tower": 3639,
      "loom": 3640,
      "barrier": 3641,
      "debr": 3642,
      "leot": 3643,
      "sailing": 3644,
      "hug": 3645,
      "tex": 3646,
      "##izon": 3647,
      "studying": 3648,
      "praying": 3649,
      "converse": 3650,
      "laptops": 3651,
      "craft": 3652,
      "contest": 3653,
      "patch": 3654,
      "cups": 3655,
      "entering": 3656,
      "enthusi": 3657,
      "butter": 3658,
      "##ocal": 3659,
      "landing": 3660,
      "##undy": 3661,
      "flips": 3662,
      "breakdan": 3663,
      "express": 3664,
      "tropical": 3665,
      "observes": 3666,
      "shadow": 3667,
      "examines": 3668,
      "tires": 3669,
      "##ific": 3670,
      "waterfront": 3671,
      "customer": 3672,
      "groceries": 3673,
      "messy": 3674,
      "spotted": 3675,
      "navig": 3676,
      "gestures": 3677,
      "consisting": 3678,
      "telephone": 3679,
      "paddles": 3680,
      "portra": 3681,
      "pretty": 3682,
      "firefighters": 3683,
      "meeting": 3684,
      "eggs": 3685,
      "thumbs": 3686,
      "ceremony": 3687,
      "lanter": 3688,
      "browsing": 3689,
      "commun": 3690,
      "chainsaw": 3691,
      "burgundy": 3692,
      "##weight": 3693,
      "dusk": 3694,
      "mitt": 3695,
      "bleachers": 3696,
      "Multiple": 3697,
      "rickshaw": 3698,
      "debris": 3699,
      "Bl": 3700,
      "Bear": 3701,
      "Com": 3702,
      "Col": 3703,
      "Female": 3704,
      "Joh": 3705,
      "Ph": 3706,
      "To": 3707,
      "Teen": 3708,
      "aim": 3709,
      "ber": 3710,
      "bor": 3711,
      "bite": 3712,
      "call": 3713,
      "crown": 3714,
      "eight": 3715,
      "fu": 3716,
      "fit": 3717,
      "fol": 3718,
      "give": 3719,
      "games": 3720,
      "hus": 3721,
      "if": 3722,
      "lar": 3723,
      "pood": 3724,
      "ru": 3725,
      "sen": 3726,
      "sides": 3727,
      "tug": 3728,
      "yog": 3729,
      "##my": 3730,
      "##mel": 3731,
      "##mark": 3732,
      "##fire": 3733,
      "##tim": 3734,
      "##tub": 3735,
      "##ded": 3736,
      "##lit": 3737,
      "##lies": 3738,
      "##sks": 3739,
      "##ham": 3740,
      "##bies": 3741,
      "##gu": 3742,
      "##anad": 3743,
      "##anish": 3744,
      "inj": 3745,
      "##ities": 3746,
      "##rent": 3747,
      "##arn": 3748,
      "##arter": 3749,
      "##rope": 3750,
      "##robat": 3751,
      "##enting": 3752,
      "str": 3753,
      "still": 3754,
      "stops": 3755,
      "strange": 3756,
      "##orm": 3757,
      "##andise": 3758,
      "places": 3759,
      "##rail": 3760,
      "##eas": 3761,
      "##lly": 3762,
      "blur": 3763,
      "blood": 3764,
      "shirted": 3765,
      "bamb": 3766,
      "##umin": 3767,
      "##ama": 3768,
      "##ilot": 3769,
      "been": 3770,
      "tape": 3771,
      "watermel": 3772,
      "backd": 3773,
      "world": 3774,
      "mass": 3775,
      "masc": 3776,
      "skaters": 3777,
      "##ults": 3778,
      "overweight": 3779,
      "handing": 3780,
      "wares": 3781,
      "soap": 3782,
      "scra": 3783,
      "score": 3784,
      "scoot": 3785,
      "science": 3786,
      "lacross": 3787,
      "performers": 3788,
      "comes": 3789,
      "heading": 3790,
      "headdress": 3791,
      "colla": 3792,
      "##ude": 3793,
      "accom": 3794,
      "bricks": 3795,
      "brief": 3796,
      "##olate": 3797,
      "adv": 3798,
      "horizon": 3799,
      "unique": 3800,
      "chess": 3801,
      "recl": 3802,
      "purch": 3803,
      "suitcase": 3804,
      "##quo": 3805,
      "attra": 3806,
      "attending": 3807,
      "trib": 3808,
      "movie": 3809,
      "tread": 3810,
      "forehead": 3811,
      "firemen": 3812,
      "descend": 3813,
      "teal": 3814,
      "paperwork": 3815,
      "##brush": 3816,
      "wheelie": 3817,
      "knees": 3818,
      "listen": 3819,
      "hotel": 3820,
      "vendors": 3821,
      "Boys": 3822,
      "sele": 3823,
      "blankets": 3824,
      "newspapers": 3825,
      "wrestler": 3826,
      "knife": 3827,
      "alleyway": 3828,
      "clapping": 3829,
      "countryside": 3830,
      "monument": 3831,
      "banan": 3832,
      "banjo": 3833,
      "##bbing": 3834,
      "trolley": 3835,
      "sweeps": 3836,
      "shadows": 3837,
      "stock": 3838,
      "touches": 3839,
      "wrap": 3840,
      "brot": 3841,
      "gymnastics": 3842,
      "tourist": 3843,
      "inspects": 3844,
      "second": 3845,
      "complete": 3846,
      "visiting": 3847,
      "tackle": 3848,
      "pillows": 3849,
      "scaffold": 3850,
      "wires": 3851,
      "beverages": 3852,
      "boulder": 3853,
      "awa": 3854,
      "filling": 3855,
      "juice": 3856,
      "pigtails": 3857,
      "tossing": 3858,
      "emergency": 3859,
      "story": 3860,
      "kayaks": 3861,
      "exercise": 3862,
      "patterned": 3863,
      "applying": 3864,
      "exhibit": 3865,
      "beanie": 3866,
      "bagpipes": 3867,
      "merchandise": 3868,
      "chicken": 3869,
      "201": 3870,
      "lecture": 3871,
      "Police": 3872,
      "semi": 3873,
      "bystanders": 3874,
      "umpire": 3875,
      "yoga": 3876,
      "bamboo": 3877,
      "scooters": 3878,
      "lacrosse": 3879,
      "El": 3880,
      "Mex": 3881,
      "av": 3882,
      "ax": 3883,
      "bead": 3884,
      "bron": 3885,
      "bank": 3886,
      "biting": 3887,
      "dad": 3888,
      "dives": 3889,
      "el": 3890,
      "gathers": 3891,
      "hom": 3892,
      "hut": 3893,
      "huddle": 3894,
      "ill": 3895,
      "jud": 3896,
      "link": 3897,
      "lens": 3898,
      "lower": 3899,
      "mur": 3900,
      "mug": 3901,
      "mower": 3902,
      "meas": 3903,
      "pir": 3904,
      "pun": 3905,
      "range": 3906,
      "rice": 3907,
      "sla": 3908,
      "sam": 3909,
      "sep": 3910,
      "section": 3911,
      "tights": 3912,
      "tiny": 3913,
      "val": 3914,
      "vic": 3915,
      "yarn": 3916,
      "##ake": 3917,
      "##ments": 3918,
      "##ees": 3919,
      "##fo": 3920,
      "##con": 3921,
      "##tail": 3922,
      "##pa": 3923,
      "##yed": 3924,
      "##ho": 3925,
      "##hop": 3926,
      "##bag": 3927,
      "##girl": 3928,
      "##where": 3929,
      "##zing": 3930,
      "##Donal": 3931,
      "##iner": 3932,
      "##anges": 3933,
      "inform": 3934,
      "##rot": 3935,
      "##romat": 3936,
      "stir": 3937,
      "whis": 3938,
      "##ising": 3939,
      "placing": 3940,
      "placed": 3941,
      "playfully": 3942,
      "##ersby": 3943,
      "##ller": 3944,
      "blind": 3945,
      "christmas": 3946,
      "chatting": 3947,
      "watched": 3948,
      "covers": 3949,
      "rod": 3950,
      "##eling": 3951,
      "flat": 3952,
      "tray": 3953,
      "handrail": 3954,
      "constru": 3955,
      "wake": 3956,
      "soda": 3957,
      "fac": 3958,
      "camping": 3959,
      "arcade": 3960,
      "sunlight": 3961,
      "unus": 3962,
      "bush": 3963,
      "acrobat": 3964,
      "##ash": 3965,
      "##ased": 3966,
      "ador": 3967,
      "lifts": 3968,
      "recor": 3969,
      "process": 3970,
      "leap": 3971,
      "attend": 3972,
      "logs": 3973,
      "motorized": 3974,
      "China": 3975,
      "case": 3976,
      "crossed": 3977,
      "treat": 3978,
      "cans": 3979,
      "motorcyclists": 3980,
      "rif": 3981,
      "flam": 3982,
      "highway": 3983,
      "opens": 3984,
      "ballet": 3985,
      "cello": 3986,
      "lighted": 3987,
      "folded": 3988,
      "turquo": 3989,
      "joy": 3990,
      "elev": 3991,
      "speak": 3992,
      "skiers": 3993,
      "contra": 3994,
      "cowboys": 3995,
      "picks": 3996,
      "shoreline": 3997,
      "falls": 3998,
      "belong": 3999,
      "homeless": 4000,
      "serves": 4001,
      "auditor": 4002,
      "drawn": 4003,
      "closely": 4004,
      "practices": 4005,
      "resp": 4006,
      "multiple": 4007,
      "floats": 4008,
      "formation": 4009,
      "athletes": 4010,
      "interview": 4011,
      "quarter": 4012,
      "noteb": 4013,
      "medium": 4014,
      "location": 4015,
      "typ": 4016,
      "touch": 4017,
      "celebration": 4018,
      "repairing": 4019,
      "printed": 4020,
      "##ably": 4021,
      "assem": 4022,
      "assist": 4023,
      "visible": 4024,
      "laundromat": 4025,
      "khakis": 4026,
      "tackling": 4027,
      "lifted": 4028,
      "puppies": 4029,
      "swimsuits": 4030,
      "suspenders": 4031,
      "underwear": 4032,
      "magazines": 4033,
      "retri": 4034,
      "weap": 4035,
      "reflection": 4036,
      "traveling": 4037,
      "chalkboard": 4038,
      "dusty": 4039,
      "diver": 4040,
      "farmer": 4041,
      "firefighter": 4042,
      "rollerskating": 4043,
      "parachute": 4044,
      "supplies": 4045,
      "involved": 4046,
      "ponytail": 4047,
      "focused": 4048,
      "rollerblading": 4049,
      "carefully": 4050,
      "adjusting": 4051,
      "salon": 4052,
      "tux": 4053,
      "surgery": 4054,
      "planting": 4055,
      "cheek": 4056,
      "Runners": 4057,
      "rapids": 4058,
      "learning": 4059,
      "creek": 4060,
      "snowshoes": 4061,
      "descent": 4062,
      "screaming": 4063,
      "McDonal": 4064,
      "Play": 4065,
      "larger": 4066,
      "backdrop": 4067,
      "accompan": 4068,
      "2012": 4069,
      "turquoise": 4070,
      "auditorium": 4071,
      "Am": 4072,
      "Ba": 4073,
      "Band": 4074,
      "Cou": 4075,
      "Clo": 4076,
      "Canad": 4077,
      "Elderly": 4078,
      "Gra": 4079,
      "He": 4080,
      "Is": 4081,
      "Ped": 4082,
      "Sw": 4083,
      "Squ": 4084,
      "TV": 4085,
      "Tex": 4086,
      "cher": 4087,
      "cage": 4088,
      "cards": 4089,
      "cooks": 4090,
      "done": 4091,
      "divers": 4092,
      "eastern": 4093,
      "fat": 4094,
      "fed": 4095,
      "ge": 4096,
      "hy": 4097,
      "hun": 4098,
      "hiding": 4099,
      "lip": 4100,
      "lighting": 4101,
      "my": 4102,
      "ox": 4103,
      "pins": 4104,
      "rad": 4105,
      "rally": 4106,
      "rows": 4107,
      "sar": 4108,
      "sque": 4109,
      "tut": 4110,
      "trucks": 4111,
      "ut": 4112,
      "ven": 4113,
      "will": 4114,
      "##av": 4115,
      "##ters": 4116,
      "##bank": 4117,
      "##ged": 4118,
      "##gers": 4119,
      "##gull": 4120,
      "##vil": 4121,
      "##vas": 4122,
      "##aling": 4123,
      "##ened": 4124,
      "maneu": 4125,
      "##omin": 4126,
      "stall": 4127,
      "stea": 4128,
      "stilts": 4129,
      "##ora": 4130,
      "##orning": 4131,
      "whom": 4132,
      "##opter": 4133,
      "shape": 4134,
      "##icopter": 4135,
      "##chan": 4136,
      "played": 4137,
      "boards": 4138,
      "char": 4139,
      "frozen": 4140,
      "than": 4141,
      "##vering": 4142,
      "##ries": 4143,
      "buff": 4144,
      "##seup": 4145,
      "coast": 4146,
      "tail": 4147,
      "##ctors": 4148,
      "upward": 4149,
      "pots": 4150,
      "skater": 4151,
      "##boy": 4152,
      "snap": 4153,
      "sideways": 4154,
      "oranges": 4155,
      "spark": 4156,
      "racers": 4157,
      "rafting": 4158,
      "##uses": 4159,
      "##igning": 4160,
      "scarves": 4161,
      "##utes": 4162,
      "laden": 4163,
      "goat": 4164,
      "workout": 4165,
      "labor": 4166,
      "unlo": 4167,
      "cameram": 4168,
      "acc": 4169,
      "walked": 4170,
      "Asia": 4171,
      "##ney": 4172,
      "roadside": 4173,
      "cheese": 4174,
      "##merica": 4175,
      "couples": 4176,
      "single": 4177,
      "motion": 4178,
      "lobby": 4179,
      "##ftop": 4180,
      "march": 4181,
      "cable": 4182,
      "shepherd": 4183,
      "legging": 4184,
      "cann": 4185,
      "canvas": 4186,
      "passersby": 4187,
      "##aker": 4188,
      "highchair": 4189,
      "news": 4190,
      "##ously": 4191,
      "even": 4192,
      "artwork": 4193,
      "creating": 4194,
      "##ize": 4195,
      "apart": 4196,
      "hike": 4197,
      "turned": 4198,
      "toddlers": 4199,
      "numbers": 4200,
      "patron": 4201,
      "workshop": 4202,
      "displaying": 4203,
      "displays": 4204,
      "pads": 4205,
      "rooftop": 4206,
      "belts": 4207,
      "serve": 4208,
      "earphones": 4209,
      "interesting": 4210,
      "monitor": 4211,
      "##encil": 4212,
      "cute": 4213,
      "incline": 4214,
      "products": 4215,
      "crouched": 4216,
      "casually": 4217,
      "decorative": 4218,
      "##atory": 4219,
      "candle": 4220,
      "cloud": 4221,
      "celebrate": 4222,
      "Spectators": 4223,
      "trashcan": 4224,
      "##estrian": 4225,
      "burning": 4226,
      "furry": 4227,
      "washes": 4228,
      "stepping": 4229,
      "sprayed": 4230,
      "gaze": 4231,
      "gazes": 4232,
      "bouquet": 4233,
      "twirl": 4234,
      "fashioned": 4235,
      "branches": 4236,
      "approaches": 4237,
      "juggles": 4238,
      "##tenance": 4239,
      "Roller": 4240,
      "chopping": 4241,
      "thumb": 4242,
      "support": 4243,
      "involving": 4244,
      "driveway": 4245,
      "kayaking": 4246,
      "blazer": 4247,
      "activity": 4248,
      "Olympics": 4249,
      "syn": 4250,
      "Music": 4251,
      "autumn": 4252,
      "department": 4253,
      "silhouette": 4254,
      "finishing": 4255,
      "gallery": 4256,
      "##sticks": 4257,
      "amidst": 4258,
      "hotdog": 4259,
      "embracing": 4260,
      "ticket": 4261,
      "experiment": 4262,
      "special": 4263,
      "techn": 4264,
      "quickly": 4265,
      "transportation": 4266,
      "leotard": 4267,
      "butterf": 4268,
      "portrait": 4269,
      "Bearded": 4270,
      "John": 4271,
      "injured": 4272,
      "collared": 4273,
      "tribal": 4274,
      "brother": 4275,
      "valley": 4276,
      "facility": 4277,
      "contraption": 4278,
      "quarterback": 4279,
      "Couple": 4280,
      "Closeup": 4281,
      "Pedestrians": 4282,
      "Square": 4283,
      "hyd": 4284,
      "venue": 4285,
      "leggings": 4286,
      "America": 4287,
      "Bic": 4288,
      "Car": 4289,
      "DJ": 4290,
      "Eight": 4291,
      "Eastern": 4292,
      "Haw": 4293,
      "Lots": 4294,
      "Moh": 4295,
      "Par": 4296,
      "Sub": 4297,
      "School": 4298,
      "Un": 4299,
      "Var": 4300,
      "cot": 4301,
      "dest": 4302,
      "dive": 4303,
      "ducks": 4304,
      "est": 4305,
      "ease": 4306,
      "every": 4307,
      "fer": 4308,
      "fell": 4309,
      "gla": 4310,
      "hind": 4311,
      "hook": 4312,
      "harm": 4313,
      "icy": 4314,
      "jack": 4315,
      "kilt": 4316,
      "late": 4317,
      "mount": 4318,
      "morning": 4319,
      "overs": 4320,
      "pow": 4321,
      "pilot": 4322,
      "pencil": 4323,
      "rings": 4324,
      "sym": 4325,
      "sorting": 4326,
      "too": 4327,
      "tooth": 4328,
      "torch": 4329,
      "tending": 4330,
      "trench": 4331,
      "##aks": 4332,
      "##ailing": 4333,
      "##friend": 4334,
      "##cra": 4335,
      "##tie": 4336,
      "##ders": 4337,
      "##po": 4338,
      "##pple": 4339,
      "##oke": 4340,
      "##ogs": 4341,
      "##rit": 4342,
      "##rant": 4343,
      "##hawk": 4344,
      "##noon": 4345,
      "##gue": 4346,
      "##iage": 4347,
      "##ikers": 4348,
      "##vices": 4349,
      "##wl": 4350,
      "##inet": 4351,
      "##ination": 4352,
      "##annel": 4353,
      "##lent": 4354,
      "##ata": 4355,
      "##atoes": 4356,
      "##ense": 4357,
      "stump": 4358,
      "staff": 4359,
      "##edo": 4360,
      "##opo": 4361,
      "shiny": 4362,
      "##ised": 4363,
      "##rous": 4364,
      "##chron": 4365,
      "chin": 4366,
      "choc": 4367,
      "chinese": 4368,
      "##sty": 4369,
      "##oth": 4370,
      "##umbling": 4371,
      "##right": 4372,
      "menu": 4373,
      "##amed": 4374,
      "built": 4375,
      "##imes": 4376,
      "here": 4377,
      "task": 4378,
      "tags": 4379,
      "##entr": 4380,
      "gradu": 4381,
      "grabs": 4382,
      "grabbing": 4383,
      "##ief": 4384,
      "fork": 4385,
      "jumper": 4386,
      "jumped": 4387,
      "maj": 4388,
      "##body": 4389,
      "spect": 4390,
      "handed": 4391,
      "conf": 4392,
      "waist": 4393,
      "wash": 4394,
      "##igious": 4395,
      "##phy": 4396,
      "scale": 4397,
      "scient": 4398,
      "scouts": 4399,
      "almo": 4400,
      "pale": 4401,
      "parents": 4402,
      "arri": 4403,
      "arrange": 4404,
      "sunbat": 4405,
      "lass": 4406,
      "unhap": 4407,
      "colum": 4408,
      "bicycling": 4409,
      "guide": 4410,
      "##antly": 4411,
      "helicopter": 4412,
      "##ational": 4413,
      "painter": 4414,
      "rele": 4415,
      "really": 4416,
      "lock": 4417,
      "surfs": 4418,
      "caucasian": 4419,
      "army": 4420,
      "fishes": 4421,
      "aband": 4422,
      "hills": 4423,
      "cellphones": 4424,
      "pathway": 4425,
      "text": 4426,
      "wheeler": 4427,
      "cleaner": 4428,
      "turban": 4429,
      "jogs": 4430,
      "point": 4431,
      "teens": 4432,
      "afternoon": 4433,
      "raincoat": 4434,
      "mechan": 4435,
      "##bbles": 4436,
      "##arth": 4437,
      "concentr": 4438,
      "strolls": 4439,
      "scenic": 4440,
      "checkers": 4441,
      "bedroom": 4442,
      "writes": 4443,
      "sees": 4444,
      "aprons": 4445,
      "service": 4446,
      "indust": 4447,
      "##ensive": 4448,
      "weight": 4449,
      "seagull": 4450,
      "displayed": 4451,
      "quiet": 4452,
      "presenting": 4453,
      "monkey": 4454,
      "bathtub": 4455,
      "circular": 4456,
      "located": 4457,
      "decorations": 4458,
      "stoop": 4459,
      "crates": 4460,
      "##ifier": 4461,
      "clouds": 4462,
      "operates": 4463,
      "Smiling": 4464,
      "dragging": 4465,
      "##ucking": 4466,
      "brass": 4467,
      "images": 4468,
      "booths": 4469,
      "peer": 4470,
      "strapped": 4471,
      "bends": 4472,
      "pinata": 4473,
      "stacked": 4474,
      "containing": 4475,
      "brushes": 4476,
      "gesturing": 4477,
      "tiled": 4478,
      "gazing": 4479,
      "designs": 4480,
      "##coming": 4481,
      "featuring": 4482,
      "tripod": 4483,
      "bouncing": 4484,
      "chopsticks": 4485,
      "Army": 4486,
      "sawing": 4487,
      "rollerblades": 4488,
      "Skate": 4489,
      "dumpster": 4490,
      "begins": 4491,
      "pattern": 4492,
      "muzzle": 4493,
      "adjusts": 4494,
      "deli": 4495,
      "pumpkin": 4496,
      "peeking": 4497,
      "sparring": 4498,
      "parasailing": 4499,
      "chewing": 4500,
      "Adults": 4501,
      "heavily": 4502,
      "Hockey": 4503,
      "bulld": 4504,
      "waterski": 4505,
      "##nament": 4506,
      "sniffing": 4507,
      "enthusiast": 4508,
      "breakdancing": 4509,
      "Blue": 4510,
      "Photo": 4511,
      "beret": 4512,
      "foliage": 4513,
      "Elmo": 4514,
      "illumin": 4515,
      "wakeboard": 4516,
      "recording": 4517,
      "rifle": 4518,
      "belongings": 4519,
      "types": 4520,
      "Baby": 4521,
      "Canadian": 4522,
      "Texas": 4523,
      "cherry": 4524,
      "squee": 4525,
      "synchron": 4526,
      "butterfly": 4527,
      "Mohawk": 4528,
      "estab": 4529,
      "harmon": 4530,
      "##craft": 4531,
      "chocolate": 4532,
      "almost": 4533,
      "unhappy": 4534,
      "11": 4535,
      "10": 4536,
      "Bea": 4537,
      "En": 4538,
      "Mem": 4539,
      "Mother": 4540,
      "NY": 4541,
      "Num": 4542,
      "Native": 4543,
      "Prot": 4544,
      "Sur": 4545,
      "Seat": 4546,
      "Vend": 4547,
      "Yellow": 4548,
      "bit": 4549,
      "cycling": 4550,
      "dou": 4551,
      "domin": 4552,
      "ela": 4553,
      "eag": 4554,
      "find": 4555,
      "had": 4556,
      "jeep": 4557,
      "kim": 4558,
      "lion": 4559,
      "lips": 4560,
      "mes": 4561,
      "nail": 4562,
      "pon": 4563,
      "punch": 4564,
      "rim": 4565,
      "rack": 4566,
      "sat": 4567,
      "sou": 4568,
      "signing": 4569,
      "ti": 4570,
      "tired": 4571,
      "us": 4572,
      "vint": 4573,
      "xyl": 4574,
      "yo": 4575,
      "year": 4576,
      "##aking": 4577,
      "##mill": 4578,
      "##fl": 4579,
      "##fighters": 4580,
      "##cular": 4581,
      "##tender": 4582,
      "##pit": 4583,
      "##lled": 4584,
      "##lights": 4585,
      "##uing": 4586,
      "##uting": 4587,
      "##net": 4588,
      "##go": 4589,
      "##gy": 4590,
      "##gie": 4591,
      "##vi": 4592,
      "##vention": 4593,
      "##zes": 4594,
      "ing": 4595,
      "##itive": 4596,
      "##itiz": 4597,
      "##rehouse": 4598,
      "##arium": 4599,
      "##attered": 4600,
      "manne": 4601,
      "##oms": 4602,
      "stay": 4603,
      "stuck": 4604,
      "##esma": 4605,
      "##onge": 4606,
      "##iday": 4607,
      "shing": 4608,
      "shield": 4609,
      "toile": 4610,
      "plain": 4611,
      "anti": 4612,
      "chis": 4613,
      "bad": 4614,
      "babies": 4615,
      "##ston": 4616,
      "##sters": 4617,
      "our": 4618,
      "histor": 4619,
      "##rial": 4620,
      "##ades": 4621,
      "buried": 4622,
      "cock": 4623,
      "beca": 4624,
      "##keys": 4625,
      "grab": 4626,
      "They": 4627,
      "upset": 4628,
      "pocket": 4629,
      "fort": 4630,
      "ascend": 4631,
      "backh": 4632,
      "masks": 4633,
      "skull": 4634,
      "skies": 4635,
      "##inder": 4636,
      "##emade": 4637,
      "flannel": 4638,
      "##apped": 4639,
      "spins": 4640,
      "rabb": 4641,
      "warehouse": 4642,
      "##igan": 4643,
      "##iger": 4644,
      "##ution": 4645,
      "arrow": 4646,
      "commer": 4647,
      "##dles": 4648,
      "guards": 4649,
      "midst": 4650,
      "##ected": 4651,
      "lively": 4652,
      "Asians": 4653,
      "underground": 4654,
      "purses": 4655,
      "prop": 4656,
      "waiter": 4657,
      "league": 4658,
      "shoppers": 4659,
      "darkened": 4660,
      "daytime": 4661,
      "trim": 4662,
      "bartender": 4663,
      "marble": 4664,
      "mohawk": 4665,
      "sleep": 4666,
      "looked": 4667,
      "trains": 4668,
      "level": 4669,
      "canal": 4670,
      "canoes": 4671,
      "capture": 4672,
      "shower": 4673,
      "riot": 4674,
      "flash": 4675,
      "deser": 4676,
      "wheeled": 4677,
      "hardwood": 4678,
      "classic": 4679,
      "amount": 4680,
      "bridesma": 4681,
      "turtle": 4682,
      "shaggy": 4683,
      "fountains": 4684,
      "speaker": 4685,
      "carrier": 4686,
      "crashing": 4687,
      "forested": 4688,
      "numerous": 4689,
      "doesn": 4690,
      "filming": 4691,
      "skyd": 4692,
      "strolling": 4693,
      "cupca": 4694,
      "kisses": 4695,
      "vending": 4696,
      "##osaur": 4697,
      "##cloth": 4698,
      "vibr": 4699,
      "earring": 4700,
      "draws": 4701,
      "India": 4702,
      "season": 4703,
      "flock": 4704,
      "explor": 4705,
      "directing": 4706,
      "splashed": 4707,
      "potato": 4708,
      "digital": 4709,
      "sprays": 4710,
      "banners": 4711,
      "hammo": 4712,
      "notes": 4713,
      "diner": 4714,
      "dinosaur": 4715,
      "product": 4716,
      "cash": 4717,
      "clowns": 4718,
      "sledding": 4719,
      "##alloween": 4720,
      "projector": 4721,
      "barefooted": 4722,
      "gardening": 4723,
      "labeled": 4724,
      "Spanish": 4725,
      "draped": 4726,
      "tournament": 4727,
      "stringed": 4728,
      "mixer": 4729,
      "peers": 4730,
      "complex": 4731,
      "packed": 4732,
      "package": 4733,
      "napping": 4734,
      "##zzy": 4735,
      "tackled": 4736,
      "much": 4737,
      "pours": 4738,
      "stretches": 4739,
      "skinny": 4740,
      "tracksuit": 4741,
      "hammering": 4742,
      "washer": 4743,
      "figures": 4744,
      "spotlight": 4745,
      "cheerleading": 4746,
      "cries": 4747,
      "speeding": 4748,
      "gesture": 4749,
      "##ropean": 4750,
      "campfire": 4751,
      "ATM": 4752,
      "##panic": 4753,
      "sailboat": 4754,
      "teammates": 4755,
      "Cafe": 4756,
      "##tory": 4757,
      "Olympic": 4758,
      "##iety": 4759,
      "Brit": 4760,
      "Shepherd": 4761,
      "aqua": 4762,
      "aquarium": 4763,
      "maintenance": 4764,
      "surgical": 4765,
      "loaded": 4766,
      "Firefighters": 4767,
      "nurses": 4768,
      "silhouet": 4769,
      "Dogs": 4770,
      "human": 4771,
      "##aiian": 4772,
      "conductor": 4773,
      "religious": 4774,
      "bundle": 4775,
      "company": 4776,
      "companion": 4777,
      "cluttered": 4778,
      "ident": 4779,
      "##lishment": 4780,
      "skills": 4781,
      "transit": 4782,
      "crayons": 4783,
      "followed": 4784,
      "scrubs": 4785,
      "navigates": 4786,
      "lanterns": 4787,
      "communic": 4788,
      "border": 4789,
      "treadmill": 4790,
      "Mexican": 4791,
      "beads": 4792,
      "homemade": 4793,
      "judges": 4794,
      "murky": 4795,
      "sample": 4796,
      "victory": 4797,
      "unusual": 4798,
      "notebook": 4799,
      "retrie": 4800,
      "laboratory": 4801,
      "accident": 4802,
      "cannon": 4803,
      "hydrant": 4804,
      "Hawaiian": 4805,
      "Various": 4806,
      "destination": 4807,
      "easel": 4808,
      "toothbrush": 4809,
      "##opoly": 4810,
      "lasso": 4811,
      "columns": 4812,
      "abandoned": 4813,
      "industrial": 4814,
      "Skateboarder": 4815,
      "waterskiing": 4816,
      "squeezing": 4817,
      "synchronized": 4818,
      "establishment": 4819,
      "harmonica": 4820,
      "elabor": 4821,
      "vintage": 4822,
      "mannequ": 4823,
      "because": 4824,
      "commercial": 4825,
      "hammock": 4826,
      "Ara": 4827,
      "Base": 4828,
      "Cla": 4829,
      "Coc": 4830,
      "Custom": 4831,
      "De": 4832,
      "Dark": 4833,
      "Fis": 4834,
      "Food": 4835,
      "Green": 4836,
      "Jo": 4837,
      "Jack": 4838,
      "Jeng": 4839,
      "Lat": 4840,
      "Local": 4841,
      "Pa": 4842,
      "Soon": 4843,
      "Tea": 4844,
      "We": 4845,
      "Walm": 4846,
      "award": 4847,
      "bump": 4848,
      "bong": 4849,
      "citiz": 4850,
      "dam": 4851,
      "drying": 4852,
      "dess": 4853,
      "dyed": 4854,
      "file": 4855,
      "fellow": 4856,
      "frying": 4857,
      "hour": 4858,
      "iP": 4859,
      "ja": 4860,
      "leop": 4861,
      "lining": 4862,
      "lush": 4863,
      "min": 4864,
      "mead": 4865,
      "mowing": 4866,
      "nun": 4867,
      "nood": 4868,
      "nude": 4869,
      "named": 4870,
      "oil": 4871,
      "py": 4872,
      "pans": 4873,
      "pops": 4874,
      "sear": 4875,
      "slack": 4876,
      "ske": 4877,
      "tem": 4878,
      "tiger": 4879,
      "va": 4880,
      "were": 4881,
      "##food": 4882,
      "##country": 4883,
      "##cases": 4884,
      "##tting": 4885,
      "##tress": 4886,
      "##lim": 4887,
      "##lines": 4888,
      "##ltim": 4889,
      "##liday": 4890,
      "##sting": 4891,
      "##sping": 4892,
      "##rat": 4893,
      "##bed": 4894,
      "##bur": 4895,
      "##iam": 4896,
      "##ients": 4897,
      "##whe": 4898,
      "##wed": 4899,
      "##inging": 4900,
      "##ero": 4901,
      "##erness": 4902,
      "inst": 4903,
      "##rem": 4904,
      "##rew": 4905,
      "##roke": 4906,
      "##ena": 4907,
      "##oming": 4908,
      "stance": 4909,
      "##orke": 4910,
      "##ester": 4911,
      "##ided": 4912,
      "##opy": 4913,
      "shar": 4914,
      "shack": 4915,
      "##ises": 4916,
      "##ands": 4917,
      "##icle": 4918,
      "##alling": 4919,
      "any": 4920,
      "chased": 4921,
      "##otap": 4922,
      "##ume": 4923,
      "holiday": 4924,
      "thick": 4925,
      "though": 4926,
      "##riers": 4927,
      "downhill": 4928,
      "##seat": 4929,
      "beers": 4930,
      "beating": 4931,
      "##aint": 4932,
      "##ieval": 4933,
      "clar": 4934,
      "upwards": 4935,
      "backseat": 4936,
      "need": 4937,
      "mail": 4938,
      "skim": 4939,
      "snorke": 4940,
      "##bled": 4941,
      "sidelines": 4942,
      "##ements": 4943,
      "##ores": 4944,
      "spring": 4945,
      "sprin": 4946,
      "rav": 4947,
      "conn": 4948,
      "somewhere": 4949,
      "paw": 4950,
      "parent": 4951,
      "fields": 4952,
      "tablecloth": 4953,
      "camps": 4954,
      "camels": 4955,
      "sunh": 4956,
      "sunsh": 4957,
      "laid": 4958,
      "laun": 4959,
      "unf": 4960,
      "topless": 4961,
      "column": 4962,
      "paralle": 4963,
      "##udd": 4964,
      "woodland": 4965,
      "acting": 4966,
      "acce": 4967,
      "##olog": 4968,
      "##gger": 4969,
      "mountainous": 4970,
      "ages": 4971,
      "enc": 4972,
      "envi": 4973,
      "attent": 4974,
      "slic": 4975,
      "cathed": 4976,
      "plank": 4977,
      "stores": 4978,
      "love": 4979,
      "winds": 4980,
      "##mentary": 4981,
      "muscular": 4982,
      "marsh": 4983,
      "mos": 4984,
      "colorfully": 4985,
      "mouths": 4986,
      "exiting": 4987,
      "cave": 4988,
      "crosscountry": 4989,
      "legged": 4990,
      "marker": 4991,
      "marked": 4992,
      "desks": 4993,
      "##ronment": 4994,
      "mattress": 4995,
      "##berry": 4996,
      "battle": 4997,
      "bodysuit": 4998,
      "kickbox": 4999,
      "when": 5000,
      "artists": 5001,
      "create": 5002,
      "rolls": 5003,
      "seating": 5004,
      "fog": 5005,
      "foggy": 5006,
      "boxer": 5007,
      "snowboards": 5008,
      "shawl": 5009,
      "pointed": 5010,
      "prepared": 5011,
      "skyline": 5012,
      "picket": 5013,
      "squats": 5014,
      "writ": 5015,
      "wrist": 5016,
      "cigar": 5017,
      "strugg": 5018,
      "butcher": 5019,
      "Star": 5020,
      "seven": 5021,
      "indian": 5022,
      "##fetti": 5023,
      "cigarettes": 5024,
      "variety": 5025,
      "wrestlers": 5026,
      "barely": 5027,
      "resort": 5028,
      "seafood": 5029,
      "railings": 5030,
      "kno": 5031,
      "monitors": 5032,
      "collie": 5033,
      "##bbling": 5034,
      "trophy": 5035,
      "trotting": 5036,
      "##ramid": 5037,
      "casting": 5038,
      "casino": 5039,
      "daily": 5040,
      "typing": 5041,
      "videotap": 5042,
      "examine": 5043,
      "peaks": 5044,
      "##redients": 5045,
      "broad": 5046,
      "advertisements": 5047,
      "Worker": 5048,
      "harbor": 5049,
      "piercing": 5050,
      "sculptures": 5051,
      "greet": 5052,
      "starring": 5053,
      "brace": 5054,
      "inspect": 5055,
      "strings": 5056,
      "completing": 5057,
      "visor": 5058,
      "logo": 5059,
      "Guys": 5060,
      "framed": 5061,
      "puppet": 5062,
      "termin": 5063,
      "reception": 5064,
      "cheerleader": 5065,
      "warming": 5066,
      "speeds": 5067,
      "condition": 5068,
      "dryer": 5069,
      "travels": 5070,
      "designed": 5071,
      "farmers": 5072,
      "grinds": 5073,
      "dolls": 5074,
      "defender": 5075,
      "wilderness": 5076,
      "rollerskates": 5077,
      "tarp": 5078,
      "snacks": 5079,
      "barrels": 5080,
      "necklaces": 5081,
      "striking": 5082,
      "begin": 5083,
      "exercising": 5084,
      "activities": 5085,
      "ordering": 5086,
      "muzzled": 5087,
      "Brunette": 5088,
      "Cola": 5089,
      "extrem": 5090,
      "Muslim": 5091,
      "rustic": 5092,
      "dotted": 5093,
      "supermark": 5094,
      "crops": 5095,
      "hotdogs": 5096,
      "conducting": 5097,
      "vacuuming": 5098,
      "demonstration": 5099,
      "greyhounds": 5100,
      "Europe": 5101,
      "fetch": 5102,
      "licking": 5103,
      "employee": 5104,
      "employees": 5105,
      "character": 5106,
      "characters": 5107,
      "Tourists": 5108,
      "bounds": 5109,
      "crawls": 5110,
      "maybe": 5111,
      "##works": 5112,
      "fuzzy": 5113,
      "poodle": 5114,
      "blurred": 5115,
      "watermelons": 5116,
      "mascot": 5117,
      "purchase": 5118,
      "attractive": 5119,
      "bananas": 5120,
      "await": 5121,
      "measuring": 5122,
      "pirate": 5123,
      "punching": 5124,
      "separate": 5125,
      "acrobatic": 5126,
      "adorned": 5127,
      "Players": 5128,
      "fedora": 5129,
      "tutu": 5130,
      "buffet": 5131,
      "cameraman": 5132,
      "Rollerbla": 5133,
      "Musicians": 5134,
      "cotton": 5135,
      "mounted": 5136,
      "powder": 5137,
      "scientist": 5138,
      "sunbathing": 5139,
      "bulldo": 5140,
      "illuminated": 5141,
      "Members": 5142,
      "Numerous": 5143,
      "Vendors": 5144,
      "double": 5145,
      "kimon": 5146,
      "xylophone": 5147,
      "ingredients": 5148,
      "skydiving": 5149,
      "vibrant": 5150,
      "British": 5151,
      "silhouetted": 5152,
      "Arab": 5153,
      "Baseball": 5154,
      "Coca": 5155,
      "Customers": 5156,
      "Jenga": 5157,
      "Walmart": 5158,
      "bongo": 5159,
      "leopard": 5160,
      "meadow": 5161,
      "pyramid": 5162,
      "slacks": 5163,
      "temple": 5164,
      "##ltimate": 5165,
      "environment": 5166,
      "cathedral": 5167,
      "supermarket": 5168,
      "\",": 5169,
      "Bra": 5170,
      "Bas": 5171,
      "Bikers": 5172,
      "Cow": 5173,
      "Dan": 5174,
      "Dirt": 5175,
      "Ex": 5176,
      "Ele": 5177,
      "Foot": 5178,
      "Father": 5179,
      "Family": 5180,
      "Gre": 5181,
      "Hap": 5182,
      "Jew": 5183,
      "Kit": 5184,
      "Leg": 5185,
      "Mil": 5186,
      "Miam": 5187,
      "Ob": 5188,
      "Orange": 5189,
      "Ra": 5190,
      "Sn": 5191,
      "Ten": 5192,
      "Times": 5193,
      "Vol": 5194,
      "age": 5195,
      "aboard": 5196,
      "aff": 5197,
      "cycle": 5198,
      "cru": 5199,
      "count": 5200,
      "cry": 5201,
      "civ": 5202,
      "det": 5203,
      "french": 5204,
      "grown": 5205,
      "hal": 5206,
      "hid": 5207,
      "hip": 5208,
      "hung": 5209,
      "ke": 5210,
      "kio": 5211,
      "lime": 5212,
      "leng": 5213,
      "lemon": 5214,
      "moo": 5215,
      "nails": 5216,
      "ol": 5217,
      "ple": 5218,
      "pou": 5219,
      "prou": 5220,
      "pipes": 5221,
      "ran": 5222,
      "rush": 5223,
      "sound": 5224,
      "sund": 5225,
      "tin": 5226,
      "ted": 5227,
      "tying": 5228,
      "test": 5229,
      "ties": 5230,
      "tips": 5231,
      "ultimate": 5232,
      "vocal": 5233,
      "wip": 5234,
      "zom": 5235,
      "zone": 5236,
      "##aches": 5237,
      "##mx": 5238,
      "##mmed": 5239,
      "##come": 5240,
      "##cier": 5241,
      "##cient": 5242,
      "##tur": 5243,
      "##ties": 5244,
      "##tely": 5245,
      "##dri": 5246,
      "##pid": 5247,
      "##sure": 5248,
      "##oid": 5249,
      "##ose": 5250,
      "##orous": 5251,
      "##ula": 5252,
      "##ued": 5253,
      "##yon": 5254,
      "##hol": 5255,
      "##bour": 5256,
      "##bably": 5257,
      "##gress": 5258,
      "##ik": 5259,
      "##ikes": 5260,
      "##ique": 5261,
      "##ket": 5262,
      "##vor": 5263,
      "##zor": 5264,
      "##anse": 5265,
      "inc": 5266,
      "inner": 5267,
      "##itch": 5268,
      "##itical": 5269,
      "##held": 5270,
      "##alks": 5271,
      "##atic": 5272,
      "##atically": 5273,
      "##atula": 5274,
      "##oma": 5275,
      "##omo": 5276,
      "stars": 5277,
      "##cked": 5278,
      "##ords": 5279,
      "within": 5280,
      "##oud": 5281,
      "##ought": 5282,
      "##owers": 5283,
      "##ison": 5284,
      "##ished": 5285,
      "##kings": 5286,
      "toe": 5287,
      "dots": 5288,
      "doctors": 5289,
      "##lls": 5290,
      "anvil": 5291,
      "ancient": 5292,
      "blower": 5293,
      "champ": 5294,
      "challen": 5295,
      "badge": 5296,
      "##stem": 5297,
      "##ote": 5298,
      "##otic": 5299,
      "girlfriend": 5300,
      "##unte": 5301,
      "##cement": 5302,
      "those": 5303,
      "thought": 5304,
      "##vern": 5305,
      "haul": 5306,
      "cocon": 5307,
      "##illa": 5308,
      "##illed": 5309,
      "belly": 5310,
      "rolled": 5311,
      "talent": 5312,
      "##ells": 5313,
      "grasping": 5314,
      "watering": 5315,
      "posed": 5316,
      "words": 5317,
      "swords": 5318,
      "##ford": 5319,
      "bib": 5320,
      "flu": 5321,
      "flood": 5322,
      "##ulting": 5323,
      "snowball": 5324,
      "spin": 5325,
      "spots": 5326,
      "split": 5327,
      "spatula": 5328,
      "overlook": 5329,
      "rag": 5330,
      "raking": 5331,
      "raise": 5332,
      "rafts": 5333,
      "razor": 5334,
      "personnel": 5335,
      "handbag": 5336,
      "handheld": 5337,
      "conven": 5338,
      "confetti": 5339,
      "##atee": 5340,
      "nearly": 5341,
      "soars": 5342,
      "sciss": 5343,
      "scaling": 5344,
      "scattered": 5345,
      "scrat": 5346,
      "##ested": 5347,
      "##esters": 5348,
      "alco": 5349,
      "##icking": 5350,
      "facial": 5351,
      "favor": 5352,
      "##ffy": 5353,
      "goatee": 5354,
      "hairsty": 5355,
      "##vesting": 5356,
      "shorter": 5357,
      "##uds": 5358,
      "clothed": 5359,
      "##antily": 5360,
      "##asts": 5361,
      "foods": 5362,
      "address": 5363,
      "##ended": 5364,
      "lives": 5365,
      "##ggers": 5366,
      "climbers": 5367,
      "brind": 5368,
      "propped": 5369,
      "probably": 5370,
      "progress": 5371,
      "mountaintop": 5372,
      "attack": 5373,
      "slopes": 5374,
      "stripe": 5375,
      "cats": 5376,
      "plush": 5377,
      "barric": 5378,
      "barriers": 5379,
      "devices": 5380,
      "##essor": 5381,
      "flowery": 5382,
      "flaming": 5383,
      "fireworks": 5384,
      "saus": 5385,
      "bows": 5386,
      "bowtie": 5387,
      "##scent": 5388,
      "floors": 5389,
      "##velin": 5390,
      "nightcl": 5391,
      "political": 5392,
      "evil": 5393,
      "kicked": 5394,
      "##ddler": 5395,
      "riverbank": 5396,
      "pushed": 5397,
      "##graph": 5398,
      "boarding": 5399,
      "bikinis": 5400,
      "crest": 5401,
      "creates": 5402,
      "cowgirl": 5403,
      "##corn": 5404,
      "subur": 5405,
      "submer": 5406,
      "boxers": 5407,
      "turkey": 5408,
      "breath": 5409,
      "##empl": 5410,
      "raining": 5411,
      "boogie": 5412,
      "##yset": 5413,
      "noses": 5414,
      "crash": 5415,
      "crafting": 5416,
      "puzz": 5417,
      "grills": 5418,
      "##iously": 5419,
      "shouting": 5420,
      "strollers": 5421,
      "squad": 5422,
      "rails": 5423,
      "checked": 5424,
      "checkout": 5425,
      "pitching": 5426,
      "##osed": 5427,
      "State": 5428,
      "series": 5429,
      "weigh": 5430,
      "lands": 5431,
      "fixes": 5432,
      "piles": 5433,
      "relay": 5434,
      "expanse": 5435,
      "sleeves": 5436,
      "direct": 5437,
      "relaxes": 5438,
      "clap": 5439,
      "quad": 5440,
      "quest": 5441,
      "presents": 5442,
      "monk": 5443,
      "disco": 5444,
      "hambur": 5445,
      "tubes": 5446,
      "memor": 5447,
      "waterside": 5448,
      "medieval": 5449,
      "##cock": 5450,
      "crate": 5451,
      "##ifying": 5452,
      "broch": 5453,
      "operated": 5454,
      "harvesting": 5455,
      "stunts": 5456,
      "blocking": 5457,
      "magn": 5458,
      "microscopes": 5459,
      "pedal": 5460,
      "drag": 5461,
      "drain": 5462,
      "dragon": 5463,
      "cardigan": 5464,
      "completely": 5465,
      "professor": 5466,
      "assisting": 5467,
      "mule": 5468,
      "pillar": 5469,
      "stretched": 5470,
      "hearts": 5471,
      "wineglasses": 5472,
      "wheelchairs": 5473,
      "curi": 5474,
      "bottoms": 5475,
      "sprinklers": 5476,
      "##emonial": 5477,
      "panca": 5478,
      "##angle": 5479,
      "merry": 5480,
      "portable": 5481,
      "jumpsuits": 5482,
      "policemen": 5483,
      "features": 5484,
      "ornam": 5485,
      "beams": 5486,
      "awning": 5487,
      "brooms": 5488,
      "ceremonial": 5489,
      "pigeon": 5490,
      "liquor": 5491,
      "focus": 5492,
      "jockeys": 5493,
      "Shop": 5494,
      "Shirt": 5495,
      "strike": 5496,
      "ribbons": 5497,
      "knitting": 5498,
      "lanes": 5499,
      "excitedly": 5500,
      "system": 5501,
      "recre": 5502,
      "nurse": 5503,
      "rusty": 5504,
      "finished": 5505,
      "dropping": 5506,
      "newlywed": 5507,
      "comfort": 5508,
      "European": 5509,
      "USA": 5510,
      "licks": 5511,
      "saddle": 5512,
      "##issance": 5513,
      "clutching": 5514,
      "scooping": 5515,
      "return": 5516,
      "feathered": 5517,
      "gowns": 5518,
      "miniature": 5519,
      "occur": 5520,
      "occup": 5521,
      "woven": 5522,
      "##minton": 5523,
      "angle": 5524,
      "congregate": 5525,
      "missing": 5526,
      "tomatoes": 5527,
      "socializing": 5528,
      "texting": 5529,
      "expression": 5530,
      "mittens": 5531,
      "Toddler": 5532,
      "aiming": 5533,
      "husband": 5534,
      "rugs": 5535,
      "senior": 5536,
      "briefcase": 5537,
      "advent": 5538,
      "bronco": 5539,
      "slam": 5540,
      "information": 5541,
      "stirring": 5542,
      "blindfo": 5543,
      "constructed": 5544,
      "flames": 5545,
      "elevated": 5546,
      "assembled": 5547,
      "weapon": 5548,
      "McDonald": 5549,
      "accompanied": 5550,
      "hunched": 5551,
      "lipstick": 5552,
      "radio": 5553,
      "unloading": 5554,
      "patrons": 5555,
      "Subway": 5556,
      "glacier": 5557,
      "symbo": 5558,
      "##point": 5559,
      "major": 5560,
      "arrangement": 5561,
      "seesaw": 5562,
      "Beautiful": 5563,
      "Protesters": 5564,
      "Seattle": 5565,
      "eager": 5566,
      "ponch": 5567,
      "rimmed": 5568,
      "soup": 5569,
      "shingles": 5570,
      "badminton": 5571,
      "deserted": 5572,
      "bridesmaids": 5573,
      "elaborate": 5574,
      "Sooners": 5575,
      "damaged": 5576,
      "dessert": 5577,
      "##enaissance": 5578,
      "sharp": 5579,
      "ravine": 5580,
      "connected": 5581,
      "sunshine": 5582,
      "parallel": 5583,
      "enclo": 5584,
      "written": 5585,
      "bulldozer": 5586,
      "Football": 5587,
      "Jewish": 5588,
      "Legos": 5589,
      "Military": 5590,
      "Miami": 5591,
      "Snow": 5592,
      "civil": 5593,
      "kiosk": 5594,
      "length": 5595,
      "olive": 5596,
      "proud": 5597,
      "sundress": 5598,
      "teddy": 5599,
      "##turned": 5600,
      "convenience": 5601,
      "scissors": 5602,
      "alcohol": 5603,
      "favorite": 5604,
      "nightclub": 5605,
      "!\"": 5606,
      "'.": 5607,
      "Apple": 5608,
      "Big": 5609,
      "Cal": 5610,
      "Dis": 5611,
      "East": 5612,
      "Gr": 5613,
      "Gentle": 5614,
      "Hot": 5615,
      "High": 5616,
      "Halloween": 5617,
      "Kid": 5618,
      "Le": 5619,
      "Min": 5620,
      "Mon": 5621,
      "Mark": 5622,
      "Mouse": 5623,
      "No": 5624,
      "Over": 5625,
      "Per": 5626,
      "Pat": 5627,
      "Pic": 5628,
      "Re": 5629,
      "Spe": 5630,
      "Te": 5631,
      "Tw": 5632,
      "Vi": 5633,
      "Wall": 5634,
      "aid": 5635,
      "bon": 5636,
      "bones": 5637,
      "bites": 5638,
      "bmx": 5639,
      "cul": 5640,
      "cinder": 5641,
      "dram": 5642,
      "deter": 5643,
      "em": 5644,
      "ec": 5645,
      "eu": 5646,
      "era": 5647,
      "escape": 5648,
      "earth": 5649,
      "fam": 5650,
      "found": 5651,
      "gy": 5652,
      "gum": 5653,
      "grow": 5654,
      "gig": 5655,
      "giv": 5656,
      "hed": 5657,
      "ket": 5658,
      "lon": 5659,
      "lie": 5660,
      "limb": 5661,
      "linger": 5662,
      "mel": 5663,
      "mind": 5664,
      "mout": 5665,
      "mops": 5666,
      "ni": 5667,
      "nat": 5668,
      "oar": 5669,
      "ping": 5670,
      "pane": 5671,
      "peng": 5672,
      "punk": 5673,
      "sister": 5674,
      "tear": 5675,
      "tam": 5676,
      "tumbling": 5677,
      "ver": 5678,
      "want": 5679,
      "yelling": 5680,
      "zip": 5681,
      "zeb": 5682,
      "##ae": 5683,
      "##af": 5684,
      "##aging": 5685,
      "##eer": 5686,
      "##fs": 5687,
      "##car": 5688,
      "##cast": 5689,
      "##cifier": 5690,
      "##capped": 5691,
      "##tit": 5692,
      "##den": 5693,
      "##pen": 5694,
      "##lph": 5695,
      "##lift": 5696,
      "##sw": 5697,
      "##oy": 5698,
      "##ob": 5699,
      "##olesc": 5700,
      "##ura": 5701,
      "##rid": 5702,
      "##ris": 5703,
      "##ye": 5704,
      "##ha": 5705,
      "##hone": 5706,
      "##hine": 5707,
      "##hift": 5708,
      "##nal": 5709,
      "##nown": 5710,
      "##bing": 5711,
      "##bre": 5712,
      "##gn": 5713,
      "##ixt": 5714,
      "##iors": 5715,
      "##ipped": 5716,
      "##kery": 5717,
      "##known": 5718,
      "##wear": 5719,
      "##well": 5720,
      "##ware": 5721,
      "##xim": 5722,
      "##zy": 5723,
      "##Bob": 5724,
      "##ingly": 5725,
      "##ances": 5726,
      "##helf": 5727,
      "##arat": 5728,
      "##roll": 5729,
      "##robe": 5730,
      "##alt": 5731,
      "##alth": 5732,
      "##enna": 5733,
      "##lable": 5734,
      "##lapid": 5735,
      "stain": 5736,
      "##cking": 5737,
      "##orary": 5738,
      "##lds": 5739,
      "##oper": 5740,
      "shines": 5741,
      "##isk": 5742,
      "plac": 5743,
      "##icely": 5744,
      "##icature": 5745,
      "##chers": 5746,
      "##chief": 5747,
      "dolph": 5748,
      "ann": 5749,
      "answ": 5750,
      "##geons": 5751,
      "##hermen": 5752,
      "##itement": 5753,
      "chat": 5754,
      "chip": 5755,
      "chips": 5756,
      "chunk": 5757,
      "baked": 5758,
      "bakery": 5759,
      "##ste": 5760,
      "##strip": 5761,
      "##stroke": 5762,
      "##ota": 5763,
      "##ott": 5764,
      "##une": 5765,
      "##cept": 5766,
      "holes": 5767,
      "haw": 5768,
      "##sel": 5769,
      "##ils": 5770,
      "##ilted": 5771,
      "smooth": 5772,
      "herding": 5773,
      "tap": 5774,
      "##ressive": 5775,
      "##elve": 5776,
      "watercraft": 5777,
      "carve": 5778,
      "carto": 5779,
      "carouse": 5780,
      "carved": 5781,
      "cargo": 5782,
      "caricature": 5783,
      "cler": 5784,
      "upper": 5785,
      "upright": 5786,
      "poking": 5787,
      "forming": 5788,
      "asph": 5789,
      "backward": 5790,
      "backlit": 5791,
      "backstroke": 5792,
      "greenery": 5793,
      "Ange": 5794,
      "master": 5795,
      "swan": 5796,
      "swamp": 5797,
      "##fort": 5798,
      "##boats": 5799,
      "##orescent": 5800,
      "flour": 5801,
      "snowman": 5802,
      "snowcapped": 5803,
      "spir": 5804,
      "spons": 5805,
      "spike": 5806,
      "overh": 5807,
      "tram": 5808,
      "trays": 5809,
      "rake": 5810,
      "handles": 5811,
      "handling": 5812,
      "conver": 5813,
      "convention": 5814,
      "##ldering": 5815,
      "##pled": 5816,
      "crowds": 5817,
      "solo": 5818,
      "offering": 5819,
      "scantily": 5820,
      "pauses": 5821,
      "pacifier": 5822,
      "goats": 5823,
      "perched": 5824,
      "perhap": 5825,
      "workman": 5826,
      "last": 5827,
      "unw": 5828,
      "unident": 5829,
      "unknown": 5830,
      "combat": 5831,
      "headset": 5832,
      "bloss": 5833,
      "parts": 5834,
      "##asm": 5835,
      "##illing": 5836,
      "theme": 5837,
      "themed": 5838,
      "prev": 5839,
      "##ared": 5840,
      "chem": 5841,
      "skateboarders": 5842,
      "rehe": 5843,
      "real": 5844,
      "suitcases": 5845,
      "proc": 5846,
      "prov": 5847,
      "baseman": 5848,
      "singers": 5849,
      "mothers": 5850,
      "least": 5851,
      "leashes": 5852,
      "slow": 5853,
      "footbr": 5854,
      "towels": 5855,
      "cattle": 5856,
      "daylight": 5857,
      "lost": 5858,
      "lovely": 5859,
      "winding": 5860,
      "windbre": 5861,
      "barking": 5862,
      "barren": 5863,
      "surfers": 5864,
      "sweaters": 5865,
      "sweatsuit": 5866,
      "deer": 5867,
      "marches": 5868,
      "sheer": 5869,
      "sheets": 5870,
      "shelves": 5871,
      "armor": 5872,
      "armed": 5873,
      "##ivan": 5874,
      "canopy": 5875,
      "canyon": 5876,
      "flowing": 5877,
      "dribbles": 5878,
      "passed": 5879,
      "passion": 5880,
      "passerby": 5881,
      "fireplace": 5882,
      "opened": 5883,
      "appare": 5884,
      "apparat": 5885,
      "##orted": 5886,
      "##agne": 5887,
      "##ronts": 5888,
      "cartwhe": 5889,
      "mats": 5890,
      "mature": 5891,
      "clearing": 5892,
      "baton": 5893,
      "batman": 5894,
      "competitors": 5895,
      "competitive": 5896,
      "clothesline": 5897,
      "cows": 5898,
      "##tical": 5899,
      "fold": 5900,
      "foam": 5901,
      "besides": 5902,
      "amaz": 5903,
      "clock": 5904,
      "turb": 5905,
      "pray": 5906,
      "breaks": 5907,
      "leaned": 5908,
      "##emporary": 5909,
      "jog": 5910,
      "carried": 5911,
      "Americans": 5912,
      "cradles": 5913,
      "crazy": 5914,
      "contents": 5915,
      "contempl": 5916,
      "appearing": 5917,
      "graffitied": 5918,
      "patri": 5919,
      "shoeshine": 5920,
      "volunte": 5921,
      "equestrian": 5922,
      "film": 5923,
      "curve": 5924,
      "curved": 5925,
      "curtain": 5926,
      "sweatshirts": 5927,
      "gloved": 5928,
      "struggles": 5929,
      "butt": 5930,
      "vegetation": 5931,
      "served": 5932,
      "refre": 5933,
      "early": 5934,
      "varying": 5935,
      "Groups": 5936,
      "seas": 5937,
      "robot": 5938,
      "directs": 5939,
      "splash": 5940,
      "repres": 5941,
      "interact": 5942,
      "posters": 5943,
      "digs": 5944,
      "monopoly": 5945,
      "saying": 5946,
      "masked": 5947,
      "Concert": 5948,
      "intense": 5949,
      "businessman": 5950,
      "shady": 5951,
      "decorating": 5952,
      "artistic": 5953,
      "peak": 5954,
      "peacock": 5955,
      "rowboat": 5956,
      "tunic": 5957,
      "##ified": 5958,
      "makeshift": 5959,
      "balanced": 5960,
      "chained": 5961,
      "operation": 5962,
      "multicolor": 5963,
      "Sponge": 5964,
      "harp": 5965,
      "blocked": 5966,
      "pedd": 5967,
      "pedestrian": 5968,
      "rounding": 5969,
      "starts": 5970,
      "braided": 5971,
      "completed": 5972,
      "partying": 5973,
      "includes": 5974,
      "strap": 5975,
      "cloths": 5976,
      "dunking": 5977,
      "keys": 5978,
      "pinned": 5979,
      "pinstrip": 5980,
      "eyeglasses": 5981,
      "stylish": 5982,
      "stretch": 5983,
      "fairy": 5984,
      "petals": 5985,
      "stacks": 5986,
      "hooping": 5987,
      "mustard": 5988,
      "collecting": 5989,
      "exciting": 5990,
      "excitement": 5991,
      "saxoph": 5992,
      "bookshelf": 5993,
      "padded": 5994,
      "message": 5995,
      "tongs": 5996,
      "posts": 5997,
      "rubs": 5998,
      "rubble": 5999,
      "cookies": 6000,
      "Athle": 6001,
      "remote": 6002,
      "##anged": 6003,
      "donkeys": 6004,
      "gliding": 6005,
      "glider": 6006,
      "barbecuing": 6007,
      "vacation": 6008,
      "possession": 6009,
      "opponents": 6010,
      "positioned": 6011,
      "cooler": 6012,
      "coolers": 6013,
      "feathers": 6014,
      "superman": 6015,
      "fills": 6016,
      "tossed": 6017,
      "sailor": 6018,
      "Rodeo": 6019,
      "Sold": 6020,
      "emerges": 6021,
      "parachutes": 6022,
      "parachuting": 6023,
      "floaties": 6024,
      "storefronts": 6025,
      "fingern": 6026,
      "beginning": 6027,
      "admire": 6028,
      "motorbikes": 6029,
      "sacks": 6030,
      "archway": 6031,
      "applies": 6032,
      "elephants": 6033,
      "salad": 6034,
      "tugging": 6035,
      "drilling": 6036,
      "apples": 6037,
      "photographing": 6038,
      "exhibition": 6039,
      "automo": 6040,
      "depic": 6041,
      "cabin": 6042,
      "##iversity": 6043,
      "Ital": 6044,
      "Marathon": 6045,
      "delic": 6046,
      "##ailable": 6047,
      "sparse": 6048,
      "cheeks": 6049,
      "merchant": 6050,
      "embrace": 6051,
      "bunny": 6052,
      "flee": 6053,
      "letter": 6054,
      "popcorn": 6055,
      "priest": 6056,
      "bundled": 6057,
      "comforting": 6058,
      "register": 6059,
      "##inished": 6060,
      "heavyset": 6061,
      "returns": 6062,
      "wonder": 6063,
      "angry": 6064,
      "Tourist": 6065,
      "bounding": 6066,
      "crawling": 6067,
      "pride": 6068,
      "tomato": 6069,
      "torches": 6070,
      "##ipper": 6071,
      "##working": 6072,
      "instructing": 6073,
      "expressions": 6074,
      "lantern": 6075,
      "community": 6076,
      "Colle": 6077,
      "Color": 6078,
      "crowns": 6079,
      "husky": 6080,
      "poodles": 6081,
      "ruins": 6082,
      "##hammer": 6083,
      "##guards": 6084,
      "stride": 6085,
      "strum": 6086,
      "watermelon": 6087,
      "massive": 6088,
      "reclines": 6089,
      "attraction": 6090,
      "descending": 6091,
      "selection": 6092,
      "banana": 6093,
      "axe": 6094,
      "bronze": 6095,
      "huddled": 6096,
      "lowered": 6097,
      "whistle": 6098,
      "bushy": 6099,
      "attendant": 6100,
      "respect": 6101,
      "respond": 6102,
      "interviewed": 6103,
      "assistant": 6104,
      "weapons": 6105,
      "tuxedo": 6106,
      "McDonalds": 6107,
      "Amish": 6108,
      "Gray": 6109,
      "Swim": 6110,
      "saris": 6111,
      "utility": 6112,
      "snaps": 6113,
      "Bicyclist": 6114,
      "University": 6115,
      "confused": 6116,
      "scales": 6117,
      "arrive": 6118,
      "concentrates": 6119,
      "seagulls": 6120,
      "Surfer": 6121,
      "tiara": 6122,
      "toilet": 6123,
      "antique": 6124,
      "historic": 6125,
      "cockpit": 6126,
      "ascending": 6127,
      "backhoe": 6128,
      "trimming": 6129,
      "earrings": 6130,
      "exploring": 6131,
      "identical": 6132,
      "mannequin": 6133,
      "Claus": 6134,
      "Parents": 6135,
      "citizens": 6136,
      "javelin": 6137,
      "searching": 6138,
      "installing": 6139,
      "clarinet": 6140,
      "campsite": 6141,
      "unfinished": 6142,
      "accep": 6143,
      "attentively": 6144,
      "slicing": 6145,
      "windsur": 6146,
      "struggling": 6147,
      "terminal": 6148,
      "conditions": 6149,
      "Rollerblades": 6150,
      "kimonos": 6151,
      "Basket": 6152,
      "Cowboy": 6153,
      "Dancers": 6154,
      "Happy": 6155,
      "Obama": 6156,
      "Tennis": 6157,
      "vocalist": 6158,
      "wiping": 6159,
      "champagne": 6160,
      "hairstyle": 6161,
      "brindle": 6162,
      "suburban": 6163,
      "magnifying": 6164,
      "Shirtless": 6165,
      "recreational": 6166,
      "blindfolded": 6167,
      "symbol": 6168,
      "eagerly": 6169,
      "Grand": 6170,
      "given": 6171,
      "lingerie": 6172,
      "pengu": 6173,
      "tambour": 6174,
      "vertical": 6175,
      "zebra": 6176,
      "##rolling": 6177,
      "##lapidated": 6178,
      "carousel": 6179,
      "asphalt": 6180,
      "sponsored": 6181,
      "perhaps": 6182,
      "windbreaker": 6183,
      "apparatus": 6184,
      "cartwheel": 6185,
      "SpongeBob": 6186,
      "pinstriped": 6187,
      "automobile": 6188,
      "Basketball": 6189,
      "00": 6190,
      "12": 6191,
      "30": 6192,
      "Ab": 6193,
      "All": 6194,
      "Bal": 6195,
      "Bur": 6196,
      "Bike": 6197,
      "Cyclists": 6198,
      "Cars": 6199,
      "Dress": 6200,
      "Day": 6201,
      "Del": 6202,
      "During": 6203,
      "Emer": 6204,
      "Friend": 6205,
      "Farm": 6206,
      "Gard": 6207,
      "Guitar": 6208,
      "Har": 6209,
      "His": 6210,
      "Ice": 6211,
      "Ken": 6212,
      "Kay": 6213,
      "La": 6214,
      "Lou": 6215,
      "Long": 6216,
      "Looking": 6217,
      "Life": 6218,
      "Mr": 6219,
      "Mot": 6220,
      "Mick": 6221,
      "Mich": 6222,
      "Nike": 6223,
      "Or": 6224,
      "Oh": 6225,
      "Ok": 6226,
      "Out": 6227,
      "Ocean": 6228,
      "Oriental": 6229,
      "Pit": 6230,
      "Pain": 6231,
      "Park": 6232,
      "Qu": 6233,
      "Race": 6234,
      "Russ": 6235,
      "SU": 6236,
      "Sea": 6237,
      "Side": 6238,
      "Sun": 6239,
      "South": 6240,
      "Singer": 6241,
      "Ter": 6242,
      "View": 6243,
      "Veg": 6244,
      "Wa": 6245,
      "Wal": 6246,
      "Wat": 6247,
      "With": 6248,
      "Wet": 6249,
      "Wel": 6250,
      "Walk": 6251,
      "Was": 6252,
      "You": 6253,
      "Yama": 6254,
      "amb": 6255,
      "bark": 6256,
      "bout": 6257,
      "cem": 6258,
      "cub": 6259,
      "dem": 6260,
      "dip": 6261,
      "dug": 6262,
      "drop": 6263,
      "dash": 6264,
      "ed": 6265,
      "elder": 6266,
      "east": 6267,
      "fru": 6268,
      "fine": 6269,
      "fives": 6270,
      "fighter": 6271,
      "gor": 6272,
      "gated": 6273,
      "ginger": 6274,
      "hon": 6275,
      "hop": 6276,
      "hips": 6277,
      "henna": 6278,
      "jar": 6279,
      "kilts": 6280,
      "lla": 6281,
      "lid": 6282,
      "lim": 6283,
      "lem": 6284,
      "loud": 6285,
      "ming": 6286,
      "mad": 6287,
      "minis": 6288,
      "nine": 6289,
      "nicely": 6290,
      "ow": 6291,
      "oct": 6292,
      "pom": 6293,
      "poun": 6294,
      "pong": 6295,
      "pant": 6296,
      "rear": 6297,
      "roping": 6298,
      "sight": 6299,
      "sip": 6300,
      "sas": 6301,
      "sons": 6302,
      "siding": 6303,
      "session": 6304,
      "sorts": 6305,
      "sucking": 6306,
      "tet": 6307,
      "trou": 6308,
      "tip": 6309,
      "uk": 6310,
      "used": 6311,
      "vig": 6312,
      "vast": 6313,
      "wand": 6314,
      "wick": 6315,
      "wool": 6316,
      "waring": 6317,
      "wipes": 6318,
      "wades": 6319,
      "your": 6320,
      "york": 6321,
      "yaw": 6322,
      "zo": 6323,
      "zoo": 6324,
      "##mith": 6325,
      "##mon": 6326,
      "##mage": 6327,
      "##muff": 6328,
      "##cs": 6329,
      "##cum": 6330,
      "##care": 6331,
      "##cited": 6332,
      "##tion": 6333,
      "##die": 6334,
      "##dish": 6335,
      "##dog": 6336,
      "##pite": 6337,
      "##pie": 6338,
      "##pering": 6339,
      "##sts": 6340,
      "##sion": 6341,
      "##ole": 6342,
      "##oles": 6343,
      "##osc": 6344,
      "##ule": 6345,
      "##uge": 6346,
      "##uce": 6347,
      "##uct": 6348,
      "##rise": 6349,
      "##yond": 6350,
      "##hor": 6351,
      "##hand": 6352,
      "##homa": 6353,
      "##nes": 6354,
      "##ben": 6355,
      "##bly": 6356,
      "##bathers": 6357,
      "##bucks": 6358,
      "##gle": 6359,
      "##gap": 6360,
      "##ii": 6361,
      "##iver": 6362,
      "##kins": 6363,
      "##va": 6364,
      "##wag": 6365,
      "##weed": 6366,
      "##wdri": 6367,
      "##zard": 6368,
      "##zil": 6369,
      "##zens": 6370,
      "##Aid": 6371,
      "##CE": 6372,
      "##MC": 6373,
      "##inas": 6374,
      "##inary": 6375,
      "##anting": 6376,
      "##ancing": 6377,
      "##eria": 6378,
      "inline": 6379,
      "incoming": 6380,
      "##itan": 6381,
      "##itating": 6382,
      "##rec": 6383,
      "##lem": 6384,
      "##leton": 6385,
      "these": 6386,
      "##arts": 6387,
      "##aration": 6388,
      "##rols": 6389,
      "once": 6390,
      "##aler": 6391,
      "##omet": 6392,
      "##omot": 6393,
      "##lahoma": 6394,
      "stalks": 6395,
      "##orc": 6396,
      "##edos": 6397,
      "##etery": 6398,
      "##onies": 6399,
      "##idge": 6400,
      "##opus": 6401,
      "##oppy": 6402,
      "shit": 6403,
      "shru": 6404,
      "##iser": 6405,
      "##ision": 6406,
      "##oored": 6407,
      "##anding": 6408,
      "##andex": 6409,
      "areas": 6410,
      "toast": 6411,
      "##allic": 6412,
      "playpen": 6413,
      "##ray": 6414,
      "boss": 6415,
      "##eapple": 6416,
      "siting": 6417,
      "blown": 6418,
      "##gee": 6419,
      "chub": 6420,
      "bagg": 6421,
      "##store": 6422,
      "##stance": 6423,
      "##otch": 6424,
      "##otion": 6425,
      "##una": 6426,
      "frolic": 6427,
      "frown": 6428,
      "hispanic": 6429,
      "##umble": 6430,
      "think": 6431,
      "thread": 6432,
      "##verty": 6433,
      "reddish": 6434,
      "##rick": 6435,
      "##urs": 6436,
      "##ader": 6437,
      "##amic": 6438,
      "bud": 6439,
      "buggy": 6440,
      "buoy": 6441,
      "loose": 6442,
      "streetlight": 6443,
      "##seen": 6444,
      "##imate": 6445,
      "bee": 6446,
      "beat": 6447,
      "begging": 6448,
      "beyond": 6449,
      "roses": 6450,
      "rode": 6451,
      "smoot": 6452,
      "taught": 6453,
      "tagged": 6454,
      "tasting": 6455,
      "taste": 6456,
      "##kswag": 6457,
      "##ello": 6458,
      "graph": 6459,
      "##ielder": 6460,
      "clust": 6461,
      "ups": 6462,
      "pokes": 6463,
      "poised": 6464,
      "poverty": 6465,
      "forces": 6466,
      "sombr": 6467,
      "ash": 6468,
      "asking": 6469,
      "##hington": 6470,
      "runway": 6471,
      "word": 6472,
      "mache": 6473,
      "sweep": 6474,
      "##forcement": 6475,
      "snake": 6476,
      "ridding": 6477,
      "floppy": 6478,
      "floored": 6479,
      "orders": 6480,
      "snowf": 6481,
      "snowing": 6482,
      "snowmo": 6483,
      "spear": 6484,
      "spanish": 6485,
      "spandex": 6486,
      "overcoat": 6487,
      "overturned": 6488,
      "##ushing": 6489,
      "persons": 6490,
      "##airs": 6491,
      "##igs": 6492,
      "someones": 6493,
      "soil": 6494,
      "soldering": 6495,
      "scout": 6496,
      "scared": 6497,
      "alike": 6498,
      "##utches": 6499,
      "ladders": 6500,
      "came": 6501,
      "aircraft": 6502,
      "arr": 6503,
      "arid": 6504,
      "goers": 6505,
      "govern": 6506,
      "workben": 6507,
      "sunrise": 6508,
      "sunbathers": 6509,
      "lakes": 6510,
      "unpack": 6511,
      "uncom": 6512,
      "unpa": 6513,
      "unseen": 6514,
      "comb": 6515,
      "topic": 6516,
      "rocking": 6517,
      "readying": 6518,
      "cityscape": 6519,
      "pictured": 6520,
      "surgeons": 6521,
      "guitarists": 6522,
      "buses": 6523,
      "phys": 6524,
      "walkers": 6525,
      "brimmed": 6526,
      "helped": 6527,
      "adolesc": 6528,
      "horns": 6529,
      "##enders": 6530,
      "##ills": 6531,
      "roadway": 6532,
      "roadwork": 6533,
      "##imber": 6534,
      "sandal": 6535,
      "##shore": 6536,
      "swimwear": 6537,
      "bringing": 6538,
      "kiddie": 6539,
      "purs": 6540,
      "promo": 6541,
      "mountainside": 6542,
      "basement": 6543,
      "waitress": 6544,
      "health": 6545,
      "sling": 6546,
      "slot": 6547,
      "slip": 6548,
      "sloping": 6549,
      "slices": 6550,
      "tribe": 6551,
      "trims": 6552,
      "triangle": 6553,
      "plu": 6554,
      "plowing": 6555,
      "plucking": 6556,
      "helmeted": 6557,
      "loop": 6558,
      "coveralls": 6559,
      "whole": 6560,
      "motorboat": 6561,
      "sweaty": 6562,
      "markings": 6563,
      "exits": 6564,
      "except": 6565,
      "##mbone": 6566,
      "cafet": 6567,
      "cause": 6568,
      "caution": 6569,
      "shed": 6570,
      "shel": 6571,
      "slender": 6572,
      "preparation": 6573,
      "trained": 6574,
      "pastries": 6575,
      "layers": 6576,
      "basketballs": 6577,
      "drivers": 6578,
      "driven": 6579,
      "dribbling": 6580,
      "disk": 6581,
      "safe": 6582,
      "hilly": 6583,
      "bowler": 6584,
      "##strated": 6585,
      "despite": 6586,
      "##scotch": 6587,
      "##sps": 6588,
      "##rong": 6589,
      "mates": 6590,
      "##berty": 6591,
      "kites": 6592,
      "kitten": 6593,
      "##verse": 6594,
      "polish": 6595,
      "bookbag": 6596,
      "bookstore": 6597,
      "metro": 6598,
      "metrop": 6599,
      "metallic": 6600,
      "bats": 6601,
      "stairwell": 6602,
      "competes": 6603,
      "Somebody": 6604,
      "##chenAid": 6605,
      "beards": 6606,
      "surroundings": 6607,
      "artific": 6608,
      "created": 6609,
      "##izes": 6610,
      "cord": 6611,
      "paintings": 6612,
      "substance": 6613,
      "likely": 6614,
      "hikes": 6615,
      "closer": 6616,
      "bridal": 6617,
      "cleaned": 6618,
      "snowboarders": 6619,
      "studies": 6620,
      "shave": 6621,
      "breaking": 6622,
      "viewer": 6623,
      "grima": 6624,
      "megap": 6625,
      "crab": 6626,
      "controls": 6627,
      "puffy": 6628,
      "fourth": 6629,
      "winning": 6630,
      "##acy": 6631,
      "taller": 6632,
      "statues": 6633,
      "current": 6634,
      "ramps": 6635,
      "picker": 6636,
      "pickup": 6637,
      "squat": 6638,
      "write": 6639,
      "padding": 6640,
      "Boston": 6641,
      "Station": 6642,
      "seeds": 6643,
      "tattered": 6644,
      "via": 6645,
      "##azz": 6646,
      "earmuff": 6647,
      "stationary": 6648,
      "web": 6649,
      "weird": 6650,
      "weeds": 6651,
      "##rica": 6652,
      "paintball": 6653,
      "paintbrush": 6654,
      "Individu": 6655,
      "landed": 6656,
      "seam": 6657,
      "seaweed": 6658,
      "seashore": 6659,
      "structures": 6660,
      "piled": 6661,
      "##tible": 6662,
      "multi": 6663,
      "formed": 6664,
      "expl": 6665,
      "explo": 6666,
      "exposed": 6667,
      "photography": 6668,
      "photographers": 6669,
      "know": 6670,
      "known": 6671,
      "grins": 6672,
      "litter": 6673,
      "potted": 6674,
      "postal": 6675,
      "quaint": 6676,
      "banging": 6677,
      "milk": 6678,
      "##enger": 6679,
      "note": 6680,
      "troops": 6681,
      "trombone": 6682,
      "observers": 6683,
      "bathrobe": 6684,
      "circuit": 6685,
      "circus": 6686,
      "sculpting": 6687,
      "sculptor": 6688,
      "locomot": 6689,
      "casts": 6690,
      "daught": 6691,
      "typical": 6692,
      "ways": 6693,
      "##coal": 6694,
      "##thy": 6695,
      "peach": 6696,
      "tuning": 6697,
      "wraps": 6698,
      "projected": 6699,
      "crus": 6700,
      "crutches": 6701,
      "##ifts": 6702,
      "participates": 6703,
      "celebrates": 6704,
      "Sports": 6705,
      "harv": 6706,
      "gymnastic": 6707,
      "magic": 6708,
      "rounds": 6709,
      "peeling": 6710,
      "prints": 6711,
      "partly": 6712,
      "engage": 6713,
      "eatery": 6714,
      "packing": 6715,
      "strawberry": 6716,
      "actors": 6717,
      "straps": 6718,
      "tackles": 6719,
      "dunk": 6720,
      "dunes": 6721,
      "pineapple": 6722,
      "pulley": 6723,
      "frames": 6724,
      "pillars": 6725,
      "stacking": 6726,
      "washed": 6727,
      "balconies": 6728,
      "squares": 6729,
      "collection": 6730,
      "messenger": 6731,
      "retail": 6732,
      "shoots": 6733,
      "kayakers": 6734,
      "wetsuits": 6735,
      "terrier": 6736,
      "weave": 6737,
      "receive": 6738,
      "receives": 6739,
      "inflated": 6740,
      "professionals": 6741,
      "crib": 6742,
      "sales": 6743,
      "warning": 6744,
      "cooked": 6745,
      "cookie": 6746,
      "steer": 6747,
      "steers": 6748,
      "camper": 6749,
      "campers": 6750,
      "designer": 6751,
      "freshly": 6752,
      "boulders": 6753,
      "stools": 6754,
      "guarding": 6755,
      "grooms": 6756,
      "merma": 6757,
      "shapes": 6758,
      "fashionable": 6759,
      "dolly": 6760,
      "adjust": 6761,
      "chested": 6762,
      "defensive": 6763,
      "defenders": 6764,
      "dilapidated": 6765,
      "sumo": 6766,
      "headscarves": 6767,
      "pretending": 6768,
      "piggy": 6769,
      "tosses": 6770,
      "sailboats": 6771,
      "rollerskaters": 6772,
      "entertainer": 6773,
      "carpeted": 6774,
      "bounce": 6775,
      "emerging": 6776,
      "storm": 6777,
      "storage": 6778,
      "Art": 6779,
      "blade": 6780,
      "firing": 6781,
      "youths": 6782,
      "strikes": 6783,
      "thinking": 6784,
      "pitchers": 6785,
      "actively": 6786,
      "jewelery": 6787,
      "archite": 6788,
      "leafless": 6789,
      "muzzles": 6790,
      "Crowds": 6791,
      "extended": 6792,
      "maintain": 6793,
      "headbands": 6794,
      "electronics": 6795,
      "tightly": 6796,
      "tightrope": 6797,
      "screwdri": 6798,
      "terrace": 6799,
      "drops": 6800,
      "dropped": 6801,
      "galloping": 6802,
      "peeks": 6803,
      "parasol": 6804,
      "burgers": 6805,
      "bungee": 6806,
      "demonstrating": 6807,
      "flea": 6808,
      "flex": 6809,
      "letters": 6810,
      "prim": 6811,
      "prizes": 6812,
      "chickens": 6813,
      "chews": 6814,
      "decide": 6815,
      "fetching": 6816,
      "powered": 6817,
      "weathered": 6818,
      "organizing": 6819,
      "scoop": 6820,
      "returning": 6821,
      "removing": 6822,
      "pressure": 6823,
      "wigs": 6824,
      "solitary": 6825,
      "crayon": 6826,
      "waterskier": 6827,
      "impressive": 6828,
      "owners": 6829,
      "prun": 6830,
      "torn": 6831,
      "instructor": 6832,
      "sniffs": 6833,
      "spikes": 6834,
      "spiked": 6835,
      "handleb": 6836,
      "texts": 6837,
      "Toy": 6838,
      "Teenage": 6839,
      "Teenag": 6840,
      "calling": 6841,
      "seniors": 6842,
      "mascara": 6843,
      "scrap": 6844,
      "purchasing": 6845,
      "selecting": 6846,
      "stocking": 6847,
      "stockings": 6848,
      "avoid": 6849,
      "available": 6850,
      "else": 6851,
      "pirates": 6852,
      "slab": 6853,
      "separ": 6854,
      "##hole": 6855,
      "##hold": 6856,
      "stirs": 6857,
      "whispering": 6858,
      "flatbed": 6859,
      "constructing": 6860,
      "adorable": 6861,
      "Island": 6862,
      "oxen": 6863,
      "utens": 6864,
      "maneuver": 6865,
      "steam": 6866,
      "steaks": 6867,
      "charcoal": 6868,
      "cables": 6869,
      "twirling": 6870,
      "technolog": 6871,
      "technique": 6872,
      "Bicyclists": 6873,
      "Parade": 6874,
      "oversized": 6875,
      "graduation": 6876,
      "spectate": 6877,
      "mechanic": 6878,
      "mechanical": 6879,
      "enthusiastically": 6880,
      "Photograph": 6881,
      "Eng": 6882,
      "dominoes": 6883,
      "mesh": 6884,
      "satche": 6885,
      "##flowers": 6886,
      "shields": 6887,
      "chiseling": 6888,
      "rabbit": 6889,
      "rabbits": 6890,
      "cupcake": 6891,
      "cupcakes": 6892,
      "communicating": 6893,
      "retrieving": 6894,
      "Deere": 6895,
      "Latin": 6896,
      "iPod": 6897,
      "minivan": 6898,
      "noodles": 6899,
      "skeleton": 6900,
      "##estern": 6901,
      "mailbox": 6902,
      "skimpy": 6903,
      "snorkel": 6904,
      "sprinting": 6905,
      "paws": 6906,
      "sunhat": 6907,
      "##uddling": 6908,
      "kickboxing": 6909,
      "Starbucks": 6910,
      "videotaping": 6911,
      "greeting": 6912,
      "bracelet": 6913,
      "extremely": 6914,
      "Arabic": 6915,
      "Brazil": 6916,
      "Elementary": 6917,
      "Greyhound": 6918,
      "KitchenAid": 6919,
      "cruise": 6920,
      "halter": 6921,
      "hidden": 6922,
      "keeping": 6923,
      "pleas": 6924,
      "##orously": 6925,
      "hauling": 6926,
      "coconuts": 6927,
      "fluorescent": 6928,
      "scratching": 6929,
      "sausages": 6930,
      "submerged": 6931,
      "puzzle": 6932,
      "weighing": 6933,
      "directly": 6934,
      "question": 6935,
      "memorial": 6936,
      "brochure": 6937,
      "drainage": 6938,
      "curious": 6939,
      "pancake": 6940,
      "Shoppers": 6941,
      "comfortable": 6942,
      "occurring": 6943,
      "occupied": 6944,
      "Disney": 6945,
      "Gentleman": 6946,
      "Hotel": 6947,
      "Market": 6948,
      "Picture": 6949,
      "Speedo": 6950,
      "dramatically": 6951,
      "foundation": 6952,
      "kettle": 6953,
      "lonely": 6954,
      "##ixture": 6955,
      "dolphin": 6956,
      "##ottish": 6957,
      "hawk": 6958,
      "cartoon": 6959,
      "swampy": 6960,
      "overhang": 6961,
      "convertible": 6962,
      "unwra": 6963,
      "unidentified": 6964,
      "rehear": 6965,
      "footbridge": 6966,
      "passionately": 6967,
      "apparel": 6968,
      "contemplating": 6969,
      "delicious": 6970,
      "College": 6971,
      "accepting": 6972,
      "About": 6973,
      "Emergency": 6974,
      "Friends": 6975,
      "Hispanic": 6976,
      "Motorc": 6977,
      "Mickey": 6978,
      "Oklahoma": 6979,
      "Vegas": 6980,
      "Welcome": 6981,
      "Washington": 6982,
      "Yamaha": 6983,
      "cemetery": 6984,
      "cubicle": 6985,
      "frustrated": 6986,
      "hopscotch": 6987,
      "lemons": 6988,
      "minisk": 6989,
      "owner": 6990,
      "octopus": 6991,
      "sashes": 6992,
      "tether": 6993,
      "ukule": 6994,
      "wicker": 6995,
      "##oscope": 6996,
      "chubby": 6997,
      "smoothing": 6998,
      "##kswagen": 6999,
      "workbench": 7000,
      "unpacking": 7001,
      "unpaved": 7002,
      "promoting": 7003,
      "cafeteria": 7004,
      "metropol": 7005,
      "artificial": 7006,
      "megaphone": 7007,
      "currently": 7008,
      "earmuffs": 7009,
      "daughters": 7010,
      "mermaid": 7011,
      "piggyback": 7012,
      "technology": 7013,
      "Photographers": 7014,
      "ukulele": 7015,
      "19": 7016,
      "14": 7017,
      "24": 7018,
      "3r": 7019,
      "50": 7020,
      "?\"": 7021,
      "Ac": 7022,
      "Au": 7023,
      "Air": 7024,
      "Ala": 7025,
      "Aut": 7026,
      "Bu": 7027,
      "Ber": 7028,
      "Bar": 7029,
      "Bat": 7030,
      "Bus": 7031,
      "Bull": 7032,
      "Budd": 7033,
      "Cl": 7034,
      "Crou": 7035,
      "Cent": 7036,
      "Cap": 7037,
      "Care": 7038,
      "Cycl": 7039,
      "Cast": 7040,
      "Camp": 7041,
      "Coney": 7042,
      "DS": 7043,
      "Dad": 7044,
      "Down": 7045,
      "Dep": 7046,
      "Ev": 7047,
      "Elder": 7048,
      "Emp": 7049,
      "Easter": 7050,
      "Ethnic": 7051,
      "Fro": 7052,
      "Fla": 7053,
      "Fore": 7054,
      "Few": 7055,
      "Fast": 7056,
      "Ford": 7057,
      "French": 7058,
      "Ge": 7059,
      "Go": 7060,
      "Gri": 7061,
      "Good": 7062,
      "Gap": 7063,
      "Gym": 7064,
      "Hor": 7065,
      "Hand": 7066,
      "Hard": 7067,
      "Home": 7068,
      "Hikers": 7069,
      "Jim": 7070,
      "Joe": 7071,
      "Kore": 7072,
      "Lo": 7073,
      "Lead": 7074,
      "Lone": 7075,
      "Lak": 7076,
      "Looks": 7077,
      "Mo": 7078,
      "Mom": 7079,
      "Med": 7080,
      "Mad": 7081,
      "Main": 7082,
      "Mets": 7083,
      "Na": 7084,
      "Ne": 7085,
      "Not": 7086,
      "Nine": 7087,
      "Nint": 7088,
      "Ori": 7089,
      "Pops": 7090,
      "Pizza": 7091,
      "Ri": 7092,
      "Rug": 7093,
      "Rod": 7094,
      "Renaissance": 7095,
      "San": 7096,
      "Ser": 7097,
      "Sit": 7098,
      "Sam": 7099,
      "Ste": 7100,
      "Tra": 7101,
      "Tye": 7102,
      "Ve": 7103,
      "Whe": 7104,
      "Wor": 7105,
      "Wii": 7106,
      "ast": 7107,
      "aerial": 7108,
      "bom": 7109,
      "best": 7110,
      "cust": 7111,
      "cors": 7112,
      "cere": 7113,
      "cert": 7114,
      "cush": 7115,
      "cult": 7116,
      "dw": 7117,
      "dand": 7118,
      "due": 7119,
      "dent": 7120,
      "dren": 7121,
      "dap": 7122,
      "duff": 7123,
      "dalm": 7124,
      "dorm": 7125,
      "ditch": 7126,
      "darts": 7127,
      "ef": 7128,
      "eg": 7129,
      "fal": 7130,
      "fra": 7131,
      "fist": 7132,
      "fool": 7133,
      "fier": 7134,
      "fiddle": 7135,
      "gn": 7136,
      "goo": 7137,
      "gay": 7138,
      "grip": 7139,
      "gifts": 7140,
      "hee": 7141,
      "halloween": 7142,
      "huddling": 7143,
      "ir": 7144,
      "iro": 7145,
      "jug": 7146,
      "jars": 7147,
      "junk": 7148,
      "jazz": 7149,
      "kart": 7150,
      "lin": 7151,
      "lat": 7152,
      "mow": 7153,
      "mate": 7154,
      "might": 7155,
      "mist": 7156,
      "nin": 7157,
      "now": 7158,
      "oll": 7159,
      "olymp": 7160,
      "pand": 7161,
      "pear": 7162,
      "pel": 7163,
      "pep": 7164,
      "pets": 7165,
      "rit": 7166,
      "rul": 7167,
      "rig": 7168,
      "rect": 7169,
      "rainst": 7170,
      "rise": 7171,
      "rises": 7172,
      "renaissance": 7173,
      "sed": 7174,
      "swo": 7175,
      "salm": 7176,
      "sips": 7177,
      "sipping": 7178,
      "self": 7179,
      "sipp": 7180,
      "suds": 7181,
      "sizes": 7182,
      "tv": 7183,
      "trough": 7184,
      "tul": 7185,
      "tend": 7186,
      "took": 7187,
      "testing": 7188,
      "telling": 7189,
      "tends": 7190,
      "tells": 7191,
      "temporary": 7192,
      "timber": 7193,
      "und": 7194,
      "urin": 7195,
      "vers": 7196,
      "vine": 7197,
      "vivid": 7198,
      "wield": 7199,
      "wade": 7200,
      "wrong": 7201,
      "yet": 7202,
      "##ax": 7203,
      "##aic": 7204,
      "##aut": 7205,
      "##aching": 7206,
      "##akes": 7207,
      "##aign": 7208,
      "##ags": 7209,
      "##ault": 7210,
      "##me": 7211,
      "##mic": 7212,
      "##mother": 7213,
      "##made": 7214,
      "##eck": 7215,
      "##field": 7216,
      "##fast": 7217,
      "##cro": 7218,
      "##cue": 7219,
      "##cards": 7220,
      "##tch": 7221,
      "##tling": 7222,
      "##try": 7223,
      "##trucks": 7224,
      "##dile": 7225,
      "##pro": 7226,
      "##prin": 7227,
      "##pelling": 7228,
      "##lin": 7229,
      "##smith": 7230,
      "##of": 7231,
      "##ok": 7232,
      "##ola": 7233,
      "##ogra": 7234,
      "##ux": 7235,
      "##ration": 7236,
      "##rical": 7237,
      "##rised": 7238,
      "##yle": 7239,
      "##hroom": 7240,
      "##ng": 7241,
      "##nce": 7242,
      "##nast": 7243,
      "##nets": 7244,
      "##nia": 7245,
      "##bie": 7246,
      "##beat": 7247,
      "##book": 7248,
      "##bac": 7249,
      "##buds": 7250,
      "##bags": 7251,
      "##gin": 7252,
      "##gear": 7253,
      "##gent": 7254,
      "##glass": 7255,
      "##gles": 7256,
      "##gling": 7257,
      "##ien": 7258,
      "##ifor": 7259,
      "##iate": 7260,
      "##iach": 7261,
      "##iator": 7262,
      "##vin": 7263,
      "##wom": 7264,
      "##wning": 7265,
      "##was": 7266,
      "##xy": 7267,
      "##xiously": 7268,
      "##AT": 7269,
      "##CK": 7270,
      "##Pants": 7271,
      "##ja": 7272,
      "##OI": 7273,
      "##ON": 7274,
      "##GO": 7275,
      "##0s": 7276,
      "##inting": 7277,
      "##anitor": 7278,
      "##ern": 7279,
      "##eran": 7280,
      "ink": 7281,
      "inse": 7282,
      "instruction": 7283,
      "inde": 7284,
      "##itation": 7285,
      "##hel": 7286,
      "##rep": 7287,
      "##reached": 7288,
      "##lee": 7289,
      "##rofo": 7290,
      "##att": 7291,
      "##atown": 7292,
      "##irking": 7293,
      "##ene": 7294,
      "manic": 7295,
      "manual": 7296,
      "manhole": 7297,
      "##omas": 7298,
      "##laces": 7299,
      "##lagers": 7300,
      "sta": 7301,
      "states": 7302,
      "stony": 7303,
      "steth": 7304,
      "##ckets": 7305,
      "##orn": 7306,
      "##orter": 7307,
      "##eding": 7308,
      "##iders": 7309,
      "##iderman": 7310,
      "shri": 7311,
      "shamp": 7312,
      "##ism": 7313,
      "##ishes": 7314,
      "##oos": 7315,
      "##andom": 7316,
      "toen": 7317,
      "tobac": 7318,
      "##ico": 7319,
      "##icles": 7320,
      "##icapped": 7321,
      "##iction": 7322,
      "##chering": 7323,
      "playhouse": 7324,
      "##ersault": 7325,
      "##rad": 7326,
      "boa": 7327,
      "boating": 7328,
      "dojo": 7329,
      "dozen": 7330,
      "##eaker": 7331,
      "##llip": 7332,
      "##llister": 7333,
      "ank": 7334,
      "situ": 7335,
      "##geous": 7336,
      "##iled": 7337,
      "chart": 7338,
      "bay": 7339,
      "##irline": 7340,
      "##sta": 7341,
      "##stal": 7342,
      "##stress": 7343,
      "##storm": 7344,
      "##stairs": 7345,
      "youngsters": 7346,
      "##otation": 7347,
      "wallet": 7348,
      "##unt": 7349,
      "##unity": 7350,
      "frosting": 7351,
      "blacktop": 7352,
      "blacksmith": 7353,
      "##uma": 7354,
      "##umb": 7355,
      "##umes": 7356,
      "##umber": 7357,
      "hoses": 7358,
      "holing": 7359,
      "threw": 7360,
      "##verage": 7361,
      "##rior": 7362,
      "##ury": 7363,
      "menus": 7364,
      "strewn": 7365,
      "streaks": 7366,
      "bust": 7367,
      "grouped": 7368,
      "streetlights": 7369,
      "coin": 7370,
      "##ili": 7371,
      "##ilight": 7372,
      "##ilies": 7373,
      "##iments": 7374,
      "beans": 7375,
      "beats": 7376,
      "beater": 7377,
      "rose": 7378,
      "rods": 7379,
      "smirking": 7380,
      "tasks": 7381,
      "tasty": 7382,
      "##ains": 7383,
      "##aining": 7384,
      "##keep": 7385,
      "##enter": 7386,
      "waterpro": 7387,
      "##ctic": 7388,
      "outcro": 7389,
      "uphill": 7390,
      "upcoming": 7391,
      "poker": 7392,
      "pockets": 7393,
      "force": 7394,
      "forrest": 7395,
      "somersault": 7396,
      "neat": 7397,
      "needs": 7398,
      "mac": 7399,
      "sket": 7400,
      "swer": 7401,
      "hate": 7402,
      "hatted": 7403,
      "snar": 7404,
      "##formers": 7405,
      "##tock": 7406,
      "##toff": 7407,
      "##ember": 7408,
      "flights": 7409,
      "fliers": 7410,
      "flotation": 7411,
      "##ulance": 7412,
      "snows": 7413,
      "snowbank": 7414,
      "spl": 7415,
      "spits": 7416,
      "sponge": 7417,
      "spilled": 7418,
      "speck": 7419,
      "overall": 7420,
      "overpa": 7421,
      "##urely": 7422,
      "trap": 7423,
      "raw": 7424,
      "rakes": 7425,
      "rags": 7426,
      "ragged": 7427,
      "##terior": 7428,
      "##using": 7429,
      "handful": 7430,
      "handker": 7431,
      "handmade": 7432,
      "##ource": 7433,
      "##ournal": 7434,
      "waking": 7435,
      "waff": 7436,
      "##pleted": 7437,
      "beauti": 7438,
      "beagle": 7439,
      "##boarders": 7440,
      "sock": 7441,
      "soon": 7442,
      "offers": 7443,
      "scri": 7444,
      "##estig": 7445,
      "##estyle": 7446,
      "alp": 7447,
      "align": 7448,
      "alumin": 7449,
      "pace": 7450,
      "paving": 7451,
      "pause": 7452,
      "pages": 7453,
      "##utist": 7454,
      "faced": 7455,
      "facade": 7456,
      "ladle": 7457,
      "camcor": 7458,
      "argu": 7459,
      "hairnet": 7460,
      "perf": 7461,
      "##isters": 7462,
      "launch": 7463,
      "unc": 7464,
      "unice": 7465,
      "unison": 7466,
      "parka": 7467,
      "topped": 7468,
      "headgear": 7469,
      "colon": 7470,
      "drunk": 7471,
      "parlor": 7472,
      "##ipers": 7473,
      "guest": 7474,
      "woodworking": 7475,
      "##antage": 7476,
      "##antically": 7477,
      "##asy": 7478,
      "pharm": 7479,
      "walker": 7480,
      "walkie": 7481,
      "##achsh": 7482,
      "##achio": 7483,
      "blonds": 7484,
      "adding": 7485,
      "##endo": 7486,
      "liberty": 7487,
      "##neck": 7488,
      "##iller": 7489,
      "##doors": 7490,
      "pregn": 7491,
      "sands": 7492,
      "sandpit": 7493,
      "cheers": 7494,
      "brisk": 7495,
      "underway": 7496,
      "review": 7497,
      "##merized": 7498,
      "suited": 7499,
      "progra": 7500,
      "proper": 7501,
      "waited": 7502,
      "again": 7503,
      "agility": 7504,
      "tanned": 7505,
      "enforcement": 7506,
      "attired": 7507,
      "attaches": 7508,
      "footprin": 7509,
      "signal": 7510,
      "towed": 7511,
      "towering": 7512,
      "darkly": 7513,
      "darkness": 7514,
      "trio": 7515,
      "loaf": 7516,
      "lollip": 7517,
      "grounds": 7518,
      "coverings": 7519,
      "whose": 7520,
      "winded": 7521,
      "mushroom": 7522,
      "sweating": 7523,
      "dealer": 7524,
      "marks": 7525,
      "marina": 7526,
      "opin": 7527,
      "mob": 7528,
      "mock": 7529,
      "moon": 7530,
      "moss": 7531,
      "moved": 7532,
      "exit": 7533,
      "exec": 7534,
      "expla": 7535,
      "cact": 7536,
      "cakes": 7537,
      "cages": 7538,
      "shelf": 7539,
      "sleigh": 7540,
      "fists": 7541,
      "Younger": 7542,
      "lei": 7543,
      "leis": 7544,
      "trek": 7545,
      "treats": 7546,
      "##ived": 7547,
      "pastor": 7548,
      "pastel": 7549,
      "layered": 7550,
      "obsc": 7551,
      "canes": 7552,
      "canned": 7553,
      "canister": 7554,
      "itself": 7555,
      "capt": 7556,
      "capes": 7557,
      "captain": 7558,
      "dried": 7559,
      "dries": 7560,
      "forearm": 7561,
      "outfielder": 7562,
      "restaurants": 7563,
      "ripped": 7564,
      "sticker": 7565,
      "saf": 7566,
      "save": 7567,
      "sauna": 7568,
      "##aki": 7569,
      "highly": 7570,
      "bowed": 7571,
      "appla": 7572,
      "##ortment": 7573,
      "##ortunity": 7574,
      "desolate": 7575,
      "##scap": 7576,
      "bears": 7577,
      "bearer": 7578,
      "veil": 7579,
      "##ronaut": 7580,
      "huts": 7581,
      "cleats": 7582,
      "batons": 7583,
      "bathed": 7584,
      "battling": 7585,
      "kicker": 7586,
      "wheat": 7587,
      "fully": 7588,
      "creative": 7589,
      "##izer": 7590,
      "cords": 7591,
      "corral": 7592,
      "corrid": 7593,
      "trink": 7594,
      "wheeling": 7595,
      "##psy": 7596,
      "##ounds": 7597,
      "amused": 7598,
      "##erees": 7599,
      "fring": 7600,
      "fris": 7601,
      "study": 7602,
      "shake": 7603,
      "breast": 7604,
      "breasts": 7605,
      "Africa": 7606,
      "jogger": 7607,
      "pointy": 7608,
      "views": 7609,
      "gripping": 7610,
      "hitch": 7611,
      "elementary": 7612,
      "speakers": 7613,
      "friendly": 7614,
      "meals": 7615,
      "lottery": 7616,
      "##aneous": 7617,
      "crack": 7618,
      "cracks": 7619,
      "crashes": 7620,
      "crashed": 7621,
      "takeout": 7622,
      "contin": 7623,
      "content": 7624,
      "patches": 7625,
      "patrol": 7626,
      "##isha": 7627,
      "stroke": 7628,
      "strobe": 7629,
      "equipped": 7630,
      "##acas": 7631,
      "##acular": 7632,
      "concession": 7633,
      "films": 7634,
      "better": 7635,
      "opportunity": 7636,
      "statute": 7637,
      "curling": 7638,
      "distorted": 7639,
      "kissed": 7640,
      "enter": 7641,
      "enters": 7642,
      "squirt": 7643,
      "squinting": 7644,
      "railway": 7645,
      "garment": 7646,
      "pitches": 7647,
      "pitched": 7648,
      "butchering": 7649,
      "numbered": 7650,
      "sexy": 7651,
      "protester": 7652,
      "rooster": 7653,
      "animated": 7654,
      "services": 7655,
      "##ertips": 7656,
      "France": 7657,
      "audio": 7658,
      "indig": 7659,
      "happening": 7660,
      "refuge": 7661,
      "referees": 7662,
      "earbuds": 7663,
      "schoolgirl": 7664,
      "welds": 7665,
      "infants": 7666,
      "##uffles": 7667,
      "Grouch": 7668,
      "landmark": 7669,
      "landscap": 7670,
      "resear": 7671,
      "electrical": 7672,
      "##iod": 7673,
      "multit": 7674,
      "breakfast": 7675,
      "formations": 7676,
      "robed": 7677,
      "exposing": 7678,
      "expensive": 7679,
      "knight": 7680,
      "knives": 7681,
      "knits": 7682,
      "director": 7683,
      "directed": 7684,
      "grid": 7685,
      "liter": 7686,
      "littered": 7687,
      "bulls": 7688,
      "claw": 7689,
      "clams": 7690,
      "potatoes": 7691,
      "report": 7692,
      "interior": 7693,
      "interested": 7694,
      "digger": 7695,
      "quilt": 7696,
      "onlooker": 7697,
      "monks": 7698,
      "monster": 7699,
      "collide": 7700,
      "banquet": 7701,
      "surfboards": 7702,
      "hammers": 7703,
      "notice": 7704,
      "trots": 7705,
      "tuba": 7706,
      "violins": 7707,
      "sweet": 7708,
      "observed": 7709,
      "countertop": 7710,
      "cutout": 7711,
      "fingertips": 7712,
      "media": 7713,
      "meditating": 7714,
      "intimate": 7715,
      "crouch": 7716,
      "talkie": 7717,
      "shading": 7718,
      "shaded": 7719,
      "violinist": 7720,
      "mirrored": 7721,
      "sleds": 7722,
      "sledge": 7723,
      "##codile": 7724,
      "overlooks": 7725,
      "ends": 7726,
      "rowers": 7727,
      "wrapping": 7728,
      "golfer": 7729,
      "##reds": 7730,
      "##allet": 7731,
      "electrician": 7732,
      "participants": 7733,
      "Spain": 7734,
      "Workmen": 7735,
      "pierced": 7736,
      "braces": 7737,
      "mixed": 7738,
      "mixes": 7739,
      "princess": 7740,
      "secured": 7741,
      "##abil": 7742,
      "partner": 7743,
      "engages": 7744,
      "assortment": 7745,
      "final": 7746,
      "packages": 7747,
      "ponders": 7748,
      "napkin": 7749,
      "straining": 7750,
      "dunks": 7751,
      "festive": 7752,
      "styl": 7753,
      "streams": 7754,
      "approach": 7755,
      "approxim": 7756,
      "decker": 7757,
      "contains": 7758,
      "mustached": 7759,
      "mustachio": 7760,
      "such": 7761,
      "suite": 7762,
      "colleag": 7763,
      "collected": 7764,
      "excav": 7765,
      "kinds": 7766,
      "barbie": 7767,
      "figur": 7768,
      "professionally": 7769,
      "cutoff": 7770,
      "##araoke": 7771,
      "mopping": 7772,
      "tiles": 7773,
      "sprinkles": 7774,
      "sprinkled": 7775,
      "sprinkling": 7776,
      "campaign": 7777,
      "keyboards": 7778,
      "panel": 7779,
      "remember": 7780,
      "twent": 7781,
      "twigs": 7782,
      "twilight": 7783,
      "##angular": 7784,
      "investig": 7785,
      "donuts": 7786,
      "dustpan": 7787,
      "glit": 7788,
      "sheepdog": 7789,
      "hurdles": 7790,
      "pairs": 7791,
      "vacant": 7792,
      "##pany": 7793,
      "defends": 7794,
      "feeds": 7795,
      "positions": 7796,
      "diaper": 7797,
      "diag": 7798,
      "featured": 7799,
      "wildflowers": 7800,
      "pretends": 7801,
      "awe": 7802,
      "route": 7803,
      "simult": 7804,
      "trips": 7805,
      "entertains": 7806,
      "entertaining": 7807,
      "entertained": 7808,
      "entertainment": 7809,
      "Road": 7810,
      "bouncer": 7811,
      "bounces": 7812,
      "bouncy": 7813,
      "racquet": 7814,
      "peaceful": 7815,
      "ceramic": 7816,
      "dreads": 7817,
      "ponytails": 7818,
      "focuses": 7819,
      "trumpets": 7820,
      "Ski": 7821,
      "Skier": 7822,
      "Skiers": 7823,
      "dumps": 7824,
      "fences": 7825,
      "warmly": 7826,
      "outstreached": 7827,
      "spreads": 7828,
      "spreading": 7829,
      "protesters": 7830,
      "heartbeat": 7831,
      "freeway": 7832,
      "leafy": 7833,
      "dishwas": 7834,
      "applied": 7835,
      "BMW": 7836,
      "Coffee": 7837,
      "aquatic": 7838,
      "extra": 7839,
      "extends": 7840,
      "housing": 7841,
      "recently": 7842,
      "Firetrucks": 7843,
      "ducking": 7844,
      "lounges": 7845,
      "nursing": 7846,
      "villagers": 7847,
      "cobbled": 7848,
      "taxis": 7849,
      "cabinet": 7850,
      "patiently": 7851,
      "supervis": 7852,
      "transporting": 7853,
      "Dozens": 7854,
      "crotch": 7855,
      "crocodile": 7856,
      "pumpkins": 7857,
      "ballerinas": 7858,
      "parasail": 7859,
      "bagpipe": 7860,
      "craftsman": 7861,
      "Student": 7862,
      "grandda": 7863,
      "grandmother": 7864,
      "vacuums": 7865,
      "demonstrates": 7866,
      "popul": 7867,
      "popping": 7868,
      "related": 7869,
      "reluct": 7870,
      "rappelling": 7871,
      "region": 7872,
      "decals": 7873,
      "seemingly": 7874,
      "similarly": 7875,
      "powerpoint": 7876,
      "tickets": 7877,
      "organized": 7878,
      "scoops": 7879,
      "records": 7880,
      "remove": 7881,
      "removes": 7882,
      "removed": 7883,
      "Hollister": 7884,
      "pressing": 7885,
      "presses": 7886,
      "##eteran": 7887,
      "bullet": 7888,
      "poorly": 7889,
      "skillfully": 7890,
      "snowshoe": 7891,
      "solar": 7892,
      "solider": 7893,
      "technic": 7894,
      "tricycles": 7895,
      "screams": 7896,
      "congregating": 7897,
      "congregated": 7898,
      "Scottish": 7899,
      "impro": 7900,
      "paying": 7901,
      "##namese": 7902,
      "spiking": 7903,
      "leotards": 7904,
      "texas": 7905,
      "enthusiasm": 7906,
      "shadowed": 7907,
      "navigating": 7908,
      "portraits": 7909,
      "Comm": 7910,
      "Comp": 7911,
      "Company": 7912,
      "fitness": 7913,
      "blurry": 7914,
      "briefs": 7915,
      "advantage": 7916,
      "horizont": 7917,
      "uniquely": 7918,
      "recliner": 7919,
      "descends": 7920,
      "awaits": 7921,
      "Mexico": 7922,
      "elbow": 7923,
      "samura": 7924,
      "informal": 7925,
      "unusually": 7926,
      "flamboy": 7927,
      "elevator": 7928,
      "notebooks": 7929,
      "assembly": 7930,
      "retriever": 7931,
      "tuxedos": 7932,
      "Player": 7933,
      "accompanies": 7934,
      "diverse": 7935,
      "fatig": 7936,
      "geese": 7937,
      "geomet": 7938,
      "geisha": 7939,
      "sari": 7940,
      "tutus": 7941,
      "maneuvers": 7942,
      "maneuvering": 7943,
      "charging": 7944,
      "sparkler": 7945,
      "sparklers": 7946,
      "unload": 7947,
      "cameramen": 7948,
      "twirls": 7949,
      "SquarePants": 7950,
      "everywhere": 7951,
      "ferry": 7952,
      "jackhammer": 7953,
      "latex": 7954,
      "graduate": 7955,
      "forklift": 7956,
      "spectacular": 7957,
      "arrival": 7958,
      "released": 7959,
      "textile": 7960,
      "mesmerized": 7961,
      "years": 7962,
      "staying": 7963,
      "shielding": 7964,
      "toilets": 7965,
      "fortune": 7966,
      "backhand": 7967,
      "propane": 7968,
      "captured": 7969,
      "captures": 7970,
      "flashlight": 7971,
      "turtleneck": 7972,
      "explorer": 7973,
      "bordering": 7974,
      "bordered": 7975,
      "lassoing": 7976,
      "mannequins": 7977,
      "Fisherman": 7978,
      "Fishermen": 7979,
      "Jockey": 7980,
      "Latino": 7981,
      "Team": 7982,
      "bumper": 7983,
      "noodle": 7984,
      "skew": 7985,
      "vaulting": 7986,
      "holidays": 7987,
      "needed": 7988,
      "sprints": 7989,
      "sunhats": 7990,
      "launching": 7991,
      "launches": 7992,
      "mosque": 7993,
      "mosaic": 7994,
      "wristband": 7995,
      "videotapes": 7996,
      "piercings": 7997,
      "extreme": 7998,
      "Excited": 7999,
      "affection": 8000,
      "cycles": 8001,
      "county": 8002,
      "crystal": 8003,
      "moose": 8004,
      "pouting": 8005,
      "zombies": 8006,
      "zombie": 8007,
      "innertub": 8008,
      "challenge": 8009,
      "flooded": 8010,
      "addressing": 8011,
      "addresses": 8012,
      "livestock": 8013,
      "barricades": 8014,
      "hamburger": 8015,
      "hamburgers": 8016,
      "ornament": 8017,
      "awnings": 8018,
      "poncho": 8019,
      "ponchos": 8020,
      "enclosed": 8021,
      "enclosure": 8022,
      "Snowboarder": 8023,
      "proudly": 8024,
      "Califor": 8025,
      "Monopoly": 8026,
      "Overhead": 8027,
      "Twelve": 8028,
      "emotion": 8029,
      "ecst": 8030,
      "families": 8031,
      "gypsy": 8032,
      "growing": 8033,
      "hedge": 8034,
      "nibbling": 8035,
      "natural": 8036,
      "paneled": 8037,
      "##aeolog": 8038,
      "stained": 8039,
      "answers": 8040,
      "clerk": 8041,
      "Angels": 8042,
      "spiral": 8043,
      "blossoming": 8044,
      "prevent": 8045,
      "procession": 8046,
      "provide": 8047,
      "slowly": 8048,
      "amazing": 8049,
      "turbans": 8050,
      "prayer": 8051,
      "patriotic": 8052,
      "refreshing": 8053,
      "representing": 8054,
      "saxophones": 8055,
      "Athletes": 8056,
      "Soldiers": 8057,
      "fingernail": 8058,
      "admires": 8059,
      "depicting": 8060,
      "Italian": 8061,
      "fleece": 8062,
      "Colorful": 8063,
      "strumming": 8064,
      "responding": 8065,
      "penguin": 8066,
      "tambourine": 8067,
      "Dressed": 8068,
      "Deli": 8069,
      "Pitcher": 8070,
      "SUV": 8071,
      "dugout": 8072,
      "gorgeous": 8073,
      "honor": 8074,
      "llama": 8075,
      "limo": 8076,
      "trouble": 8077,
      "vigorously": 8078,
      "yawning": 8079,
      "##piece": 8080,
      "baggage": 8081,
      "graphic": 8082,
      "sombrero": 8083,
      "ashore": 8084,
      "machete": 8085,
      "snowfla": 8086,
      "arranged": 8087,
      "government": 8088,
      "lakeside": 8089,
      "uncompleted": 8090,
      "pursued": 8091,
      "healthcare": 8092,
      "plugging": 8093,
      "shelter": 8094,
      "grimacing": 8095,
      "Individuals": 8096,
      "seamstress": 8097,
      "explores": 8098,
      "explosion": 8099,
      "screwdriver": 8100,
      "primitive": 8101,
      "pruning": 8102,
      "handlebars": 8103,
      "Toyota": 8104,
      "Teenagers": 8105,
      "utensils": 8106,
      "satchel": 8107,
      "pleasant": 8108,
      "rehearsing": 8109,
      "miniskirt": 8110,
      "tethered": 8111,
      "metropolitan": 8112,
      "3rd": 8113,
      "Autumn": 8114,
      "Berlin": 8115,
      "Batman": 8116,
      "Employ": 8117,
      "Gymnast": 8118,
      "Homeless": 8119,
      "Korean": 8120,
      "Lakers": 8121,
      "Nintendo": 8122,
      "Rugby": 8123,
      "Sitting": 8124,
      "astronaut": 8125,
      "cereal": 8126,
      "cushion": 8127,
      "dwelling": 8128,
      "dandel": 8129,
      "dentist": 8130,
      "drenched": 8131,
      "duffel": 8132,
      "effort": 8133,
      "fierce": 8134,
      "heeled": 8135,
      "ironing": 8136,
      "ollie": 8137,
      "panda": 8138,
      "pelican": 8139,
      "ritual": 8140,
      "ruler": 8141,
      "rectangular": 8142,
      "rainstorm": 8143,
      "salmon": 8144,
      "sippy": 8145,
      "tulips": 8146,
      "##iachi": 8147,
      "##woman": 8148,
      "index": 8149,
      "##rofoam": 8150,
      "stethoscope": 8151,
      "shrimp": 8152,
      "shampoo": 8153,
      "tobacco": 8154,
      "##keeper": 8155,
      "outcropping": 8156,
      "overpass": 8157,
      "handkerchief": 8158,
      "beautifully": 8159,
      "aluminum": 8160,
      "camcorder": 8161,
      "arguing": 8162,
      "unicef": 8163,
      "##achshund": 8164,
      "pregnant": 8165,
      "briskly": 8166,
      "reviewing": 8167,
      "footprints": 8168,
      "lollipop": 8169,
      "corridor": 8170,
      "approximately": 8171,
      "mustachioed": 8172,
      "dishwasher": 8173,
      "granddaughter": 8174,
      "samurai": 8175,
      "geometric": 8176,
      "California": 8177,
      "13": 8178,
      "18": 8179,
      "25": 8180,
      "28": 8181,
      "38": 8182,
      "63": 8183,
      "80": 8184,
      "96": 8185,
      "Av": 8186,
      "Ast": 8187,
      "Airline": 8188,
      "Be": 8189,
      "Bes": 8190,
      "Ball": 8191,
      "Bun": 8192,
      "Bill": 8193,
      "Bare": 8194,
      "Bird": 8195,
      "Bank": 8196,
      "Broad": 8197,
      "Birthday": 8198,
      "Bright": 8199,
      "Brick": 8200,
      "Cro": 8201,
      "Cor": 8202,
      "Cri": 8203,
      "Cam": 8204,
      "Circ": 8205,
      "Cooks": 8206,
      "Da": 8207,
      "Dr": 8208,
      "DI": 8209,
      "Din": 8210,
      "Doo": 8211,
      "Dame": 8212,
      "Dane": 8213,
      "Dav": 8214,
      "Darth": 8215,
      "EL": 8216,
      "Every": 8217,
      "Earth": 8218,
      "Egy": 8219,
      "Fa": 8220,
      "Fin": 8221,
      "Far": 8222,
      "Fat": 8223,
      "For": 8224,
      "Free": 8225,
      "Fair": 8226,
      "Fest": 8227,
      "Fans": 8228,
      "Gen": 8229,
      "Glass": 8230,
      "Giant": 8231,
      "Hou": 8232,
      "Hop": 8233,
      "Hea": 8234,
      "Hum": 8235,
      "Hind": 8236,
      "Hus": 8237,
      "Hero": 8238,
      "Ir": 8239,
      "Iow": 8240,
      "Jes": 8241,
      "Jump": 8242,
      "Just": 8243,
      "James": 8244,
      "King": 8245,
      "Kle": 8246,
      "Kaw": 8247,
      "Keep": 8248,
      "Li": 8249,
      "LA": 8250,
      "Lea": 8251,
      "Las": 8252,
      "Live": 8253,
      "Los": 8254,
      "Law": 8255,
      "Lab": 8256,
      "Mu": 8257,
      "My": 8258,
      "MM": 8259,
      "Mor": 8260,
      "May": 8261,
      "Mach": 8262,
      "Must": 8263,
      "Mac": 8264,
      "Mike": 8265,
      "NE": 8266,
      "Nan": 8267,
      "Nes": 8268,
      "Near": 8269,
      "Nur": 8270,
      "Need": 8271,
      "Ox": 8272,
      "OU": 8273,
      "Ore": 8274,
      "Pe": 8275,
      "Pan": 8276,
      "Pro": 8277,
      "Pen": 8278,
      "Pet": 8279,
      "Pop": 8280,
      "Pot": 8281,
      "Pad": 8282,
      "Pel": 8283,
      "Pee": 8284,
      "Port": 8285,
      "Prin": 8286,
      "Power": 8287,
      "Pab": 8288,
      "Pipe": 8289,
      "Pret": 8290,
      "Pilot": 8291,
      "Poke": 8292,
      "RV": 8293,
      "Rep": 8294,
      "Rican": 8295,
      "Rail": 8296,
      "Rider": 8297,
      "SW": 8298,
      "SC": 8299,
      "Sal": 8300,
      "Ses": 8301,
      "Sand": 8302,
      "Sch": 8303,
      "Sum": 8304,
      "Sver": 8305,
      "Sout": 8306,
      "Sled": 8307,
      "Sty": 8308,
      "Sund": 8309,
      "TE": 8310,
      "Tan": 8311,
      "Top": 8312,
      "Tall": 8313,
      "Tri": 8314,
      "Tur": 8315,
      "Tree": 8316,
      "Tim": 8317,
      "Tank": 8318,
      "Time": 8319,
      "Up": 8320,
      "Ur": 8321,
      "UF": 8322,
      "VW": 8323,
      "Vic": 8324,
      "Very": 8325,
      "Viet": 8326,
      "Veteran": 8327,
      "Wo": 8328,
      "WA": 8329,
      "War": 8330,
      "Well": 8331,
      "Wood": 8332,
      "Wee": 8333,
      "Water": 8334,
      "Western": 8335,
      "Yan": 8336,
      "Year": 8337,
      "YMC": 8338,
      "Zune": 8339,
      "au": 8340,
      "aston": 8341,
      "average": 8342,
      "bree": 8343,
      "bone": 8344,
      "bist": 8345,
      "bins": 8346,
      "bits": 8347,
      "bunk": 8348,
      "binder": 8349,
      "cue": 8350,
      "crow": 8351,
      "cad": 8352,
      "cale": 8353,
      "dj": 8354,
      "ding": 8355,
      "dir": 8356,
      "did": 8357,
      "doo": 8358,
      "die": 8359,
      "dut": 8360,
      "dies": 8361,
      "daring": 8362,
      "divid": 8363,
      "dental": 8364,
      "dachshund": 8365,
      "ep": 8366,
      "ere": 8367,
      "esp": 8368,
      "ecc": 8369,
      "fear": 8370,
      "fri": 8371,
      "fel": 8372,
      "fund": 8373,
      "fixture": 8374,
      "ga": 8375,
      "gal": 8376,
      "gir": 8377,
      "gen": 8378,
      "gam": 8379,
      "gap": 8380,
      "gut": 8381,
      "gates": 8382,
      "hide": 8383,
      "hump": 8384,
      "heat": 8385,
      "hamp": 8386,
      "hops": 8387,
      "hides": 8388,
      "hoping": 8389,
      "hello": 8390,
      "ic": 8391,
      "ig": 8392,
      "idle": 8393,
      "iced": 8394,
      "ign": 8395,
      "jam": 8396,
      "jous": 8397,
      "jets": 8398,
      "japan": 8399,
      "janitor": 8400,
      "journal": 8401,
      "ka": 8402,
      "ker": 8403,
      "kil": 8404,
      "kel": 8405,
      "kill": 8406,
      "karaoke": 8407,
      "lun": 8408,
      "lack": 8409,
      "less": 8410,
      "lets": 8411,
      "later": 8412,
      "lang": 8413,
      "moun": 8414,
      "mood": 8415,
      "mine": 8416,
      "mean": 8417,
      "math": 8418,
      "mort": 8419,
      "mime": 8420,
      "milling": 8421,
      "mixture": 8422,
      "mallet": 8423,
      "nan": 8424,
      "ner": 8425,
      "non": 8426,
      "nips": 8427,
      "names": 8428,
      "nuts": 8429,
      "norm": 8430,
      "national": 8431,
      "ori": 8432,
      "oak": 8433,
      "oars": 8434,
      "owl": 8435,
      "pf": 8436,
      "pal": 8437,
      "pam": 8438,
      "ply": 8439,
      "page": 8440,
      "pout": 8441,
      "piling": 8442,
      "pean": 8443,
      "pud": 8444,
      "pies": 8445,
      "pew": 8446,
      "piz": 8447,
      "pork": 8448,
      "peep": 8449,
      "que": 8450,
      "rh": 8451,
      "rin": 8452,
      "rat": 8453,
      "ren": 8454,
      "rot": 8455,
      "ram": 8456,
      "rip": 8457,
      "rather": 8458,
      "rates": 8459,
      "rugg": 8460,
      "rising": 8461,
      "risk": 8462,
      "rushing": 8463,
      "sick": 8464,
      "sous": 8465,
      "sush": 8466,
      "sib": 8467,
      "suck": 8468,
      "sending": 8469,
      "sends": 8470,
      "sash": 8471,
      "size": 8472,
      "source": 8473,
      "sisters": 8474,
      "tell": 8475,
      "tress": 8476,
      "tru": 8477,
      "tort": 8478,
      "tests": 8479,
      "tuck": 8480,
      "tipping": 8481,
      "tilts": 8482,
      "times": 8483,
      "tilted": 8484,
      "tumble": 8485,
      "vo": 8486,
      "vat": 8487,
      "ves": 8488,
      "vase": 8489,
      "voc": 8490,
      "wit": 8491,
      "wre": 8492,
      "wou": 8493,
      "ward": 8494,
      "wants": 8495,
      "wits": 8496,
      "wrench": 8497,
      "wands": 8498,
      "wanting": 8499,
      "western": 8500,
      "wounds": 8501,
      "yells": 8502,
      "zig": 8503,
      "##ass": 8504,
      "##ael": 8505,
      "##aust": 8506,
      "##aired": 8507,
      "##ailed": 8508,
      "##mar": 8509,
      "##mble": 8510,
      "##mong": 8511,
      "##mig": 8512,
      "##mates": 8513,
      "##mined": 8514,
      "##mused": 8515,
      "##mmage": 8516,
      "##eers": 8517,
      "##fy": 8518,
      "##fing": 8519,
      "##fir": 8520,
      "##fers": 8521,
      "##file": 8522,
      "##fight": 8523,
      "##father": 8524,
      "##front": 8525,
      "##cis": 8526,
      "##cons": 8527,
      "##casing": 8528,
      "##cuss": 8529,
      "##cred": 8530,
      "##tw": 8531,
      "##the": 8532,
      "##tra": 8533,
      "##tying": 8534,
      "##tage": 8535,
      "##tti": 8536,
      "##troke": 8537,
      "##tuce": 8538,
      "##do": 8539,
      "##down": 8540,
      "##das": 8541,
      "##dies": 8542,
      "##dging": 8543,
      "##dlers": 8544,
      "##ddles": 8545,
      "##pea": 8546,
      "##pri": 8547,
      "##pard": 8548,
      "##ply": 8549,
      "##pool": 8550,
      "##pants": 8551,
      "##pect": 8552,
      "##pily": 8553,
      "##phed": 8554,
      "##plane": 8555,
      "##poms": 8556,
      "##prised": 8557,
      "##loo": 8558,
      "##liv": 8559,
      "##looking": 8560,
      "##lated": 8561,
      "##lanta": 8562,
      "##lifier": 8563,
      "##ltry": 8564,
      "##sue": 8565,
      "##sung": 8566,
      "##ov": 8567,
      "##over": 8568,
      "##oft": 8569,
      "##ody": 8570,
      "##ods": 8571,
      "##olet": 8572,
      "##obe": 8573,
      "##oopy": 8574,
      "##uve": 8575,
      "##uage": 8576,
      "##ucer": 8577,
      "##uish": 8578,
      "##ulent": 8579,
      "##urous": 8580,
      "##run": 8581,
      "##rine": 8582,
      "##rank": 8583,
      "##yg": 8584,
      "##yan": 8585,
      "##yor": 8586,
      "##ythe": 8587,
      "##hi": 8588,
      "##hin": 8589,
      "##how": 8590,
      "##hist": 8591,
      "##nches": 8592,
      "##nas": 8593,
      "##noc": 8594,
      "##national": 8595,
      "##bl": 8596,
      "##bes": 8597,
      "##bum": 8598,
      "##brow": 8599,
      "##bard": 8600,
      "##biling": 8601,
      "##bust": 8602,
      "##bors": 8603,
      "##bird": 8604,
      "##bread": 8605,
      "##gun": 8606,
      "##green": 8607,
      "##gway": 8608,
      "##gant": 8609,
      "##gons": 8610,
      "##ially": 8611,
      "##iker": 8612,
      "##kward": 8613,
      "##vre": 8614,
      "##vate": 8615,
      "##vation": 8616,
      "##vous": 8617,
      "##velling": 8618,
      "##wan": 8619,
      "##won": 8620,
      "##wls": 8621,
      "##walks": 8622,
      "##xican": 8623,
      "##zag": 8624,
      "##zels": 8625,
      "##AH": 8626,
      "##AK": 8627,
      "##AM": 8628,
      "##UB": 8629,
      "##jab": 8630,
      "##OM": 8631,
      "##GA": 8632,
      "##IN": 8633,
      "##ND": 8634,
      "##VE": 8635,
      "##EP": 8636,
      "##EGO": 8637,
      "##Bron": 8638,
      "##08": 8639,
      "##XX": 8640,
      "##inc": 8641,
      "##inn": 8642,
      "##inar": 8643,
      "##ani": 8644,
      "##angs": 8645,
      "##anging": 8646,
      "##ancis": 8647,
      "##erts": 8648,
      "innoc": 8649,
      "##itate": 8650,
      "##itage": 8651,
      "##itively": 8652,
      "##hen": 8653,
      "##hell": 8654,
      "##heast": 8655,
      "##hetti": 8656,
      "##rets": 8657,
      "##ream": 8658,
      "##rect": 8659,
      "##lear": 8660,
      "##lets": 8661,
      "##lectic": 8662,
      "##aran": 8663,
      "##aris": 8664,
      "##nds": 8665,
      "##ndy": 8666,
      "##nding": 8667,
      "##ndar": 8668,
      "##nded": 8669,
      "##ndon": 8670,
      "##ndreds": 8671,
      "##roat": 8672,
      "oncoming": 8673,
      "##alo": 8674,
      "##alom": 8675,
      "##alie": 8676,
      "##atch": 8677,
      "##atted": 8678,
      "##irrel": 8679,
      "##ences": 8680,
      "##enous": 8681,
      "##enact": 8682,
      "isle": 8683,
      "issue": 8684,
      "mane": 8685,
      "manu": 8686,
      "mantle": 8687,
      "manure": 8688,
      "manage": 8689,
      "manip": 8690,
      "manner": 8691,
      "##omy": 8692,
      "##laim": 8693,
      "##lamic": 8694,
      "stem": 8695,
      "stap": 8696,
      "state": 8697,
      "stout": 8698,
      "stee": 8699,
      "starf": 8700,
      "stake": 8701,
      "stumbling": 8702,
      "##cken": 8703,
      "##ory": 8704,
      "##oring": 8705,
      "##orak": 8706,
      "##orugh": 8707,
      "##lden": 8708,
      "##idence": 8709,
      "whale": 8710,
      "##oped": 8711,
      "shut": 8712,
      "shine": 8713,
      "shish": 8714,
      "shined": 8715,
      "shift": 8716,
      "shuffles": 8717,
      "shrine": 8718,
      "##ishing": 8719,
      "##istered": 8720,
      "##oose": 8721,
      "##ooby": 8722,
      "tot": 8723,
      "toes": 8724,
      "toting": 8725,
      "toll": 8726,
      "toil": 8727,
      "tote": 8728,
      "plaque": 8729,
      "plaster": 8730,
      "##iches": 8731,
      "##icult": 8732,
      "##allowing": 8733,
      "##allows": 8734,
      "atm": 8735,
      "atv": 8736,
      "atyl": 8737,
      "##chie": 8738,
      "##change": 8739,
      "##chase": 8740,
      "##erside": 8741,
      "##tingent": 8742,
      "##ouncement": 8743,
      "##rain": 8744,
      "##rael": 8745,
      "##raul": 8746,
      "##racted": 8747,
      "##raper": 8748,
      "##raised": 8749,
      "##raiser": 8750,
      "bored": 8751,
      "bodies": 8752,
      "bonding": 8753,
      "docum": 8754,
      "##llow": 8755,
      "##llution": 8756,
      "##llaneous": 8757,
      "ant": 8758,
      "anticip": 8759,
      "anxiously": 8760,
      "anorak": 8761,
      "sites": 8762,
      "blues": 8763,
      "##gel": 8764,
      "##hernal": 8765,
      "##ilding": 8766,
      "cha": 8767,
      "chun": 8768,
      "chim": 8769,
      "chore": 8770,
      "chap": 8771,
      "chipping": 8772,
      "chief": 8773,
      "chores": 8774,
      "chipper": 8775,
      "chili": 8776,
      "bas": 8777,
      "bale": 8778,
      "baking": 8779,
      "bake": 8780,
      "bales": 8781,
      "baker": 8782,
      "based": 8783,
      "baza": 8784,
      "bagel": 8785,
      "##stle": 8786,
      "##step": 8787,
      "##otted": 8788,
      "##unken": 8789,
      "frog": 8790,
      "frothy": 8791,
      "frowning": 8792,
      "fronds": 8793,
      "blackboard": 8794,
      "##cellaneous": 8795,
      "##umably": 8796,
      "hoe": 8797,
      "hog": 8798,
      "host": 8799,
      "hoist": 8800,
      "hokey": 8801,
      "hovering": 8802,
      "hollow": 8803,
      "thing": 8804,
      "thong": 8805,
      "thous": 8806,
      "throat": 8807,
      "thorugh": 8808,
      "##rible": 8809,
      "##riger": 8810,
      "##rigu": 8811,
      "##riously": 8812,
      "##ribing": 8813,
      "##urn": 8814,
      "##urst": 8815,
      "##urry": 8816,
      "##urance": 8817,
      "##ador": 8818,
      "##aders": 8819,
      "##addle": 8820,
      "##amond": 8821,
      "##amaran": 8822,
      "bug": 8823,
      "bucks": 8824,
      "buys": 8825,
      "##arding": 8826,
      "hazard": 8827,
      "downing": 8828,
      "downward": 8829,
      "downwards": 8830,
      "##semble": 8831,
      "cob": 8832,
      "cola": 8833,
      "coke": 8834,
      "coached": 8835,
      "##ilizing": 8836,
      "bell": 8837,
      "become": 8838,
      "bemused": 8839,
      "role": 8840,
      "smear": 8841,
      "smel": 8842,
      "smart": 8843,
      "smelling": 8844,
      "herd": 8845,
      "hero": 8846,
      "heron": 8847,
      "herbs": 8848,
      "heritage": 8849,
      "taping": 8850,
      "taped": 8851,
      "##eller": 8852,
      "##resso": 8853,
      "##ressing": 8854,
      "##ays": 8855,
      "##kemp": 8856,
      "##entric": 8857,
      "##eliner": 8858,
      "grain": 8859,
      "grave": 8860,
      "graying": 8861,
      "grains": 8862,
      "graze": 8863,
      "grasps": 8864,
      "watery": 8865,
      "watered": 8866,
      "##ctural": 8867,
      "##ioneer": 8868,
      "outboard": 8869,
      "carol": 8870,
      "carav": 8871,
      "dressing": 8872,
      "Their": 8873,
      "clip": 8874,
      "clips": 8875,
      "clicking": 8876,
      "upturned": 8877,
      "upraised": 8878,
      "pollution": 8879,
      "##umped": 8880,
      "Thai": 8881,
      "Thurs": 8882,
      "Thomas": 8883,
      "asp": 8884,
      "aside": 8885,
      "##oodle": 8886,
      "backing": 8887,
      "backed": 8888,
      "backfl": 8889,
      "worn": 8890,
      "worsh": 8891,
      "worried": 8892,
      "##vender": 8893,
      "##veyor": 8894,
      "necks": 8895,
      "greenhouse": 8896,
      "maple": 8897,
      "mason": 8898,
      "mauve": 8899,
      "skit": 8900,
      "swirl": 8901,
      "swung": 8902,
      "swallowing": 8903,
      "swaddle": 8904,
      "hatche": 8905,
      "snoo": 8906,
      "snail": 8907,
      "snugg": 8908,
      "snoopy": 8909,
      "##former": 8910,
      "##bles": 8911,
      "##tore": 8912,
      "##inding": 8913,
      "##inders": 8914,
      "##indeer": 8915,
      "bibs": 8916,
      "sideline": 8917,
      "sidewalks": 8918,
      "##rene": 8919,
      "flier": 8920,
      "flutes": 8921,
      "flinging": 8922,
      "flipped": 8923,
      "throughout": 8924,
      "##ongol": 8925,
      "##ulk": 8926,
      "##ulture": 8927,
      "##aphernal": 8928,
      "snowdri": 8929,
      "snowstorm": 8930,
      "brownish": 8931,
      "spa": 8932,
      "spher": 8933,
      "spout": 8934,
      "spend": 8935,
      "spare": 8936,
      "spag": 8937,
      "spac": 8938,
      "spending": 8939,
      "spattered": 8940,
      "overcast": 8941,
      "trading": 8942,
      "trade": 8943,
      "traverse": 8944,
      "travelling": 8945,
      "raging": 8946,
      "##tering": 8947,
      "##iance": 8948,
      "handc": 8949,
      "handsh": 8950,
      "handled": 8951,
      "handler": 8952,
      "handhold": 8953,
      "handbags": 8954,
      "handicapped": 8955,
      "handgun": 8956,
      "##ourful": 8957,
      "builds": 8958,
      "builder": 8959,
      "conv": 8960,
      "conce": 8961,
      "conif": 8962,
      "contingent": 8963,
      "conveyor": 8964,
      "##inky": 8965,
      "wavy": 8966,
      "wagons": 8967,
      "##atever": 8968,
      "##plechase": 8969,
      "beaut": 8970,
      "beaker": 8971,
      "##igator": 8972,
      "##rowded": 8973,
      "nears": 8974,
      "somebody": 8975,
      "##ept": 8976,
      "##boards": 8977,
      "soaked": 8978,
      "soaking": 8979,
      "sodas": 8980,
      "##phony": 8981,
      "offer": 8982,
      "offered": 8983,
      "scan": 8984,
      "scope": 8985,
      "scary": 8986,
      "scram": 8987,
      "scythe": 8988,
      "scoring": 8989,
      "##pper": 8990,
      "##ppies": 8991,
      "always": 8992,
      "aloud": 8993,
      "altit": 8994,
      "aloft": 8995,
      "album": 8996,
      "##uth": 8997,
      "##rup": 8998,
      "##icked": 8999,
      "fare": 9000,
      "faith": 9001,
      "faux": 9002,
      "camo": 9003,
      "##ffin": 9004,
      "##oors": 9005,
      "##ineken": 9006,
      "arrest": 9007,
      "array": 9008,
      "hairy": 9009,
      "hairdress": 9010,
      "hairdo": 9011,
      "peruses": 9012,
      "period": 9013,
      "percuss": 9014,
      "##istry": 9015,
      "worked": 9016,
      "workmen": 9017,
      "sunfl": 9018,
      "law": 9019,
      "lace": 9020,
      "lava": 9021,
      "lavender": 9022,
      "union": 9023,
      "unfriend": 9024,
      "unkemp": 9025,
      "##gets": 9026,
      "comic": 9027,
      "topping": 9028,
      "header": 9029,
      "headlight": 9030,
      "headfir": 9031,
      "bloom": 9032,
      "blooming": 9033,
      "rocker": 9034,
      "rocket": 9035,
      "colourful": 9036,
      "drunken": 9037,
      "bicycl": 9038,
      "surprised": 9039,
      "thatched": 9040,
      "parks": 9041,
      "partic": 9042,
      "parrot": 9043,
      "paraphernal": 9044,
      "##uding": 9045,
      "busking": 9046,
      "busily": 9047,
      "busker": 9048,
      "bushel": 9049,
      "could": 9050,
      "couches": 9051,
      "##ubble": 9052,
      "guiding": 9053,
      "guides": 9054,
      "##asking": 9055,
      "##asion": 9056,
      "##ascar": 9057,
      "##asaki": 9058,
      "##oli": 9059,
      "##olin": 9060,
      "add": 9061,
      "adds": 9062,
      "##ska": 9063,
      "lif": 9064,
      "likes": 9065,
      "lizard": 9066,
      "univers": 9067,
      "##ggle": 9068,
      "pred": 9069,
      "prepping": 9070,
      "##shot": 9071,
      "##shments": 9072,
      "climbed": 9073,
      "teaches": 9074,
      "teachers": 9075,
      "bring": 9076,
      "brand": 9077,
      "reb": 9078,
      "reco": 9079,
      "reenact": 9080,
      "props": 9081,
      "treeless": 9082,
      "motions": 9083,
      "envel": 9084,
      "ensure": 9085,
      "ensemble": 9086,
      "##ques": 9087,
      "##quence": 9088,
      "height": 9089,
      "leave": 9090,
      "leaped": 9091,
      "leashed": 9092,
      "attaching": 9093,
      "compartment": 9094,
      "slou": 9095,
      "slum": 9096,
      "slim": 9097,
      "slung": 9098,
      "slips": 9099,
      "slalom": 9100,
      "slumped": 9101,
      "boaters": 9102,
      "coated": 9103,
      "strips": 9104,
      "catamaran": 9105,
      "plow": 9106,
      "plume": 9107,
      "bands": 9108,
      "bandage": 9109,
      "loves": 9110,
      "loses": 9111,
      "locks": 9112,
      "lovers": 9113,
      "lodge": 9114,
      "london": 9115,
      "horsemen": 9116,
      "barn": 9117,
      "sweatpants": 9118,
      "devil": 9119,
      "maracas": 9120,
      "mariachi": 9121,
      "mold": 9122,
      "mover": 9123,
      "exting": 9124,
      "exotic": 9125,
      "exterior": 9126,
      "Challen": 9127,
      "restra": 9128,
      "restara": 9129,
      "caged": 9130,
      "cavern": 9131,
      "caressing": 9132,
      "setup": 9133,
      "shots": 9134,
      "armored": 9135,
      "fishermen": 9136,
      "##nished": 9137,
      "##locked": 9138,
      "treed": 9139,
      "trendy": 9140,
      "##ivated": 9141,
      "pasture": 9142,
      "pastry": 9143,
      "obstru": 9144,
      "obliv": 9145,
      "capri": 9146,
      "capital": 9147,
      "dribble": 9148,
      "drifts": 9149,
      "##ups": 9150,
      "showers": 9151,
      "showgirl": 9152,
      "showcasing": 9153,
      "forehand": 9154,
      "##mped": 9155,
      "outfield": 9156,
      "passer": 9157,
      "passage": 9158,
      "ribs": 9159,
      "abs": 9160,
      "flap": 9161,
      "flaps": 9162,
      "fires": 9163,
      "saving": 9164,
      "sauce": 9165,
      "saucer": 9166,
      "bowled": 9167,
      "bowties": 9168,
      "openings": 9169,
      "##cessing": 9170,
      "apprec": 9171,
      "##ortant": 9172,
      "designing": 9173,
      "ally": 9174,
      "allow": 9175,
      "##sco": 9176,
      "##scraper": 9177,
      "##ewrit": 9178,
      "cells": 9179,
      "cellular": 9180,
      "##speaker": 9181,
      "costumed": 9182,
      "cartons": 9183,
      "hugged": 9184,
      "hundreds": 9185,
      "matches": 9186,
      "matador": 9187,
      "clever": 9188,
      "clenches": 9189,
      "##ials": 9190,
      "##berman": 9191,
      "newsc": 9192,
      "meter": 9193,
      "##iffel": 9194,
      "##itioning": 9195,
      "teeter": 9196,
      "batting": 9197,
      "battery": 9198,
      "lighthouse": 9199,
      "competitively": 9200,
      "paperback": 9201,
      "##dding": 9202,
      "riverbed": 9203,
      "##grapher": 9204,
      "metalworking": 9205,
      "creation": 9206,
      "creature": 9207,
      "cowork": 9208,
      "cork": 9209,
      "correct": 9210,
      "hardware": 9211,
      "##ables": 9212,
      "drumming": 9213,
      "drummers": 9214,
[...]
